{
  "version": "1.0",
  "truncation": null,
  "padding": null,
  "added_tokens": [
    {
      "id": 0,
      "content": "[UNK]",
      "single_word": false,
      "lstrip": false,
      "rstrip": false,
      "normalized": false,
      "special": true
    },
    {
      "id": 1,
      "content": "[PAD]",
      "single_word": false,
      "lstrip": false,
      "rstrip": false,
      "normalized": false,
      "special": true
    },
    {
      "id": 2,
      "content": "[STR]",
      "single_word": false,
      "lstrip": false,
      "rstrip": false,
      "normalized": false,
      "special": true
    },
    {
      "id": 3,
      "content": "[END]",
      "single_word": false,
      "lstrip": false,
      "rstrip": false,
      "normalized": false,
      "special": true
    }
  ],
  "normalizer": {
    "type": "Sequence",
    "normalizers": [
      {
        "type": "NFD"
      },
      {
        "type": "Lowercase"
      }
    ]
  },
  "pre_tokenizer": {
    "type": "WhitespaceSplit"
  },
  "post_processor": {
    "type": "TemplateProcessing",
    "single": [
      {
        "SpecialToken": {
          "id": "[STR]",
          "type_id": 0
        }
      },
      {
        "Sequence": {
          "id": "A",
          "type_id": 0
        }
      },
      {
        "SpecialToken": {
          "id": "[END]",
          "type_id": 0
        }
      }
    ],
    "pair": [
      {
        "Sequence": {
          "id": "A",
          "type_id": 0
        }
      },
      {
        "Sequence": {
          "id": "B",
          "type_id": 1
        }
      }
    ],
    "special_tokens": {
      "[END]": {
        "id": "[END]",
        "ids": [
          3
        ],
        "tokens": [
          "[END]"
        ]
      },
      "[STR]": {
        "id": "[STR]",
        "ids": [
          2
        ],
        "tokens": [
          "[STR]"
        ]
      }
    }
  },
  "decoder": null,
  "model": {
    "type": "WordPiece",
    "unk_token": "[UNK]",
    "continuing_subword_prefix": "",
    "max_input_chars_per_word": 100,
    "vocab": {
      "[UNK]": 0,
      "[PAD]": 1,
      "[STR]": 2,
      "[END]": 3,
      "\u0004": 4,
      "!": 5,
      "\"": 6,
      "#": 7,
      "$": 8,
      "%": 9,
      "&": 10,
      "'": 11,
      "(": 12,
      ")": 13,
      "*": 14,
      "+": 15,
      ",": 16,
      "-": 17,
      ".": 18,
      "/": 19,
      "0": 20,
      "1": 21,
      "2": 22,
      "3": 23,
      "4": 24,
      "5": 25,
      "6": 26,
      "7": 27,
      "8": 28,
      "9": 29,
      ":": 30,
      ";": 31,
      "<": 32,
      "=": 33,
      ">": 34,
      "?": 35,
      "@": 36,
      "[": 37,
      "\\": 38,
      "]": 39,
      "^": 40,
      "_": 41,
      "`": 42,
      "a": 43,
      "b": 44,
      "c": 45,
      "d": 46,
      "e": 47,
      "f": 48,
      "g": 49,
      "h": 50,
      "i": 51,
      "j": 52,
      "k": 53,
      "l": 54,
      "m": 55,
      "n": 56,
      "o": 57,
      "p": 58,
      "q": 59,
      "r": 60,
      "s": 61,
      "t": 62,
      "u": 63,
      "v": 64,
      "w": 65,
      "x": 66,
      "y": 67,
      "z": 68,
      "{": 69,
      "|": 70,
      "}": 71,
      "~": 72,
      "": 73,
      "¡": 74,
      "£": 75,
      "¤": 76,
      "¥": 77,
      "§": 78,
      "©": 79,
      "«": 80,
      "¬": 81,
      "­": 82,
      "®": 83,
      "°": 84,
      "±": 85,
      "¶": 86,
      "·": 87,
      "»": 88,
      "¼": 89,
      "½": 90,
      "¾": 91,
      "¿": 92,
      "×": 93,
      "ð": 94,
      "ı": 95,
      "ĸ": 96,
      "ł": 97,
      "ə": 98,
      "ʼ": 99,
      "̀": 100,
      "́": 101,
      "̂": 102,
      "̃": 103,
      "̆": 104,
      "̇": 105,
      "̈": 106,
      "̊": 107,
      "̌": 108,
      "̦": 109,
      "̧": 110,
      "̨": 111,
      "α": 112,
      "β": 113,
      "ε": 114,
      "ζ": 115,
      "θ": 116,
      "ι": 117,
      "κ": 118,
      "λ": 119,
      "μ": 120,
      "ν": 121,
      "ο": 122,
      "π": 123,
      "ς": 124,
      "σ": 125,
      "τ": 126,
      "φ": 127,
      "ω": 128,
      "ϟ": 129,
      "а": 130,
      "б": 131,
      "в": 132,
      "г": 133,
      "д": 134,
      "е": 135,
      "ж": 136,
      "з": 137,
      "и": 138,
      "к": 139,
      "л": 140,
      "м": 141,
      "н": 142,
      "о": 143,
      "п": 144,
      "р": 145,
      "с": 146,
      "т": 147,
      "у": 148,
      "ф": 149,
      "х": 150,
      "ц": 151,
      "ч": 152,
      "ш": 153,
      "щ": 154,
      "ъ": 155,
      "ы": 156,
      "ь": 157,
      "э": 158,
      "ю": 159,
      "я": 160,
      "є": 161,
      "ѕ": 162,
      "і": 163,
      "ј": 164,
      "љ": 165,
      "њ": 166,
      "ѣ": 167,
      "ѫ": 168,
      "ґ": 169,
      "ա": 170,
      "բ": 171,
      "ղ": 172,
      "ᄂ": 173,
      "ᄅ": 174,
      "ᄇ": 175,
      "ᄉ": 176,
      "ᄋ": 177,
      "ᄌ": 178,
      "ᄏ": 179,
      "ᄐ": 180,
      "ᅡ": 181,
      "ᅩ": 182,
      "ᅮ": 183,
      "ᅳ": 184,
      "ᅵ": 185,
      "ᆺ": 186,
      "​": 187,
      "‍": 188,
      "‎": 189,
      "‐": 190,
      "‒": 191,
      "–": 192,
      "—": 193,
      "‘": 194,
      "’": 195,
      "‚": 196,
      "“": 197,
      "”": 198,
      "„": 199,
      "‟": 200,
      "•": 201,
      "…": 202,
      "‪": 203,
      "‬": 204,
      "‰": 205,
      "′": 206,
      "″": 207,
      "›": 208,
      "‽": 209,
      "⁠": 210,
      "⁣": 211,
      "⁰": 212,
      "⁸": 213,
      "⁹": 214,
      "ⁿ": 215,
      "€": 216,
      "№": 217,
      "™": 218,
      "√": 219,
      "┳": 220,
      "┻": 221,
      "┼": 222,
      "═": 223,
      "▄": 224,
      "▲": 225,
      "►": 226,
      "▼": 227,
      "☆": 228,
      "☛": 229,
      "☠": 230,
      "☢": 231,
      "☭": 232,
      "☹": 233,
      "☺": 234,
      "♡": 235,
      "♥": 236,
      "♦": 237,
      "♪": 238,
      "♫": 239,
      "⚘": 240,
      "⚽": 241,
      "✅": 242,
      "✋": 243,
      "✌": 244,
      "✓": 245,
      "✔": 246,
      "✠": 247,
      "❤": 248,
      "➤": 249,
      "⭐": 250,
      "一": 251,
      "卐": 252,
      "️": 253,
      "︻": 254,
      "？": 255,
      "на": 256,
      "та": 257,
      "то": 258,
      "ни": 259,
      "ра": 260,
      "ва": 261,
      "те": 262,
      "ка": 263,
      "да": 264,
      "но": 265,
      "ко": 266,
      "ре": 267,
      "по": 268,
      "за": 269,
      "не": 270,
      "ри": 271,
      "ли": 272,
      "ст": 273,
      "се": 274,
      "от": 275,
      "й": 276,
      "ма": 277,
      "че": 278,
      "ви": 279,
      "си": 280,
      "ме": 281,
      "ро": 282,
      "ле": 283,
      "ве": 284,
      "ла": 285,
      "ди": 286,
      "де": 287,
      "го": 288,
      "ки": 289,
      "во": 290,
      "ти": 291,
      "ми": 292,
      "до": 293,
      "са": 294,
      "га": 295,
      "ци": 296,
      "пре": 297,
      "мо": 298,
      "ър": 299,
      "из": 300,
      "съ": 301,
      "ло": 302,
      "па": 303,
      "ще": 304,
      "зи": 305,
      "би": 306,
      "бе": 307,
      "ста": 308,
      "про": 309,
      "ят": 310,
      "же": 311,
      "бо": 312,
      "ча": 313,
      "пе": 314,
      "ха": 315,
      "ру": 316,
      "при": 317,
      "ня": 318,
      "пи": 319,
      "ба": 320,
      "ъл": 321,
      "ше": 322,
      "..": 323,
      "ние": 324,
      "раз": 325,
      "сти": 326,
      "ски": 327,
      "ния": 328,
      "чи": 329,
      "ните": 330,
      "ната": 331,
      "жи": 332,
      "ска": 333,
      "ля": 334,
      "ът": 335,
      "об": 336,
      "това": 337,
      "пра": 338,
      "сто": 339,
      "жа": 340,
      "сле": 341,
      "ги": 342,
      "що": 343,
      "въ": 344,
      "как": 345,
      "со": 346,
      "лу": 347,
      "мен": 348,
      "като": 349,
      "ща": 350,
      "це": 351,
      "къ": 352,
      "ца": 353,
      "ция": 354,
      "има": 355,
      "след": 356,
      "ръ": 357,
      "гра": 358,
      "му": 359,
      "тел": 360,
      "ку": 361,
      "хо": 362,
      "ря": 363,
      "кра": 364,
      "пред": 365,
      "ват": 366,
      "фи": 367,
      "ката": 368,
      "ду": 369,
      "кой": 370,
      "ту": 371,
      "вър": 372,
      "мно": 373,
      "ин": 374,
      "ге": 375,
      "ор": 376,
      "зна": 377,
      "пу": 378,
      "тя": 379,
      "лко": 380,
      "рия": 381,
      "годи": 382,
      "щи": 383,
      "кои": 384,
      "ши": 385,
      "ство": 386,
      "ване": 387,
      "бъл": 388,
      "много": 389,
      "стра": 390,
      "ден": 391,
      "ето": 392,
      "лю": 393,
      "под": 394,
      "бълга": 395,
      "няма": 396,
      "жда": 397,
      "ед": 398,
      "та,": 399,
      "вече": 400,
      "спо": 401,
      "които": 402,
      "прави": 403,
      "дър": 404,
      "ско": 405,
      "ност": 406,
      "сре": 407,
      "само": 408,
      "\",": 409,
      "сич": 410,
      "ев": 411,
      "зе": 412,
      "всич": 413,
      "ша": 414,
      "бра": 415,
      "най": 416,
      "сни": 417,
      "ното": 418,
      "бъ": 419,
      "каза": 420,
      "та.": 421,
      "той": 422,
      "рите": 423,
      "който": 424,
      "слу": 425,
      "по-": 426,
      "може": 427,
      "вя": 428,
      "фе": 429,
      "сте": 430,
      "кон": 431,
      "пла": 432,
      "най-": 433,
      "ал": 434,
      "дин": 435,
      "коя": 436,
      "00": 437,
      "кри": 438,
      "вре": 439,
      "доб": 440,
      "...": 441,
      "нов": 442,
      "дру": 443,
      "оти": 444,
      "още": 445,
      "гу": 446,
      "гово": 447,
      "зо": 448,
      "лен": 449,
      "су": 450,
      "нал": 451,
      "ва,": 452,
      "нието": 453,
      "гла": 454,
      "ан": 455,
      "вен": 456,
      "която": 457,
      "ята": 458,
      "преди": 459,
      "бва": 460,
      "пър": 461,
      "тъ": 462,
      "все": 463,
      "бу": 464,
      "спе": 465,
      "тря": 466,
      "защо": 467,
      "един": 468,
      "държа": 469,
      "пъл": 470,
      "на,": 471,
      "тели": 472,
      "сно": 473,
      "така": 474,
      "!!": 475,
      "трябва": 476,
      "кога": 477,
      "нали": 478,
      "гле": 479,
      "два": 480,
      "въз": 481,
      "време": 482,
      "което": 483,
      "чу": 484,
      "към": 485,
      "през": 486,
      "пар": 487,
      "сме": 488,
      "без": 489,
      "хора": 490,
      "им": 491,
      "три": 492,
      "ак": 493,
      "чо": 494,
      "бли": 495,
      "те,": 496,
      "всички": 497,
      "съм": 498,
      "иска": 499,
      "тър": 500,
      "мата": 501,
      "он": 502,
      "поли": 503,
      "дъл": 504,
      "този": 505,
      "в.": 506,
      "чно": 507,
      "каз": 508,
      "вата": 509,
      "българия": 510,
      "ред": 511,
      "бъде": 512,
      "ници": 513,
      "ке": 514,
      "или": 515,
      "сла": 516,
      "какво": 517,
      "тра": 518,
      "ник": 519,
      "ну": 520,
      "ни,": 521,
      "мъ": 522,
      "тази": 523,
      "колко": 524,
      "ако": 525,
      "\".": 526,
      "ската": 527,
      "оста": 528,
      "на.": 529,
      "тира": 530,
      "хи": 531,
      "тре": 532,
      "него": 533,
      "н.": 534,
      "сега": 535,
      "20": 536,
      "сним": 537,
      "ният": 538,
      "яви": 539,
      "път": 540,
      "бя": 541,
      "със": 542,
      "ства": 543,
      "мя": 544,
      "сво": 545,
      "лъ": 546,
      "беше": 547,
      "т.": 548,
      "пъ": 549,
      "ква": 550,
      "мини": 551,
      "ството": 552,
      "мента": 553,
      "дя": 554,
      "ките": 555,
      "във": 556,
      "шо": 557,
      "стве": 558,
      "евро": 559,
      "вто": 560,
      "н,": 561,
      "све": 562,
      "ването": 563,
      "ции": 564,
      "защото": 565,
      "фо": 566,
      "сна": 567,
      "я,": 568,
      "т,": 569,
      "тро": 570,
      "дне": 571,
      "къде": 572,
      "години": 573,
      "рски": 574,
      "в,": 575,
      "ка,": 576,
      "фор": 577,
      "поч": 578,
      "нови": 579,
      "ва.": 580,
      "нски": 581,
      "ся": 582,
      "м,": 583,
      "едно": 584,
      "дра": 585,
      "вете": 586,
      "дат": 587,
      "една": 588,
      "голя": 589,
      "цията": 590,
      "тите": 591,
      "вно": 592,
      "инте": 593,
      "когато": 594,
      "май": 595,
      "сп": 596,
      "кре": 597,
      "е,": 598,
      "клю": 599,
      "прав": 600,
      "край": 601,
      "както": 602,
      "аз": 603,
      "оба": 604,
      "нето": 605,
      "г.": 606,
      "дни": 607,
      "ек": 608,
      "повече": 609,
      "ради": 610,
      "ху": 611,
      "стоя": 612,
      "цен": 613,
      "отно": 614,
      "лата": 615,
      "ка.": 616,
      "раб": 617,
      "я.": 618,
      "меж": 619,
      "уча": 620,
      "тези": 621,
      "цата": 622,
      "между": 623,
      "чове": 624,
      "бил": 625,
      "срещ": 626,
      "фа": 627,
      "бори": 628,
      "ен": 629,
      "послед": 630,
      "вам": 631,
      "хме": 632,
      "ците": 633,
      "кара": 634,
      "дна": 635,
      "ков": 636,
      "лек": 637,
      "кан": 638,
      "лно": 639,
      "с.": 640,
      "циал": 641,
      "цио": 642,
      "щата": 643,
      "лия": 644,
      "лото": 645,
      "си,": 646,
      "мина": 647,
      "ран": 648,
      "полу": 649,
      "ар": 650,
      "си.": 651,
      "гна": 652,
      "връ": 653,
      "нда": 654,
      "нова": 655,
      "бира": 656,
      "направи": 657,
      "дъ": 658,
      "обаче": 659,
      "ця": 660,
      "лич": 661,
      "доста": 662,
      "стви": 663,
      "оби": 664,
      "сия": 665,
      "рен": 666,
      "казва": 667,
      "тях": 668,
      "тен": 669,
      "стро": 670,
      "също": 671,
      "чер": 672,
      "над": 673,
      "мер": 674,
      "ьо": 675,
      "сен": 676,
      "гер": 677,
      "тата": 678,
      "ни.": 679,
      "с,": 680,
      "тът": 681,
      "бор": 682,
      "стър": 683,
      "кар": 684,
      "....": 685,
      "чен": 686,
      "дали": 687,
      "говори": 688,
      "започ": 689,
      "всичко": 690,
      "дава": 691,
      "срещу": 692,
      "тор": 693,
      "софи": 694,
      "коло": 695,
      "игра": 696,
      "даде": 697,
      "ком": 698,
      "тру": 699,
      "пита": 700,
      "леми": 701,
      "полити": 702,
      "малко": 703,
      "нещо": 704,
      "лни": 705,
      "мис": 706,
      "тия": 707,
      "сигу": 708,
      "вла": 709,
      "ос": 710,
      "рабо": 711,
      "добре": 712,
      "йски": 713,
      "телно": 714,
      "наро": 715,
      "вни": 716,
      "кла": 717,
      "други": 718,
      "л.": 719,
      "ите": 720,
      "заради": 721,
      "стъ": 722,
      "коле": 723,
      "изпъл": 724,
      "зиден": 725,
      "чески": 726,
      "ер": 727,
      "рт": 728,
      "продъл": 729,
      "изне": 730,
      "поло": 731,
      "рат": 732,
      "к,": 733,
      "дж": 734,
      "президен": 735,
      "м.": 736,
      "мери": 737,
      "става": 738,
      "ман": 739,
      "твър": 740,
      "рата": 741,
      "пише": 742,
      "али": 743,
      "ьор": 744,
      "здра": 745,
      "исти": 746,
      "въпро": 747,
      "нията": 748,
      "“,": 749,
      "сло": 750,
      "заяви": 751,
      "гри": 752,
      "дей": 753,
      "л,": 754,
      "вер": 755,
      "според": 756,
      "сред": 757,
      "тур": 758,
      "вой": 759,
      "бла": 760,
      "вите": 761,
      "форма": 762,
      "гат": 763,
      "джи": 764,
      "стана": 765,
      "съоб": 766,
      "дори": 767,
      "но,": 768,
      "жив": 769,
      "нищо": 770,
      "предста": 771,
      "писа": 772,
      "прия": 773,
      "лите": 774,
      "оча": 775,
      "снимки": 776,
      "част": 777,
      "изве": 778,
      "теле": 779,
      "толко": 780,
      "месе": 781,
      "мла": 782,
      "гледа": 783,
      "пари": 784,
      "скоро": 785,
      "публи": 786,
      "пол": 787,
      "любо": 788,
      "виде": 789,
      "ние,": 790,
      "нa": 791,
      "лев": 792,
      "спа": 793,
      "вън": 794,
      "взе": 795,
      "всеки": 796,
      "ли,": 797,
      "зира": 798,
      "мей": 799,
      "дата": 800,
      "мал": 801,
      "”,": 802,
      "няколко": 803,
      "пло": 804,
      "ива": 805,
      "вели": 806,
      "**": 807,
      "фу": 808,
      "мв": 809,
      "вижда": 810,
      "интере": 811,
      "201": 812,
      "обя": 813,
      "рио": 814,
      "това,": 815,
      "вод": 816,
      "прие": 817,
      "място": 818,
      "к.": 819,
      "знае": 820,
      "гро": 821,
      "нен": 822,
      "мар": 823,
      "толкова": 824,
      "говор": 825,
      "бър": 826,
      "веде": 827,
      "била": 828,
      "около": 829,
      "щите": 830,
      "дими": 831,
      "клу": 832,
      "живе": 833,
      "министър": 834,
      "проб": 835,
      "година": 836,
      "меди": 837,
      "ти,": 838,
      "руски": 839,
      "пер": 840,
      "пък": 841,
      "стите": 842,
      "тин": 843,
      "точ": 844,
      "вид": 845,
      "ключи": 846,
      "визи": 847,
      "реше": 848,
      "годиш": 849,
      "вся": 850,
      "мре": 851,
      "мъж": 852,
      "град": 853,
      "сва": 854,
      "ров": 855,
      "см": 856,
      "бяха": 857,
      "зве": 858,
      "кли": 859,
      "ла,": 860,
      "вия": 861,
      "учи": 862,
      "ясно": 863,
      "телите": 864,
      "ки,": 865,
      "вина": 866,
      "пак": 867,
      "две": 868,
      "лиза": 869,
      "тов": 870,
      "ние.": 871,
      "мите": 872,
      "ува": 873,
      "ней": 874,
      "дре": 875,
      "дан": 876,
      "вят": 877,
      "то,": 878,
      "български": 879,
      "там": 880,
      "сигур": 881,
      "почи": 882,
      "кръ": 883,
      "пит": 884,
      "р.": 885,
      "нт": 886,
      "където": 887,
      "ри,": 888,
      "чат": 889,
      "авто": 890,
      "мож": 891,
      "нове": 892,
      "бив": 893,
      "ния,": 894,
      "благо": 895,
      "били": 896,
      "момента": 897,
      "дите": 898,
      "живо": 899,
      "чва": 900,
      "какви": 901,
      "живот": 902,
      "гне": 903,
      "зва": 904,
      "хе": 905,
      "рез": 906,
      "случа": 907,
      "мили": 908,
      "ционал": 909,
      "ското": 910,
      "възмож": 911,
      "работи": 912,
      "дел": 913,
      "нала": 914,
      "гани": 915,
      "гру": 916,
      "вет": 917,
      "звез": 918,
      "вле": 919,
      "10": 920,
      "успе": 921,
      "дели": 922,
      "дже": 923,
      "очаква": 924,
      "сан": 925,
      "бъдат": 926,
      "първо": 927,
      "лява": 928,
      "следва": 929,
      "после": 930,
      "ността": 931,
      "но.": 932,
      "сър": 933,
      "тво": 934,
      "сед": 935,
      "ция,": 936,
      "тръ": 937,
      "големи": 938,
      "тка": 939,
      "позна": 940,
      "нача": 941,
      "вди": 942,
      "ментира": 943,
      "мира": 944,
      "пр": 945,
      "кти": 946,
      "хра": 947,
      "нер": 948,
      "момен": 949,
      "??": 950,
      "тога": 951,
      "000": 952,
      "русия": 953,
      "преми": 954,
      "лта": 955,
      "кова": 956,
      "хората": 957,
      "начи": 958,
      "подкре": 959,
      "пик": 960,
      "запа": 961,
      "роди": 962,
      "дател": 963,
      "19": 964,
      "помо": 965,
      "певи": 966,
      "е.": 967,
      "право": 968,
      "днес": 969,
      "сне": 970,
      "пом": 971,
      "народ": 972,
      "деля": 973,
      "посо": 974,
      "рек": 975,
      "бой": 976,
      "хва": 977,
      "жава": 978,
      "гре": 979,
      "просто": 980,
      "ра,": 981,
      "ника": 982,
      "шен": 983,
      "коментира": 984,
      "стре": 985,
      "нас": 986,
      "веро": 987,
      "семей": 988,
      "да,": 989,
      "таки": 990,
      "ген": 991,
      "име": 992,
      "!!!": 993,
      "сил": 994,
      "парти": 995,
      "зад": 996,
      "стъп": 997,
      "правител": 998,
      "кси": 999,
      "социал": 1000,
      "тбо": 1001,
      "вра": 1002,
      "тогава": 1003,
      "нява": 1004,
      "пен": 1005,
      "йте": 1006,
      "музи": 1007,
      "сащ": 1008,
      "призна": 1009,
      "нито": 1010,
      "вна": 1011,
      "видео": 1012,
      "обе": 1013,
      "гражда": 1014,
      "глежда": 1015,
      "човек": 1016,
      "жена": 1017,
      "се,": 1018,
      "поне": 1019,
      "каже": 1020,
      "йки": 1021,
      "побе": 1022,
      "реши": 1023,
      "ния.": 1024,
      "борисо": 1025,
      "двамата": 1026,
      "снимка": 1027,
      "ти.": 1028,
      "докато": 1029,
      "ис": 1030,
      "гот": 1031,
      "нея": 1032,
      "то.": 1033,
      "гър": 1034,
      "жела": 1035,
      "ново": 1036,
      "ниците": 1037,
      "някой": 1038,
      "каква": 1039,
      "акт": 1040,
      "бро": 1041,
      "пози": 1042,
      "отноше": 1043,
      "винаги": 1044,
      "ама": 1045,
      "лага": 1046,
      "края": 1047,
      "европе": 1048,
      "футбо": 1049,
      "точно": 1050,
      "кате": 1051,
      "ходи": 1052,
      "ур": 1053,
      "какъ": 1054,
      "управ": 1055,
      "стане": 1056,
      "българ": 1057,
      "лан": 1058,
      "спи": 1059,
      "сили": 1060,
      "причи": 1061,
      "ву": 1062,
      "софия": 1063,
      "она": 1064,
      "поста": 1065,
      "чув": 1066,
      "национал": 1067,
      "близ": 1068,
      "рай": 1069,
      "изпълните": 1070,
      "тай": 1071,
      "воде": 1072,
      "получи": 1073,
      "разбира": 1074,
      "важ": 1075,
      "отново": 1076,
      "чни": 1077,
      "дер": 1078,
      "голяма": 1079,
      "правят": 1080,
      "украй": 1081,
      "ра.": 1082,
      "тъй": 1083,
      "тая": 1084,
      "соб": 1085,
      "менно": 1086,
      "ца,": 1087,
      "уби": 1088,
      "тa": 1089,
      "кола": 1090,
      "амери": 1091,
      "връз": 1092,
      "органи": 1093,
      "заедно": 1094,
      "ха,": 1095,
      "пусна": 1096,
      "дете": 1097,
      "хри": 1098,
      "рта": 1099,
      "тоя": 1100,
      "работ": 1101,
      "спя": 1102,
      "алек": 1103,
      "чев": 1104,
      "жение": 1105,
      "пет": 1106,
      "вяр": 1107,
      "проти": 1108,
      "зани": 1109,
      "вa": 1110,
      "ри.": 1111,
      "страната": 1112,
      "лят": 1113,
      "краси": 1114,
      "ция.": 1115,
      "чка": 1116,
      "извест": 1117,
      "вероят": 1118,
      "седми": 1119,
      "теж": 1120,
      "бри": 1121,
      "ки.": 1122,
      "бан": 1123,
      "освен": 1124,
      "президент": 1125,
      "мет": 1126,
      "-годиш": 1127,
      "какъв": 1128,
      "телевизи": 1129,
      "свър": 1130,
      "герб": 1131,
      "живее": 1132,
      "бата": 1133,
      "мину": 1134,
      "могат": 1135,
      "мон": 1136,
      "опре": 1137,
      "опа": 1138,
      "вар": 1139,
      "тер": 1140,
      "шоу": 1141,
      "успя": 1142,
      "мени": 1143,
      "имат": 1144,
      "откри": 1145,
      "тех": 1146,
      "затова": 1147,
      "ложи": 1148,
      "геор": 1149,
      "стан": 1150,
      "горе": 1151,
      "дома": 1152,
      "зъ": 1153,
      "въпре": 1154,
      "канди": 1155,
      "хуба": 1156,
      "серио": 1157,
      "висо": 1158,
      "дно": 1159,
      "гори": 1160,
      "обще": 1161,
      "вика": 1162,
      "лет": 1163,
      "държава": 1164,
      "мест": 1165,
      "исто": 1166,
      "първи": 1167,
      "гата": 1168,
      "себе": 1169,
      "уда": 1170,
      "преда": 1171,
      "часа": 1172,
      "обича": 1173,
      "сек": 1174,
      "съобщи": 1175,
      "парла": 1176,
      "праз": 1177,
      "стри": 1178,
      "пера": 1179,
      "георги": 1180,
      "съз": 1181,
      "запла": 1182,
      "лна": 1183,
      "30": 1184,
      "люби": 1185,
      "бло": 1186,
      "свобо": 1187,
      "гло": 1188,
      "комента": 1189,
      "чета": 1190,
      "такива": 1191,
      "сце": 1192,
      "х,": 1193,
      "колкото": 1194,
      "сканда": 1195,
      "й,": 1196,
      "тно": 1197,
      "живота": 1198,
      "участи": 1199,
      "чна": 1200,
      "види": 1201,
      "образ": 1202,
      "хвър": 1203,
      "д.": 1204,
      "офи": 1205,
      "деле": 1206,
      "кур": 1207,
      "неща": 1208,
      "води": 1209,
      "“.": 1210,
      "въпреки": 1211,
      "ката,": 1212,
      "предсе": 1213,
      "ца.": 1214,
      "грани": 1215,
      "представи": 1216,
      "души": 1217,
      "ци,": 1218,
      "общо": 1219,
      "разкри": 1220,
      "ла.": 1221,
      "допъл": 1222,
      "15": 1223,
      "приятел": 1224,
      "лин": 1225,
      "ските": 1226,
      "проек": 1227,
      "изглежда": 1228,
      "нира": 1229,
      "майка": 1230,
      "зави": 1231,
      "кого": 1232,
      "левски": 1233,
      "цион": 1234,
      "нат": 1235,
      "))": 1236,
      "европа": 1237,
      "ян": 1238,
      "шата": 1239,
      "информа": 1240,
      "показа": 1241,
      "гор": 1242,
      "присъ": 1243,
      "”.": 1244,
      "ват,": 1245,
      "стру": 1246,
      "сите": 1247,
      "щия": 1248,
      "интер": 1249,
      "ган": 1250,
      "сми": 1251,
      "мия": 1252,
      "лка": 1253,
      "наха": 1254,
      "действи": 1255,
      "зако": 1256,
      "моми": 1257,
      "защи": 1258,
      "резу": 1259,
      "ма,": 1260,
      "цве": 1261,
      "сезо": 1262,
      "среща": 1263,
      "никой": 1264,
      "18": 1265,
      "друг": 1266,
      "дa": 1267,
      "р,": 1268,
      "забра": 1269,
      "наши": 1270,
      "вие": 1271,
      "да.": 1272,
      "въпрос": 1273,
      "жени": 1274,
      "ата": 1275,
      "последните": 1276,
      "тук": 1277,
      "жен": 1278,
      "сата": 1279,
      "любов": 1280,
      "пуска": 1281,
      "тан": 1282,
      "извън": 1283,
      "предиз": 1284,
      "опит": 1285,
      "ум": 1286,
      "фил": 1287,
      "син": 1288,
      "вин": 1289,
      "дирек": 1290,
      "пле": 1291,
      "бизне": 1292,
      "тери": 1293,
      "ск": 1294,
      "?!": 1295,
      "ст,": 1296,
      "нан": 1297,
      "кия": 1298,
      "стен": 1299,
      "не,": 1300,
      "чели": 1301,
      "стои": 1302,
      "ския": 1303,
      "ме,": 1304,
      "нор": 1305,
      "ключително": 1306,
      "вали": 1307,
      "туа": 1308,
      "стигна": 1309,
      "укра": 1310,
      "проду": 1311,
      "мари": 1312,
      "фак": 1313,
      "благода": 1314,
      "собстве": 1315,
      "страна": 1316,
      "бсп": 1317,
      "някои": 1318,
      "сту": 1319,
      "бре": 1320,
      "голям": 1321,
      "ности": 1322,
      "пор": 1323,
      "стта": 1324,
      "мври": 1325,
      "джа": 1326,
      "обяви": 1327,
      "добро": 1328,
      "сра": 1329,
      "кт": 1330,
      "профе": 1331,
      "борисов": 1332,
      "мрежи": 1333,
      "мат": 1334,
      "лв.": 1335,
      "ститу": 1336,
      "дви": 1337,
      "ел": 1338,
      "пъти": 1339,
      "харе": 1340,
      "бур": 1341,
      "йде": 1342,
      "ад": 1343,
      "стига": 1344,
      "кува": 1345,
      "чето": 1346,
      "и,": 1347,
      "гласу": 1348,
      "мпи": 1349,
      "***": 1350,
      "лично": 1351,
      "мисли": 1352,
      "мага": 1353,
      "лице": 1354,
      "работа": 1355,
      "ство.": 1356,
      "пя": 1357,
      "социалните": 1358,
      "видя": 1359,
      "резулта": 1360,
      "връща": 1361,
      "глу": 1362,
      "сигурност": 1363,
      "ход": 1364,
      "нение": 1365,
      "12": 1366,
      "правя": 1367,
      "пробле": 1368,
      "проку": 1369,
      "шно": 1370,
      "бивши": 1371,
      "единстве": 1372,
      "случи": 1373,
      "мога": 1374,
      "бен": 1375,
      "рази": 1376,
      "изнена": 1377,
      "участ": 1378,
      "коми": 1379,
      "подоб": 1380,
      "ство,": 1381,
      "съд": 1382,
      "било": 1383,
      "дове": 1384,
      "нс": 1385,
      "цо": 1386,
      "председател": 1387,
      "никога": 1388,
      "логи": 1389,
      "своя": 1390,
      "двете": 1391,
      "лича": 1392,
      "завър": 1393,
      "отговор": 1394,
      "съвет": 1395,
      "съще": 1396,
      "явно": 1397,
      "компа": 1398,
      "ма.": 1399,
      "жението": 1400,
      "спор": 1401,
      "дъще": 1402,
      "наме": 1403,
      "група": 1404,
      "стой": 1405,
      "изпол": 1406,
      "ви,": 1407,
      "гъ": 1408,
      "поз": 1409,
      "еки": 1410,
      "рие": 1411,
      "финан": 1412,
      "нар": 1413,
      "вал": 1414,
      "чуж": 1415,
      "вероятно": 1416,
      "напа": 1417,
      "ситуа": 1418,
      "ст.": 1419,
      "уче": 1420,
      "50": 1421,
      "премиер": 1422,
      "воен": 1423,
      "рията": 1424,
      "проблеми": 1425,
      "върху": 1426,
      "начин": 1427,
      "различ": 1428,
      "ната,": 1429,
      "пръ": 1430,
      "жат": 1431,
      "ци.": 1432,
      "праве": 1433,
      "чал": 1434,
      "вът": 1435,
      "събра": 1436,
      "сира": 1437,
      "аре": 1438,
      "вява": 1439,
      "зло": 1440,
      "оръ": 1441,
      "проте": 1442,
      "200": 1443,
      "са,": 1444,
      "ли.": 1445,
      "загу": 1446,
      "бю": 1447,
      "рова": 1448,
      "лети": 1449,
      "доба": 1450,
      "жур": 1451,
      "ми,": 1452,
      "тура": 1453,
      "100": 1454,
      "--": 1455,
      "ката.": 1456,
      "кул": 1457,
      "категори": 1458,
      "ес": 1459,
      "вода": 1460,
      "пута": 1461,
      "иде": 1462,
      "внима": 1463,
      "друго": 1464,
      "аб": 1465,
      "циите": 1466,
      "украин": 1467,
      "мом": 1468,
      "друга": 1469,
      "началото": 1470,
      "съди": 1471,
      "топ": 1472,
      "ление": 1473,
      "ръко": 1474,
      "десе": 1475,
      "разви": 1476,
      "беля": 1477,
      "смята": 1478,
      "отбор": 1479,
      "истина": 1480,
      "ева": 1481,
      "ят,": 1482,
      "огро": 1483,
      "емо": 1484,
      "мария": 1485,
      "чака": 1486,
      "затво": 1487,
      "),": 1488,
      "раде": 1489,
      "въл": 1490,
      "реди": 1491,
      "украйна": 1492,
      "уста": 1493,
      "оказа": 1494,
      "сът": 1495,
      "възра": 1496,
      "искам": 1497,
      "обла": 1498,
      "мигра": 1499,
      "ем": 1500,
      "тни": 1501,
      "всяка": 1502,
      "лип": 1503,
      "бер": 1504,
      "зова": 1505,
      "избори": 1506,
      "лната": 1507,
      "често": 1508,
      "вче": 1509,
      "ико": 1510,
      "стран": 1511,
      "не.": 1512,
      "ди,": 1513,
      "кто": 1514,
      "стли": 1515,
      "лов": 1516,
      "мати": 1517,
      "спря": 1518,
      "депута": 1519,
      "обви": 1520,
      "опера": 1521,
      "написа": 1522,
      "късно": 1523,
      "фер": 1524,
      "налите": 1525,
      "бях": 1526,
      "пру": 1527,
      "виж": 1528,
      "ческа": 1529,
      "уме": 1530,
      "лева": 1531,
      "ваме": 1532,
      "зла": 1533,
      "такъ": 1534,
      "европейски": 1535,
      "извър": 1536,
      "плаща": 1537,
      "близо": 1538,
      "пода": 1539,
      "деца": 1540,
      "именно": 1541,
      "продължи": 1542,
      "хора,": 1543,
      "фол": 1544,
      "зa": 1545,
      "смър": 1546,
      "реги": 1547,
      "мир": 1548,
      "новете": 1549,
      "номи": 1550,
      "министе": 1551,
      "обясни": 1552,
      "помня": 1553,
      "сио": 1554,
      "скъ": 1555,
      "вка": 1556,
      "мл": 1557,
      "посе": 1558,
      "наче": 1559,
      "шка": 1560,
      "съпру": 1561,
      "журнали": 1562,
      "служи": 1563,
      "баща": 1564,
      "варя": 1565,
      "кa": 1566,
      "путин": 1567,
      "произ": 1568,
      "осо": 1569,
      "автомо": 1570,
      "аа": 1571,
      "лица": 1572,
      "сериоз": 1573,
      "потре": 1574,
      "едва": 1575,
      "христо": 1576,
      "дени": 1577,
      "село": 1578,
      "мисля": 1579,
      "тури": 1580,
      "нд": 1581,
      "лена": 1582,
      "продължава": 1583,
      "пловди": 1584,
      "пълно": 1585,
      "бойко": 1586,
      "поред": 1587,
      "дъщеря": 1588,
      "ван": 1589,
      "рак": 1590,
      "гли": 1591,
      "почти": 1592,
      "хиля": 1593,
      "ана": 1594,
      "кира": 1595,
      "чава": 1596,
      "жан": 1597,
      "сват": 1598,
      "нев": 1599,
      "болни": 1600,
      "род": 1601,
      "занима": 1602,
      "сти,": 1603,
      "вол": 1604,
      "кор": 1605,
      "значи": 1606,
      "усло": 1607,
      "бързо": 1608,
      "певицата": 1609,
      "думите": 1610,
      "щност": 1611,
      "имаше": 1612,
      "сподели": 1613,
      "ствие": 1614,
      "рa": 1615,
      "ш,": 1616,
      "мъже": 1617,
      "цска": 1618,
      "кло": 1619,
      "систе": 1620,
      "пример": 1621,
      "влиза": 1622,
      "щастли": 1623,
      "страни": 1624,
      "зависи": 1625,
      "песен": 1626,
      "телни": 1627,
      "ните,": 1628,
      "пан": 1629,
      "българия.": 1630,
      "!!!!": 1631,
      "герма": 1632,
      "и.": 1633,
      "шу": 1634,
      "гръ": 1635,
      "започна": 1636,
      "америка": 1637,
      "фир": 1638,
      "състоя": 1639,
      "фан": 1640,
      "теро": 1641,
      "официал": 1642,
      "алексан": 1643,
      "случай": 1644,
      "тo": 1645,
      "музика": 1646,
      "свет": 1647,
      "еди": 1648,
      "слав": 1649,
      "цитира": 1650,
      "дават": 1651,
      "бар": 1652,
      "бере": 1653,
      "имам": 1654,
      "помощ": 1655,
      "ведна": 1656,
      "ляр": 1657,
      "те.": 1658,
      "кро": 1659,
      "месец": 1660,
      "димитро": 1661,
      "нощ": 1662,
      "заба": 1663,
      "дълго": 1664,
      "прекра": 1665,
      "ньор": 1666,
      "ч.": 1667,
      "прите": 1668,
      "чувства": 1669,
      "реал": 1670,
      "изя": 1671,
      "икономи": 1672,
      "иван": 1673,
      "хаха": 1674,
      "веднага": 1675,
      "мна": 1676,
      "маги": 1677,
      "ѝ": 1678,
      "изле": 1679,
      "отда": 1680,
      "българи": 1681,
      "сви": 1682,
      "изпълнител": 1683,
      "основ": 1684,
      "ве,": 1685,
      "предизвика": 1686,
      "съвсе": 1687,
      "добри": 1688,
      "памет": 1689,
      "сел": 1690,
      "той.": 1691,
      "проце": 1692,
      "кър": 1693,
      "наистина": 1694,
      "море": 1695,
      "мрежа": 1696,
      "енер": 1697,
      "търси": 1698,
      "жде": 1699,
      "особе": 1700,
      "години.": 1701,
      "футболи": 1702,
      "съвсем": 1703,
      "имаме": 1704,
      "конце": 1705,
      "й.": 1706,
      "тко": 1707,
      "години,": 1708,
      "тв": 1709,
      "дия": 1710,
      "искат": 1711,
      "нека": 1712,
      "турция": 1713,
      "рано": 1714,
      "опита": 1715,
      "фон": 1716,
      "фран": 1717,
      "юз": 1718,
      "спечели": 1719,
      "прове": 1720,
      "организа": 1721,
      "вари": 1722,
      "ав": 1723,
      "изключително": 1724,
      "ната.": 1725,
      "дри": 1726,
      "мпа": 1727,
      "дова": 1728,
      "нати": 1729,
      "очи": 1730,
      "шат": 1731,
      "нару": 1732,
      "никола": 1733,
      "спорт": 1734,
      "нския": 1735,
      "цялата": 1736,
      "режи": 1737,
      "първа": 1738,
      "намери": 1739,
      "вътре": 1740,
      "децата": 1741,
      "дон": 1742,
      "лига": 1743,
      "момент": 1744,
      ").": 1745,
      "парламента": 1746,
      "\"левски": 1747,
      "подкрепа": 1748,
      "общи": 1749,
      "кат": 1750,
      "нет": 1751,
      "нов,": 1752,
      "тък": 1753,
      "д,": 1754,
      "актьор": 1755,
      "изра": 1756,
      "шна": 1757,
      "приятели": 1758,
      "такъв": 1759,
      "сам": 1760,
      "политически": 1761,
      "пс": 1762,
      "черве": 1763,
      "шампи": 1764,
      "са.": 1765,
      "шните": 1766,
      "попу": 1767,
      "демо": 1768,
      "такава": 1769,
      "терори": 1770,
      "лa": 1771,
      "рите,": 1772,
      "11": 1773,
      "еми": 1774,
      "йо": 1775,
      "избра": 1776,
      "кс": 1777,
      "циали": 1778,
      "споделя": 1779,
      "тото": 1780,
      "мач": 1781,
      "случва": 1782,
      "кажа": 1783,
      "излиза": 1784,
      "светов": 1785,
      "щава": 1786,
      "свят": 1787,
      "акти": 1788,
      "позво": 1789,
      "новата": 1790,
      "беле": 1791,
      "нари": 1792,
      "обаче,": 1793,
      "руси": 1794,
      "сер": 1795,
      "времето": 1796,
      "дро": 1797,
      "участва": 1798,
      "изку": 1799,
      "тири": 1800,
      "слава": 1801,
      "министер": 1802,
      "аген": 1803,
      "двама": 1804,
      "фолк": 1805,
      "шеф": 1806,
      "уни": 1807,
      "ова": 1808,
      "ее": 1809,
      "голямата": 1810,
      "изда": 1811,
      "изпра": 1812,
      "телна": 1813,
      "надя": 1814,
      "катастро": 1815,
      "вото": 1816,
      "нужда": 1817,
      "достатъ": 1818,
      "радва": 1819,
      "разли": 1820,
      "колеги": 1821,
      "петро": 1822,
      "вчера": 1823,
      "миналата": 1824,
      "същност": 1825,
      "програ": 1826,
      "мa": 1827,
      "различни": 1828,
      "тон": 1829,
      "актри": 1830,
      "разбра": 1831,
      "падна": 1832,
      "втори": 1833,
      "момиче": 1834,
      "чение": 1835,
      "използва": 1836,
      "тар": 1837,
      "крити": 1838,
      "чки": 1839,
      "носи": 1840,
      "двой": 1841,
      "никът": 1842,
      "екс": 1843,
      "недо": 1844,
      "рю": 1845,
      "шки": 1846,
      "българия,": 1847,
      "необ": 1848,
      "щото": 1849,
      "ми.": 1850,
      "източ": 1851,
      "името": 1852,
      "съби": 1853,
      "хиляди": 1854,
      "гради": 1855,
      "особено": 1856,
      "несе": 1857,
      "инци": 1858,
      "ви.": 1859,
      "първата": 1860,
      "стоян": 1861,
      "задържа": 1862,
      "специал": 1863,
      "фото": 1864,
      "ясно,": 1865,
      "сня": 1866,
      "съде": 1867,
      "пара": 1868,
      "пия": 1869,
      "мп": 1870,
      "оо": 1871,
      "ност,": 1872,
      "вед": 1873,
      "всъщност": 1874,
      "стар": 1875,
      "иначе": 1876,
      "нера": 1877,
      "сти.": 1878,
      "заяви,": 1879,
      "победи": 1880,
      "каме": 1881,
      "нов.": 1882,
      "инциден": 1883,
      "закон": 1884,
      "предло": 1885,
      "престъп": 1886,
      "лидер": 1887,
      "своите": 1888,
      "нец": 1889,
      "нти": 1890,
      "идва": 1891,
      "лай": 1892,
      "месеца": 1893,
      "чита": 1894,
      "тори": 1895,
      "ност.": 1896,
      "зен": 1897,
      "нъ": 1898,
      "вец": 1899,
      "смърт": 1900,
      "поле": 1901,
      "засе": 1902,
      "служ": 1903,
      "рени": 1904,
      "настоя": 1905,
      "кому": 1906,
      "по-късно": 1907,
      "контро": 1908,
      "лище": 1909,
      "место": 1910,
      "ят.": 1911,
      "пое": 1912,
      "ита": 1913,
      "сами": 1914,
      "шни": 1915,
      "бай": 1916,
      "сезон": 1917,
      "шния": 1918,
      "места": 1919,
      "анге": 1920,
      "връзка": 1921,
      "ужа": 1922,
      "появи": 1923,
      "супер": 1924,
      "осно": 1925,
      "феновете": 1926,
      "1.": 1927,
      "фоку": 1928,
      "хте": 1929,
      "фей": 1930,
      "лята": 1931,
      "припомня": 1932,
      "рок": 1933,
      "извънред": 1934,
      "вля": 1935,
      "новия": 1936,
      "мент": 1937,
      "турата": 1938,
      "голямо": 1939,
      "играе": 1940,
      "знам": 1941,
      "демокра": 1942,
      "почита": 1943,
      "вале": 1944,
      "теа": 1945,
      "кандида": 1946,
      "исля": 1947,
      "ков,": 1948,
      "во,": 1949,
      "паза": 1950,
      "бе,": 1951,
      "пловдив": 1952,
      "андре": 1953,
      "ули": 1954,
      "ано": 1955,
      "прокура": 1956,
      "света": 1957,
      "тени": 1958,
      "проблем": 1959,
      "ране": 1960,
      "доку": 1961,
      "предаването": 1962,
      "задъл": 1963,
      "клуб": 1964,
      "трудно": 1965,
      "решение": 1966,
      "тки": 1967,
      "радев": 1968,
      "ции,": 1969,
      "избира": 1970,
      "меч": 1971,
      "ват.": 1972,
      "спре": 1973,
      "семейството": 1974,
      "образова": 1975,
      "информация": 1976,
      "жо": 1977,
      "лова": 1978,
      "рил": 1979,
      "върна": 1980,
      "полица": 1981,
      "намира": 1982,
      "избо": 1983,
      "държавата": 1984,
      "ване.": 1985,
      "чните": 1986,
      "млн.": 1987,
      "роб": 1988,
      "готов": 1989,
      "хар": 1990,
      "ване,": 1991,
      "х.": 1992,
      "сията": 1993,
      "пада": 1994,
      "дума": 1995,
      "кни": 1996,
      "ce": 1997,
      "тек": 1998,
      "пока": 1999,
      "нските": 2000,
      "профи": 2001,
      "година.": 2002,
      "tv": 2003,
      "ньо": 2004,
      "цяло": 2005,
      "убе": 2006,
      "г,": 2007,
      "кандидат": 2008,
      "чрез": 2009,
      "вю": 2010,
      "половин": 2011,
      "22": 2012,
      "определе": 2013,
      "ами": 2014,
      "зрите": 2015,
      "здраве": 2016,
      "полага": 2017,
      "рия,": 2018,
      "бурга": 2019,
      "миха": 2020,
      "ток": 2021,
      "заведе": 2022,
      "съл": 2023,
      "обър": 2024,
      "промени": 2025,
      "чалга": 2026,
      "ферен": 2027,
      "чени": 2028,
      "бол": 2029,
      "партия": 2030,
      "брю": 2031,
      "\"левски\"": 2032,
      "реша": 2033,
      "гнал": 2034,
      "върне": 2035,
      "наказа": 2036,
      "виру": 2037,
      "ваш": 2038,
      "посочи": 2039,
      "финансо": 2040,
      "ът,": 2041,
      "сутри": 2042,
      "ктор": 2043,
      "тие": 2044,
      "чната": 2045,
      "туал": 2046,
      "заги": 2047,
      "нася": 2048,
      "европей": 2049,
      "ун": 2050,
      "24": 2051,
      "вала": 2052,
      "щя": 2053,
      "чков": 2054,
      "пости": 2055,
      "даже": 2056,
      "гов": 2057,
      "йор": 2058,
      "дис": 2059,
      "центра": 2060,
      "възможно": 2061,
      "града": 2062,
      "нашите": 2063,
      "поя": 2064,
      "дойде": 2065,
      "цели": 2066,
      "него.": 2067,
      "комп": 2068,
      "дио": 2069,
      "смя": 2070,
      "мача": 2071,
      "маке": 2072,
      "наскоро": 2073,
      "печат": 2074,
      "нението": 2075,
      "му.": 2076,
      "едни": 2077,
      "увели": 2078,
      "ък": 2079,
      "вакси": 2080,
      "жерт": 2081,
      "нели": 2082,
      "купи": 2083,
      "парите": 2084,
      "мъл": 2085,
      "ф.": 2086,
      "казват": 2087,
      "пик!": 2088,
      "рани": 2089,
      "25": 2090,
      "изненада": 2091,
      "потвър": 2092,
      "лкохо": 2093,
      "блъ": 2094,
      "рам": 2095,
      "първия": 2096,
      "бизнес": 2097,
      "лека": 2098,
      "приема": 2099,
      "управлява": 2100,
      "17": 2101,
      "пте": 2102,
      "ета": 2103,
      "пси": 2104,
      "бежан": 2105,
      "норма": 2106,
      "добра": 2107,
      "човек,": 2108,
      "добър": 2109,
      "алкохо": 2110,
      "член": 2111,
      "вния": 2112,
      "русна": 2113,
      "коли": 2114,
      "слави": 2115,
      "ков.": 2116,
      "pa": 2117,
      "лението": 2118,
      ".....": 2119,
      "напред": 2120,
      "вната": 2121,
      "остава": 2122,
      "поръ": 2123,
      "четири": 2124,
      "ец": 2125,
      "рена": 2126,
      "сят": 2127,
      "остана": 2128,
      "13": 2129,
      "мни": 2130,
      "дето": 2131,
      "ба.": 2132,
      "нама": 2133,
      "каче": 2134,
      "интервю": 2135,
      "мисле": 2136,
      "вместо": 2137,
      "хвърли": 2138,
      "мани": 2139,
      "чева": 2140,
      "досега": 2141,
      "отво": 2142,
      "съюз": 2143,
      "катастрофа": 2144,
      "така,": 2145,
      "същото": 2146,
      "карие": 2147,
      "правителството": 2148,
      "рече": 2149,
      "дву": 2150,
      "нo": 2151,
      "седмица": 2152,
      "вени": 2153,
      "ници,": 2154,
      "поп": 2155,
      "ела": 2156,
      "зата": 2157,
      "ните.": 2158,
      "брита": 2159,
      "експе": 2160,
      "сметка": 2161,
      "работата": 2162,
      "21": 2163,
      "нта": 2164,
      "дера": 2165,
      "вате": 2166,
      "коре": 2167,
      "вземе": 2168,
      "отбеля": 2169,
      "полиция": 2170,
      "вижте": 2171,
      "пее": 2172,
      "интерес": 2173,
      "оръжи": 2174,
      "льо": 2175,
      "брат": 2176,
      "излезе": 2177,
      "дале": 2178,
      "показва": 2179,
      "общ": 2180,
      "чката": 2181,
      "трябваше": 2182,
      "прин": 2183,
      "осигу": 2184,
      "продължа": 2185,
      "геро": 2186,
      "говаря": 2187,
      "стани": 2188,
      "турски": 2189,
      "16": 2190,
      "достатъчно": 2191,
      "своята": 2192,
      "певица": 2193,
      "демон": 2194,
      "популяр": 2195,
      "съгла": 2196,
      "същест": 2197,
      "боле": 2198,
      "стът": 2199,
      "\"не": 2200,
      "съве": 2201,
      "сове": 2202,
      "тала": 2203,
      "страх": 2204,
      "подчер": 2205,
      "нъж": 2206,
      "ат": 2207,
      "разя": 2208,
      "цял": 2209,
      "кило": 2210,
      "провер": 2211,
      "парт": 2212,
      "енерги": 2213,
      "повод": 2214,
      "започва": 2215,
      "сай": 2216,
      "против": 2217,
      "вз": 2218,
      "тката": 2219,
      "съдеб": 2220,
      "нямаше": 2221,
      "перио": 2222,
      "държи": 2223,
      "проме": 2224,
      "тe": 2225,
      "предаде": 2226,
      "сърце": 2227,
      "насо": 2228,
      "подгот": 2229,
      "изобщо": 2230,
      "солю": 2231,
      "рускиня": 2232,
      "дар": 2233,
      "участие": 2234,
      "скандал": 2235,
      "вните": 2236,
      "ам": 2237,
      "отказа": 2238,
      "уи": 2239,
      "лон": 2240,
      "създа": 2241,
      "г-": 2242,
      "премиерът": 2243,
      "професио": 2244,
      "представя": 2245,
      "имало": 2246,
      "спира": 2247,
      "тна": 2248,
      "това.": 2249,
      "велико": 2250,
      "кме": 2251,
      "мах": 2252,
      "//": 2253,
      "диа": 2254,
      "снимки)": 2255,
      "лошо": 2256,
      "джо": 2257,
      "шоф": 2258,
      "опи": 2259,
      "треньор": 2260,
      "другите": 2261,
      "последова": 2262,
      "оче": 2263,
      "14": 2264,
      "търа": 2265,
      "бива": 2266,
      "абсолю": 2267,
      "нe": 2268,
      "българската": 2269,
      "рение": 2270,
      "вести": 2271,
      "влезе": 2272,
      "нета": 2273,
      "впечат": 2274,
      "макар": 2275,
      "взи": 2276,
      "звезда": 2277,
      "убий": 2278,
      "щият": 2279,
      "пo": 2280,
      "ческата": 2281,
      "черно": 2282,
      "мос": 2283,
      "хт": 2284,
      "пожа": 2285,
      "свето": 2286,
      "ции.": 2287,
      "вклю": 2288,
      "поведе": 2289,
      "бом": 2290,
      "фли": 2291,
      "подо": 2292,
      "момче": 2293,
      "съжа": 2294,
      "терито": 2295,
      "гроз": 2296,
      "кът": 2297,
      "ш.": 2298,
      "срещата": 2299,
      "избор": 2300,
      "гей": 2301,
      "кво": 2302,
      "чете": 2303,
      "поиска": 2304,
      "дет": 2305,
      "вечер": 2306,
      "мръ": 2307,
      "бившият": 2308,
      "мястото": 2309,
      "излъ": 2310,
      "остави": 2311,
      "милиона": 2312,
      "оце": 2313,
      "димитър": 2314,
      "думи": 2315,
      "менти": 2316,
      "година,": 2317,
      "дена": 2318,
      "отдавна": 2319,
      "пис": 2320,
      "публика": 2321,
      "причината": 2322,
      "каби": 2323,
      "можем": 2324,
      "доказа": 2325,
      "останалите": 2326,
      "вена": 2327,
      "ари": 2328,
      "ба,": 2329,
      "възможност": 2330,
      "директор": 2331,
      "п.": 2332,
      "отбо": 2333,
      "извънредно": 2334,
      "гa": 2335,
      "теб": 2336,
      "ло,": 2337,
      "живя": 2338,
      "хората,": 2339,
      "телевизия": 2340,
      "озна": 2341,
      "строе": 2342,
      "дание": 2343,
      "наложи": 2344,
      "пусне": 2345,
      "ръковод": 2346,
      "специали": 2347,
      "големите": 2348,
      "важно": 2349,
      "отношение": 2350,
      "зват": 2351,
      "усе": 2352,
      "радо": 2353,
      "милио": 2354,
      "целия": 2355,
      "минути": 2356,
      "жената": 2357,
      "пожела": 2358,
      "рка": 2359,
      "есте": 2360,
      "нея.": 2361,
      "полицията": 2362,
      "ислям": 2363,
      "шампион": 2364,
      "физ": 2365,
      "лън": 2366,
      "президентът": 2367,
      "бих": 2368,
      "самата": 2369,
      "нска": 2370,
      "сбу": 2371,
      "ник,": 2372,
      "рекла": 2373,
      "тина": 2374,
      "румен": 2375,
      "телен": 2376,
      "ха.": 2377,
      "ръце": 2378,
      "in": 2379,
      "научи": 2380,
      "промя": 2381,
      "г.,": 2382,
      "постра": 2383,
      "запозна": 2384,
      "дръ": 2385,
      "оли": 2386,
      "елек": 2387,
      "сс": 2388,
      "погле": 2389,
      "бебе": 2390,
      "шко": 2391,
      "кал": 2392,
      "район": 2393,
      "госпо": 2394,
      "му,": 2395,
      "заха": 2396,
      "мър": 2397,
      "обществе": 2398,
      "групи": 2399,
      "публикува": 2400,
      "утре": 2401,
      "деси": 2402,
      "ден,": 2403,
      "дом": 2404,
      "бюдже": 2405,
      "зу": 2406,
      "гол": 2407,
      "направо": 2408,
      "бле": 2409,
      "теля": 2410,
      "ели": 2411,
      "пли": 2412,
      "когото": 2413,
      "шоуто": 2414,
      "усми": 2415,
      "вай": 2416,
      "александър": 2417,
      "дал": 2418,
      "каквото": 2419,
      "://": 2420,
      "40": 2421,
      "твърде": 2422,
      "ези": 2423,
      "магази": 2424,
      "бъдеще": 2425,
      "николай": 2426,
      "нямат": 2427,
      "брой": 2428,
      "ник.": 2429,
      "американ": 2430,
      "фейсбу": 2431,
      "нения": 2432,
      "първите": 2433,
      "постоян": 2434,
      "тели,": 2435,
      "рява": 2436,
      "север": 2437,
      "анти": 2438,
      "решението": 2439,
      "припомняме,": 2440,
      "председателят": 2441,
      "реали": 2442,
      "помага": 2443,
      "второ": 2444,
      "премие": 2445,
      "подроб": 2446,
      "накрая": 2447,
      "нарко": 2448,
      "профила": 2449,
      "23": 2450,
      "септе": 2451,
      "осъ": 2452,
      "освобо": 2453,
      "проста": 2454,
      "труд": 2455,
      "нещо,": 2456,
      "зат": 2457,
      "дола": 2458,
      "отиде": 2459,
      "изди": 2460,
      "рите.": 2461,
      "очевид": 2462,
      "поради": 2463,
      "остане": 2464,
      "четвър": 2465,
      "лено": 2466,
      "во.": 2467,
      "кват": 2468,
      "граждани": 2469,
      "зала": 2470,
      "събира": 2471,
      "практи": 2472,
      "независи": 2473,
      "доха": 2474,
      "игри": 2475,
      "мор": 2476,
      "възду": 2477,
      "обик": 2478,
      "хал": 2479,
      "щом": 2480,
      "цел": 2481,
      "снява": 2482,
      "слън": 2483,
      "институ": 2484,
      "ствата": 2485,
      "прият": 2486,
      "служе": 2487,
      "случая": 2488,
      "хтт": 2489,
      "ън": 2490,
      "силно": 2491,
      "арти": 2492,
      "възраст": 2493,
      "коали": 2494,
      "защита": 2495,
      "лили": 2496,
      "разуме": 2497,
      "клузи": 2498,
      "еже": 2499,
      "рия.": 2500,
      "него,": 2501,
      "бите": 2502,
      "спокой": 2503,
      "близки": 2504,
      "млади": 2505,
      "pe": 2506,
      "комуни": 2507,
      "лния": 2508,
      "временно": 2509,
      "магистра": 2510,
      "тието": 2511,
      "слуша": 2512,
      "харесва": 2513,
      "изма": 2514,
      "фира": 2515,
      "д-": 2516,
      "глава": 2517,
      "действа": 2518,
      "премина": 2519,
      "гнали": 2520,
      "ид": 2521,
      "генера": 2522,
      "газ": 2523,
      "мисля,": 2524,
      "уве": 2525,
      "нато": 2526,
      "насе": 2527,
      "ства,": 2528,
      "каза,": 2529,
      "фал": 2530,
      "скри": 2531,
      "цията,": 2532,
      "стара": 2533,
      "лните": 2534,
      "детето": 2535,
      "рът": 2536,
      "кали": 2537,
      "гадже": 2538,
      "грам": 2539,
      "тръмп": 2540,
      "шната": 2541,
      "ема": 2542,
      "чния": 2543,
      "столи": 2544,
      "мин": 2545,
      "за,": 2546,
      "звездата": 2547,
      "удари": 2548,
      "македо": 2549,
      "кта": 2550,
      "кампа": 2551,
      "мен,": 2552,
      "такова": 2553,
      "завърши": 2554,
      "дано": 2555,
      "песни": 2556,
      "живеят": 2557,
      "засега": 2558,
      "някога": 2559,
      "вич": 2560,
      "нският": 2561,
      "наде": 2562,
      "договор": 2563,
      "повечето": 2564,
      "медици": 2565,
      "тран": 2566,
      "война": 2567,
      "лира": 2568,
      "младе": 2569,
      "пят": 2570,
      "тим": 2571,
      "уточ": 2572,
      "плю": 2573,
      "сигурно": 2574,
      "жна": 2575,
      "ев,": 2576,
      "тях.": 2577,
      "вярва": 2578,
      "еба": 2579,
      "краса": 2580,
      "смет": 2581,
      "проф.": 2582,
      "жу": 2583,
      "вис": 2584,
      "ждане": 2585,
      "фенове": 2586,
      "аф": 2587,
      "тя.": 2588,
      "всичките": 2589,
      "новите": 2590,
      "гар": 2591,
      "пти": 2592,
      "призова": 2593,
      "нова,": 2594,
      "пов": 2595,
      "центъра": 2596,
      "дипло": 2597,
      "съста": 2598,
      "ници.": 2599,
      "зая": 2600,
      "личния": 2601,
      "нят": 2602,
      "(снимки)": 2603,
      "лени": 2604,
      "баба": 2605,
      "ствен": 2606,
      "нка": 2607,
      "власт": 2608,
      "тит": 2609,
      "нува": 2610,
      "ексклузи": 2611,
      "зер": 2612,
      "българския": 2613,
      "китай": 2614,
      "ве.": 2615,
      "жения": 2616,
      ",че": 2617,
      "прода": 2618,
      "изпълнителката": 2619,
      "високо": 2620,
      "напълно": 2621,
      "реак": 2622,
      "ислямска": 2623,
      "ефе": 2624,
      "възста": 2625,
      "продуцен": 2626,
      "нг": 2627,
      "нещата": 2628,
      "рския": 2629,
      "сли": 2630,
      "добави": 2631,
      "дор": 2632,
      "конфли": 2633,
      "ау": 2634,
      "прилича": 2635,
      "бг": 2636,
      "поре": 2637,
      "къщи": 2638,
      "нашата": 2639,
      "отговори": 2640,
      "ците,": 2641,
      "талант": 2642,
      "дните": 2643,
      "лудо": 2644,
      "войната": 2645,
      "патри": 2646,
      "нени": 2647,
      "техни": 2648,
      "er": 2649,
      "остро": 2650,
      "кол": 2651,
      "бия": 2652,
      "жесто": 2653,
      "ску": 2654,
      "бел": 2655,
      "инвести": 2656,
      "гати": 2657,
      "ази": 2658,
      "гъл": 2659,
      "цялото": 2660,
      "физи": 2661,
      "дс": 2662,
      "правителство": 2663,
      "личи": 2664,
      "сери": 2665,
      "обрат": 2666,
      "18+": 2667,
      "димитров": 2668,
      "ваше": 2669,
      "ĸa": 2670,
      "жно": 2671,
      "необходи": 2672,
      "ей": 2673,
      "ският": 2674,
      "ежедне": 2675,
      "анга": 2676,
      "нямам": 2677,
      "джу": 2678,
      "българските": 2679,
      "израел": 2680,
      "кю": 2681,
      "лей": 2682,
      "благодаря": 2683,
      "зма": 2684,
      "лесно": 2685,
      "бяга": 2686,
      "националния": 2687,
      "жал": 2688,
      "получава": 2689,
      "ани": 2690,
      "допълни": 2691,
      "фокус": 2692,
      "ните\"": 2693,
      "владими": 2694,
      "бул": 2695,
      "дядо": 2696,
      "данни": 2697,
      "абе": 2698,
      "ческо": 2699,
      "качи": 2700,
      "2016": 2701,
      "проведе": 2702,
      "врата": 2703,
      "прово": 2704,
      "прокуро": 2705,
      "модел": 2706,
      "простран": 2707,
      "казва,": 2708,
      "интересу": 2709,
      "вният": 2710,
      "къл": 2711,
      "вил": 2712,
      "германия": 2713,
      "ндин": 2714,
      "ствието": 2715,
      "пие": 2716,
      "вката": 2717,
      "ори": 2718,
      "взри": 2719,
      "ангажи": 2720,
      "удо": 2721,
      "изля": 2722,
      "пътува": 2723,
      "строи": 2724,
      "охра": 2725,
      "фро": 2726,
      "тев": 2727,
      "купу": 2728,
      "стува": 2729,
      "вият": 2730,
      "тежко": 2731,
      "веднъж": 2732,
      "истински": 2733,
      "обеди": 2734,
      "обо": 2735,
      "весе": 2736,
      "конститу": 2737,
      "парта": 2738,
      "браво": 2739,
      "нем": 2740,
      "пътя": 2741,
      "работят": 2742,
      "тоа": 2743,
      "лът": 2744,
      "красави": 2745,
      "комплек": 2746,
      "наб": 2747,
      "чест": 2748,
      "\"!": 2749,
      "васи": 2750,
      "терористи": 2751,
      "секре": 2752,
      "тръгна": 2753,
      "лекар": 2754,
      "час": 2755,
      "струк": 2756,
      "полице": 2757,
      "блондин": 2758,
      "нена": 2759,
      "негово": 2760,
      "получа": 2761,
      "грижи": 2762,
      "певец": 2763,
      "стигне": 2764,
      "сина": 2765,
      "минали": 2766,
      "цията.": 2767,
      "екра": 2768,
      "ограни": 2769,
      "анони": 2770,
      "симе": 2771,
      "президента": 2772,
      "транс": 2773,
      "an": 2774,
      "on": 2775,
      "вас": 2776,
      "пост": 2777,
      "посла": 2778,
      "по-малко": 2779,
      "положи": 2780,
      "загуби": 2781,
      "-годишният": 2782,
      "кое": 2783,
      "коро": 2784,
      "метра": 2785,
      "съобщава": 2786,
      "цяла": 2787,
      "инста": 2788,
      "автомобил": 2789,
      "реформа": 2790,
      "шва": 2791,
      "бие": 2792,
      "по-рано": 2793,
      "изго": 2794,
      "жените": 2795,
      "стефан": 2796,
      "изва": 2797,
      "мвр": 2798,
      "актьо": 2799,
      "жни": 2800,
      "рни": 2801,
      "испа": 2802,
      "рти": 2803,
      "заслу": 2804,
      "фика": 2805,
      "ждат": 2806,
      "трудни": 2807,
      "покаже": 2808,
      "наслед": 2809,
      "отколкото": 2810,
      "гледам": 2811,
      "деке": 2812,
      "рина": 2813,
      "ди.": 2814,
      "дят": 2815,
      "васил": 2816,
      "пове": 2817,
      "сила": 2818,
      "???": 2819,
      "щасти": 2820,
      "тън": 2821,
      "ствено": 2822,
      "гото": 2823,
      "истори": 2824,
      "репор": 2825,
      "производ": 2826,
      "юли": 2827,
      "петър": 2828,
      "мен.": 2829,
      "мнози": 2830,
      "стати": 2831,
      "стади": 2832,
      "организира": 2833,
      "зни": 2834,
      "кирил": 2835,
      "чена": 2836,
      "бремен": 2837,
      "лина": 2838,
      "свърза": 2839,
      "например": 2840,
      "фигу": 2841,
      "обеща": 2842,
      "шното": 2843,
      "б.": 2844,
      "сро": 2845,
      "участието": 2846,
      "чното": 2847,
      "циа": 2848,
      "п,": 2849,
      "отвра": 2850,
      "д-р": 2851,
      "ло.": 2852,
      "чак": 2853,
      "тици": 2854,
      "ждането": 2855,
      "крайна": 2856,
      "боклу": 2857,
      "всичко,": 2858,
      "гно": 2859,
      "моя": 2860,
      "министърът": 2861,
      "чe": 2862,
      "армия": 2863,
      "гласува": 2864,
      "подобни": 2865,
      "обикнове": 2866,
      "болница": 2867,
      "дово": 2868,
      "пите": 2869,
      "ден.": 2870,
      "тези,": 2871,
      "зада": 2872,
      "нк": 2873,
      "единствено": 2874,
      "кап": 2875,
      "че,": 2876,
      "боя": 2877,
      "телят": 2878,
      "ексклузивно": 2879,
      "наред": 2880,
      "80": 2881,
      "обръ": 2882,
      "снима": 2883,
      "нацио": 2884,
      "прекъ": 2885,
      "разбере": 2886,
      "санк": 2887,
      "споразуме": 2888,
      "зрителите": 2889,
      "самият": 2890,
      "тради": 2891,
      "мена": 2892,
      "пора": 2893,
      "център": 2894,
      "компания": 2895,
      "деми": 2896,
      "противо": 2897,
      "подчерта": 2898,
      "москва": 2899,
      "плати": 2900,
      "говорите": 2901,
      "международ": 2902,
      "младо": 2903,
      "руската": 2904,
      "годишен": 2905,
      "далеч": 2906,
      "свиде": 2907,
      "принци": 2908,
      "държави": 2909,
      "бившата": 2910,
      "ситуацията": 2911,
      "официално": 2912,
      "русия,": 2913,
      "гала": 2914,
      "90": 2915,
      "вест": 2916,
      "владимир": 2917,
      "ответ": 2918,
      ":)": 2919,
      "трябвало": 2920,
      "поздра": 2921,
      "инди": 2922,
      "сните": 2923,
      "медиите": 2924,
      "услови": 2925,
      "процен": 2926,
      "граф": 2927,
      "цвета": 2928,
      "полови": 2929,
      "гаран": 2930,
      "сложи": 2931,
      "история": 2932,
      "екипа": 2933,
      "професионал": 2934,
      "вдигна": 2935,
      "по-добре": 2936,
      "вки": 2937,
      "изис": 2938,
      "лук": 2939,
      "къща": 2940,
      "лицето": 2941,
      "любовта": 2942,
      "бал": 2943,
      "чужби": 2944,
      "рят": 2945,
      "относно": 2946,
      "окто": 2947,
      "йло": 2948,
      "щение": 2949,
      "пълна": 2950,
      "редо": 2951,
      "хора.": 2952,
      "създаде": 2953,
      "видим": 2954,
      "\"а": 2955,
      "за.": 2956,
      "съв": 2957,
      "училище": 2958,
      "съобщиха": 2959,
      "изо": 2960,
      "ците.": 2961,
      "стъпи": 2962,
      "домаки": 2963,
      "протести": 2964,
      "предложи": 2965,
      "редица": 2966,
      "семейство": 2967,
      "област": 2968,
      "данъ": 2969,
      "еле": 2970,
      "стабил": 2971,
      "известен": 2972,
      "успех": 2973,
      "итали": 2974,
      "пa": 2975,
      "чле": 2976,
      "министерството": 2977,
      "парламен": 2978,
      "румъ": 2979,
      "средства": 2980,
      "подкрепя": 2981,
      "ница": 2982,
      "ar": 2983,
      "медии": 2984,
      "партията": 2985,
      "изкара": 2986,
      "гия": 2987,
      "ц.": 2988,
      "клиен": 2989,
      "сън": 2990,
      "предлага": 2991,
      "уника": 2992,
      "студен": 2993,
      "сериозно": 2994,
      "наблю": 2995,
      "-и": 2996,
      "колеж": 2997,
      "кристи": 2998,
      "стрира": 2999,
      "фермата": 3000,
      "нът": 3001,
      "трифо": 3002,
      "йския": 3003,
      "капита": 3004,
      "зало": 3005,
      "отбра": 3006,
      "га,": 3007,
      "самоле": 3008,
      "пълни": 3009,
      "напре": 3010,
      "тем": 3011,
      "тима": 3012,
      "ко,": 3013,
      "поддържа": 3014,
      "новя": 3015,
      "кору": 3016,
      "тели.": 3017,
      "торите": 3018,
      "крие": 3019,
      "))))": 3020,
      "''": 3021,
      "уми": 3022,
      "време.": 3023,
      "ай": 3024,
      "рира": 3025,
      "истината": 3026,
      "първото": 3027,
      "няват": 3028,
      "пад": 3029,
      "време,": 3030,
      "ердо": 3031,
      "отношенията": 3032,
      "неговата": 3033,
      "уике": 3034,
      "здраво": 3035,
      "сцената": 3036,
      "биха": 3037,
      "трупа": 3038,
      "продук": 3039,
      "70": 3040,
      "зле": 3041,
      "зите": 3042,
      "обичам": 3043,
      "хубаво": 3044,
      "наше": 3045,
      "изче": 3046,
      "историята": 3047,
      "им.": 3048,
      "софия.": 3049,
      "кварта": 3050,
      "близките": 3051,
      "назна": 3052,
      "защит": 3053,
      "нието,": 3054,
      "щеше": 3055,
      "последния": 3056,
      "основа": 3057,
      "ч,": 3058,
      "обра": 3059,
      "........": 3060,
      "сур": 3061,
      "масо": 3062,
      "агенция": 3063,
      "влю": 3064,
      "разслед": 3065,
      "българите": 3066,
      "джър": 3067,
      "ев.": 3068,
      "песента": 3069,
      "бившия": 3070,
      "сири": 3071,
      "плат": 3072,
      "следващите": 3073,
      "пълен": 3074,
      "-та": 3075,
      "стреля": 3076,
      "цитиран": 3077,
      "лудогоре": 3078,
      "вице": 3079,
      "закона": 3080,
      "сутрин": 3081,
      "съответ": 3082,
      "st": 3083,
      "дено": 3084,
      "фре": 3085,
      "стват": 3086,
      "мири": 3087,
      "формира": 3088,
      "допълните": 3089,
      "употре": 3090,
      "вили": 3091,
      "шите": 3092,
      "предстои": 3093,
      "коментари": 3094,
      "абсолютно": 3095,
      "\"си": 3096,
      "пря": 3097,
      "приключи": 3098,
      "нален": 3099,
      "мето": 3100,
      "търпе": 3101,
      "септември": 3102,
      "включително": 3103,
      "оне": 3104,
      "куче": 3105,
      "1,": 3106,
      "-те": 3107,
      "макси": 3108,
      "ръководството": 3109,
      "родни": 3110,
      "ии": 3111,
      "тне": 3112,
      "риали": 3113,
      "причина": 3114,
      "очите": 3115,
      "po": 3116,
      "инф": 3117,
      "присъства": 3118,
      "първият": 3119,
      "длъ": 3120,
      "система": 3121,
      "ръка": 3122,
      "кад": 3123,
      "co": 3124,
      "плей": 3125,
      "тони": 3126,
      "спаси": 3127,
      "десет": 3128,
      "неу": 3129,
      "резултат": 3130,
      "мигранти": 3131,
      "нева": 3132,
      "главата": 3133,
      "попита": 3134,
      "състе": 3135,
      "фона": 3136,
      "зъм": 3137,
      "разпро": 3138,
      "преду": 3139,
      "админи": 3140,
      "състеза": 3141,
      "ени": 3142,
      "роля": 3143,
      "отношения": 3144,
      "кру": 3145,
      "нас.": 3146,
      "зем": 3147,
      "2015": 3148,
      "-а": 3149,
      "консу": 3150,
      "двата": 3151,
      "любопит": 3152,
      "някакъв": 3153,
      "адво": 3154,
      "фейсбук": 3155,
      "60": 3156,
      "тео": 3157,
      "представители": 3158,
      "\"фокус": 3159,
      "oт": 3160,
      "чисто": 3161,
      "опози": 3162,
      "мерки": 3163,
      "зи,": 3164,
      "конкур": 3165,
      "покрай": 3166,
      "ил": 3167,
      "кмет": 3168,
      "сблъ": 3169,
      "похва": 3170,
      "техните": 3171,
      "вну": 3172,
      "вкара": 3173,
      "някакви": 3174,
      "имаш": 3175,
      "ное": 3176,
      "направе": 3177,
      "----": 3178,
      "глед": 3179,
      "всяко": 3180,
      "финал": 3181,
      "емоционал": 3182,
      "ствена": 3183,
      "най-вече": 3184,
      "англи": 3185,
      "великобрита": 3186,
      "откра": 3187,
      "аги": 3188,
      "влява": 3189,
      "контра": 3190,
      "администра": 3191,
      "ĸo": 3192,
      "леге": 3193,
      "взима": 3194,
      "рамките": 3195,
      "ливо": 3196,
      "мъжа": 3197,
      "майката": 3198,
      "всякъде": 3199,
      "моята": 3200,
      "хвърля": 3201,
      "обсъ": 3202,
      "петков": 3203,
      "апри": 3204,
      "моти": 3205,
      "нормално": 3206,
      "чват": 3207,
      "рей": 3208,
      "конку": 3209,
      "политика": 3210,
      "връх": 3211,
      "очевидно": 3212,
      "нея,": 3213,
      "брадър": 3214,
      "играчи": 3215,
      "тове": 3216,
      "-ата": 3217,
      "бед": 3218,
      "мъжът": 3219,
      "комисия": 3220,
      "уж": 3221,
      "цър": 3222,
      "снимките": 3223,
      "изборите": 3224,
      "шофьор": 3225,
      "тите.": 3226,
      "удар": 3227,
      "анали": 3228,
      "новото": 3229,
      "разлика": 3230,
      "разказа": 3231,
      "фалши": 3232,
      "последната": 3233,
      "нелия": 3234,
      "независимо": 3235,
      "!\",": 3236,
      "направят": 3237,
      "руския": 3238,
      "he": 3239,
      "дил": 3240,
      "малки": 3241,
      "пата": 3242,
      "русе": 3243,
      "територията": 3244,
      "ира": 3245,
      "там,": 3246,
      "силен": 3247,
      "ше,": 3248,
      "земе": 3249,
      "неле": 3250,
      "действия": 3251,
      "театър": 3252,
      "лиде": 3253,
      "родителите": 3254,
      "ходя": 3255,
      "дош": 3256,
      "пав": 3257,
      "божи": 3258,
      "ството,": 3259,
      "известно": 3260,
      "юри": 3261,
      "сa": 3262,
      "мю": 3263,
      "ползва": 3264,
      "bg": 3265,
      "дко": 3266,
      "дой": 3267,
      "цига": 3268,
      "пус": 3269,
      "легенда": 3270,
      "тема": 3271,
      "бог": 3272,
      "вземат": 3273,
      "мозъ": 3274,
      "рката": 3275,
      "никакъв": 3276,
      "атен": 3277,
      "арми": 3278,
      "накара": 3279,
      "чести": 3280,
      "лък": 3281,
      "леко": 3282,
      "бера": 3283,
      "лог": 3284,
      "големия": 3285,
      "лева.": 3286,
      "добре,": 3287,
      "виктор": 3288,
      "процеду": 3289,
      "пп": 3290,
      "журналисти": 3291,
      "анонимен": 3292,
      "репортер": 3293,
      "новият": 3294,
      "започне": 3295,
      "харак": 3296,
      "европейския": 3297,
      "отбора": 3298,
      "телната": 3299,
      "софия,": 3300,
      "интересно": 3301,
      "гърция": 3302,
      "внимание": 3303,
      "асе": 3304,
      "възпита": 3305,
      "въпроса": 3306,
      "риалити": 3307,
      "-годишната": 3308,
      "някаква": 3309,
      "ляна": 3310,
      "скочи": 3311,
      "гола": 3312,
      "номер": 3313,
      "мести": 3314,
      "буква": 3315,
      "шокира": 3316,
      "победа": 3317,
      "стрел": 3318,
      "варна": 3319,
      "електро": 3320,
      "лe": 3321,
      "мине": 3322,
      "компанията": 3323,
      "пази": 3324,
      "би,": 3325,
      "трети": 3326,
      "сирия": 3327,
      "мислят": 3328,
      "дпс": 3329,
      "чество": 3330,
      "чев,": 3331,
      "констан": 3332,
      "каш": 3333,
      "пишат": 3334,
      "предстоя": 3335,
      "персо": 3336,
      "лудогорец": 3337,
      "знаят": 3338,
      "взема": 3339,
      "подробности": 3340,
      "предвид": 3341,
      "ати": 3342,
      "раздели": 3343,
      "разказва": 3344,
      "върви": 3345,
      "кръг": 3346,
      "500": 3347,
      "ала": 3348,
      "премиера": 3349,
      "първен": 3350,
      "постоянно": 3351,
      "мото": 3352,
      "представител": 3353,
      "имал": 3354,
      "иванов": 3355,
      "отне": 3356,
      "запад": 3357,
      "гръц": 3358,
      "малка": 3359,
      "дво": 3360,
      "кле": 3361,
      "факта,": 3362,
      "никакви": 3363,
      "връзката": 3364,
      "кана": 3365,
      "чев.": 3366,
      "конкурен": 3367,
      "влия": 3368,
      "смъртта": 3369,
      "шев": 3370,
      "авгу": 3371,
      "чел": 3372,
      "актрисата": 3373,
      ",,": 3374,
      "шве": 3375,
      "дай": 3376,
      "ca": 3377,
      "мила": 3378,
      "изви": 3379,
      "другата": 3380,
      "ствени": 3381,
      "фици": 3382,
      "новина": 3383,
      "спрямо": 3384,
      "актьорът": 3385,
      "рин": 3386,
      "трени": 3387,
      "демократи": 3388,
      "станда": 3389,
      "пил": 3390,
      "подписа": 3391,
      "минава": 3392,
      "арестува": 3393,
      "неделя": 3394,
      "ли?": 3395,
      "пари,": 3396,
      "опас": 3397,
      "28": 3398,
      "предава": 3399,
      "секретар": 3400,
      "27": 3401,
      "иници": 3402,
      "март": 3403,
      "отговаря": 3404,
      "степен": 3405,
      "служители": 3406,
      "въобще": 3407,
      "христи": 3408,
      "строй": 3409,
      "тежка": 3410,
      "надежда": 3411,
      "рад": 3412,
      "кото": 3413,
      "колата": 3414,
      "телните": 3415,
      "българска": 3416,
      "шени": 3417,
      "шава": 3418,
      "ака": 3419,
      "работе": 3420,
      "твърди": 3421,
      "ресто": 3422,
      "прокуратурата": 3423,
      "мрежи.": 3424,
      "всички,": 3425,
      "зването": 3426,
      "мe": 3427,
      "можеш": 3428,
      "налага": 3429,
      "минута": 3430,
      "определено": 3431,
      "плев": 3432,
      "свързани": 3433,
      "\"на": 3434,
      "бяхме": 3435,
      "дъх": 3436,
      "пореден": 3437,
      "тота": 3438,
      "обез": 3439,
      "уу": 3440,
      "правим": 3441,
      "свои": 3442,
      "посети": 3443,
      "агре": 3444,
      "нас,": 3445,
      "пути": 3446,
      "смени": 3447,
      "стя": 3448,
      "графи": 3449,
      "събо": 3450,
      "ряза": 3451,
      "корона": 3452,
      "адре": 3453,
      "новен": 3454,
      "проект": 3455,
      ":0": 3456,
      "ролята": 3457,
      "настрое": 3458,
      "колегите": 3459,
      "гну": 3460,
      "т.н.": 3461,
      "публиката": 3462,
      "надявам": 3463,
      "делят": 3464,
      "мигран": 3465,
      "нарече": 3466,
      "\"за": 3467,
      "апарта": 3468,
      "гo": 3469,
      "cи": 3470,
      "нах": 3471,
      "нята": 3472,
      "човека": 3473,
      "лидерът": 3474,
      "стават": 3475,
      "нейната": 3476,
      "стартира": 3477,
      "мора": 3478,
      "щаб": 3479,
      "въпроси": 3480,
      "времен": 3481,
      "йските": 3482,
      "сък": 3483,
      "ске": 3484,
      "земя": 3485,
      "вел": 3486,
      "телката": 3487,
      "декември": 3488,
      "ресторан": 3489,
      "моля": 3490,
      "продава": 3491,
      "помни": 3492,
      "миро": 3493,
      "гале": 3494,
      "сериозни": 3495,
      "жъл": 3496,
      "последно": 3497,
      "бн": 3498,
      "ими": 3499,
      "мая": 3500,
      "искаме": 3501,
      "универ": 3502,
      "сътрудни": 3503,
      "брюк": 3504,
      "пка": 3505,
      "предполага": 3506,
      "коруп": 3507,
      "сама": 3508,
      "първонача": 3509,
      "волята": 3510,
      "руските": 3511,
      "режис": 3512,
      "вното": 3513,
      "мът": 3514,
      "лече": 3515,
      "жена,": 3516,
      "ботев": 3517,
      "втората": 3518,
      "занимава": 3519,
      "йска": 3520,
      "телства": 3521,
      "мечта": 3522,
      "сигнал": 3523,
      "гора": 3524,
      "дълбо": 3525,
      "га.": 3526,
      "йнер": 3527,
      "зия": 3528,
      "права": 3529,
      "деня": 3530,
      "изклю": 3531,
      ".bg": 3532,
      "юни": 3533,
      "изрази": 3534,
      "формата": 3535,
      "записа": 3536,
      "ивайло": 3537,
      "позволи": 3538,
      "задължи": 3539,
      "пала": 3540,
      "управление": 3541,
      "насили": 3542,
      "референ": 3543,
      "плевнели": 3544,
      "йската": 3545,
      "неговите": 3546,
      "свърши": 3547,
      "оказва": 3548,
      "унищо": 3549,
      "някъде": 3550,
      "килогра": 3551,
      "бa": 3552,
      "същия": 3553,
      "категорично": 3554,
      "\"в": 3555,
      "определя": 3556,
      "продължават": 3557,
      "говорим": 3558,
      "\"фокус\".": 3559,
      "айде": 3560,
      "плани": 3561,
      "звезди": 3562,
      "предаване": 3563,
      "ството.": 3564,
      "унга": 3565,
      "бъда": 3566,
      "работа.": 3567,
      "последователите": 3568,
      "нската": 3569,
      "прекъсна": 3570,
      "26": 3571,
      "важното": 3572,
      "усеща": 3573,
      "необходимо": 3574,
      "жение,": 3575,
      "план": 3576,
      "тях,": 3577,
      "половина": 3578,
      "седмици": 3579,
      "финала": 3580,
      "ж.": 3581,
      "пенсио": 3582,
      "парламентар": 3583,
      "целта": 3584,
      "нието.": 3585,
      "синът": 3586,
      "хме,": 3587,
      "нинова": 3588,
      "рачков": 3589,
      "карва": 3590,
      "зли": 3591,
      "тръг": 3592,
      "мне": 3593,
      "части": 3594,
      "кви": 3595,
      "забеля": 3596,
      "2014": 3597,
      "наруше": 3598,
      "уикенд": 3599,
      "имала": 3600,
      "шанс": 3601,
      "300": 3602,
      "ремо": 3603,
      "ме.": 3604,
      "лъжи": 3605,
      "министър-": 3606,
      "пазар": 3607,
      "зае": 3608,
      "деца,": 3609,
      "някоя": 3610,
      "щето": 3611,
      "печели": 3612,
      "конкре": 3613,
      "снощи": 3614,
      "фев": 3615,
      "вип": 3616,
      "търсе": 3617,
      "състояние": 3618,
      "сим": 3619,
      "претен": 3620,
      "русия.": 3621,
      "пристигна": 3622,
      "по-скоро": 3623,
      "ръководи": 3624,
      "бургас": 3625,
      "подкрепи": 3626,
      "помогне": 3627,
      "февру": 3628,
      "трите": 3629,
      "прости": 3630,
      "гени": 3631,
      "кадри": 3632,
      "общин": 3633,
      "кади": 3634,
      "зали": 3635,
      "района": 3636,
      "алекс": 3637,
      "свой": 3638,
      "ческите": 3639,
      "социалната": 3640,
      "актриса": 3641,
      "33": 3642,
      "re": 3643,
      "неща,": 3644,
      "симео": 3645,
      "пови": 3646,
      "станал": 3647,
      "градата": 3648,
      "нейните": 3649,
      "опла": 3650,
      "моите": 3651,
      "изцяло": 3652,
      "жалко": 3653,
      "глоба": 3654,
      "пострадали": 3655,
      "факт": 3656,
      "раке": 3657,
      "европейската": 3658,
      "глави": 3659,
      "мрежи,": 3660,
      "съобще": 3661,
      "шката": 3662,
      "дем": 3663,
      "вори": 3664,
      "най-много": 3665,
      "политическа": 3666,
      "вe": 3667,
      "поди": 3668,
      "ето,": 3669,
      "зор": 3670,
      "предприе": 3671,
      "траге": 3672,
      "водещ": 3673,
      "яну": 3674,
      "манда": 3675,
      "виждам": 3676,
      "пияна": 3677,
      "к!": 3678,
      "хода": 3679,
      "говорят": 3680,
      "асенов": 3681,
      "оон": 3682,
      "чудо": 3683,
      "ердоган": 3684,
      "мера": 3685,
      "следващата": 3686,
      "тора": 3687,
      "чия": 3688,
      "вариан": 3689,
      "живот.": 3690,
      "секс": 3691,
      "валери": 3692,
      "прокуратура": 3693,
      "кача": 3694,
      "нова.": 3695,
      "рожде": 3696,
      "шан": 3697,
      "дуе": 3698,
      "дни.": 3699,
      "община": 3700,
      "руснаците": 3701,
      "буквално": 3702,
      "оправ": 3703,
      "очарова": 3704,
      "законо": 3705,
      "винов": 3706,
      "мрежата": 3707,
      "pи": 3708,
      "бърза": 3709,
      "темата": 3710,
      "сем": 3711,
      "199": 3712,
      "подаръ": 3713,
      "психи": 3714,
      "они": 3715,
      "2.": 3716,
      "новена": 3717,
      "????": 3718,
      "яна": 3719,
      "дело": 3720,
      "изисква": 3721,
      "наста": 3722,
      "кани": 3723,
      "рож": 3724,
      "пожар": 3725,
      "привле": 3726,
      "кули": 3727,
      "произве": 3728,
      "гери": 3729,
      "кове": 3730,
      "търгов": 3731,
      "бру": 3732,
      "ченце": 3733,
      "пал": 3734,
      "съм,": 3735,
      "франция": 3736,
      "нос": 3737,
      "постигна": 3738,
      "пъту": 3739,
      "обяви,": 3740,
      "срав": 3741,
      "трима": 3742,
      "забрави": 3743,
      "матери": 3744,
      "специално": 3745,
      "половината": 3746,
      "открадна": 3747,
      "къщата": 3748,
      "джон": 3749,
      "извърши": 3750,
      "мас": 3751,
      "докла": 3752,
      "видео)": 3753,
      "тялото": 3754,
      "нарича": 3755,
      "ники": 3756,
      "поро": 3757,
      "идеята": 3758,
      "предоста": 3759,
      "отива": 3760,
      "учили": 3761,
      "включи": 3762,
      "ление,": 3763,
      "струва": 3764,
      "дебе": 3765,
      "най-вероятно": 3766,
      "темпера": 3767,
      "купо": 3768,
      "благодарение": 3769,
      "е!": 3770,
      "оцен": 3771,
      "попа": 3772,
      "втория": 3773,
      "наш": 3774,
      "цената": 3775,
      "клуба": 3776,
      "коментар": 3777,
      "студио": 3778,
      "асеновград": 3779,
      "пети": 3780,
      "съпруга": 3781,
      "-годишен": 3782,
      "нау": 3783,
      "човек.": 3784,
      "наре": 3785,
      "федера": 3786,
      "десетки": 3787,
      "попо": 3788,
      "въоръ": 3789,
      "гледат": 3790,
      "партньор": 3791,
      "сдел": 3792,
      "ваня": 3793,
      "реда": 3794,
      "телство": 3795,
      "служеб": 3796,
      "нами": 3797,
      "сей": 3798,
      "преце": 3799,
      "дън": 3800,
      "en": 3801,
      "раздя": 3802,
      "партии": 3803,
      "коронавиру": 3804,
      "роман": 3805,
      "приро": 3806,
      "годината": 3807,
      "снимката": 3808,
      "разпростра": 3809,
      "al": 3810,
      "понякога": 3811,
      "страхо": 3812,
      "тите,": 3813,
      "разу": 3814,
      "призна,": 3815,
      "програма": 3816,
      "северна": 3817,
      "народното": 3818,
      "твор": 3819,
      "университе": 3820,
      "мано": 3821,
      "пари.": 3822,
      "клин": 3823,
      "ядре": 3824,
      "достой": 3825,
      "29": 3826,
      "напусна": 3827,
      "се.": 3828,
      "всякакви": 3829,
      "там.": 3830,
      "форми": 3831,
      "кадър": 3832,
      "движението": 3833,
      "коман": 3834,
      "гостите": 3835,
      "операция": 3836,
      "гю": 3837,
      "рим": 3838,
      "долу": 3839,
      "държава,": 3840,
      "кариерата": 3841,
      "циален": 3842,
      "разни": 3843,
      "желание": 3844,
      "btv": 3845,
      "бря": 3846,
      "подготов": 3847,
      "съпругата": 3848,
      "мона": 3849,
      "опитва": 3850,
      "добрите": 3851,
      "обръща": 3852,
      "дължи": 3853,
      "прес": 3854,
      "мък": 3855,
      "пори": 3856,
      "прогно": 3857,
      "ски,": 3858,
      "35": 3859,
      "куп": 3860,
      "покри": 3861,
      "мощ": 3862,
      "младите": 3863,
      "събрание": 3864,
      "замест": 3865,
      "откро": 3866,
      "си!": 3867,
      "следващия": 3868,
      "на!": 3869,
      "избу": 3870,
      "бивш": 3871,
      "позиция": 3872,
      "коментарите": 3873,
      "ками": 3874,
      "водеща": 3875,
      "останали": 3876,
      "клип": 3877,
      "минал": 3878,
      "същата": 3879,
      "краката": 3880,
      "мъж,": 3881,
      "вир": 3882,
      "мол": 3883,
      "още,": 3884,
      "дни,": 3885,
      "означа": 3886,
      "преслава": 3887,
      "гите": 3888,
      "манче": 3889,
      "пенси": 3890,
      "наруши": 3891,
      "реализира": 3892,
      "кора": 3893,
      "дира": 3894,
      "слаб": 3895,
      "майсто": 3896,
      "нало": 3897,
      "издържа": 3898,
      "музикан": 3899,
      "храни": 3900,
      "г-н": 3901,
      "маха": 3902,
      "изри": 3903,
      "анг": 3904,
      "милиар": 3905,
      "страната.": 3906,
      "отде": 3907,
      "шест": 3908,
      "българското": 3909,
      "филм": 3910,
      "зване": 3911,
      "навсякъде": 3912,
      "миси": 3913,
      "гимна": 3914,
      "фин": 3915,
      "обяснява": 3916,
      "дари": 3917,
      "тю": 3918,
      "република": 3919,
      "пречи": 3920,
      "модер": 3921,
      "глупа": 3922,
      "условия": 3923,
      "подава": 3924,
      "върши": 3925,
      "световната": 3926,
      "патриоти": 3927,
      "око": 3928,
      "услу": 3929,
      "правила": 3930,
      "дрехи": 3931,
      "големият": 3932,
      "нормал": 3933,
      "вкъщи": 3934,
      "кау": 3935,
      "разговор": 3936,
      "нападател": 3937,
      "продаж": 3938,
      "нство": 3939,
      "избяга": 3940,
      "балка": 3941,
      "фитне": 3942,
      "спорта": 3943,
      "положение": 3944,
      "период": 3945,
      "хттпс": 3946,
      "шният": 3947,
      "кос": 3948,
      "мов": 3949,
      "крайно": 3950,
      "харес": 3951,
      "своето": 3952,
      "хттпс://": 3953,
      "дам": 3954,
      "маши": 3955,
      "души.": 3956,
      "път,": 3957,
      "работа,": 3958,
      "млад": 3959,
      "сърцето": 3960,
      "шар": 3961,
      "-19": 3962,
      "чване": 3963,
      "гал": 3964,
      "точки": 3965,
      "украйна,": 3966,
      "амби": 3967,
      "ното,": 3968,
      "борисов.": 3969,
      "!?": 3970,
      "посред": 3971,
      "ходите": 3972,
      "свети": 3973,
      "реаги": 3974,
      "подаде": 3975,
      "страте": 3976,
      "зв": 3977,
      "гласи": 3978,
      "помогна": 3979,
      "ром": 3980,
      "хотел": 3981,
      "започнаха": 3982,
      "нападе": 3983,
      "изпрати": 3984,
      "неговото": 3985,
      "знаем": 3986,
      "лева,": 3987,
      "стотици": 3988,
      "смятам,": 3989,
      "великобритания": 3990,
      "здрав": 3991,
      "талантли": 3992,
      "напуска": 3993,
      "кафе": 3994,
      "тъпа": 3995,
      "чуде": 3996,
      "народа": 3997,
      "италия": 3998,
      "уси": 3999,
      "лична": 4000,
      "ефира": 4001,
      "тари": 4002,
      "личен": 4003,
      "стин": 4004,
      "поставя": 4005,
      "вку": 4006,
      "целу": 4007,
      "ждава": 4008,
      "ерген": 4009,
      "твърди,": 4010,
      "чките": 4011,
      "вален": 4012,
      "планира": 4013,
      "липсва": 4014,
      "атента": 4015,
      "манчестър": 4016,
      "мате": 4017,
      "имах": 4018,
      "жество": 4019,
      "запази": 4020,
      "екип": 4021,
      "иво": 4022,
      "ню": 4023,
      "нара": 4024,
      "конта": 4025,
      "търсят": 4026,
      "лични": 4027,
      "класира": 4028,
      "групата": 4029,
      "журналист": 4030,
      "2-": 4031,
      "доведе": 4032,
      "губи": 4033,
      "телефон": 4034,
      "управлението": 4035,
      "границата": 4036,
      "присъеди": 4037,
      "интересува": 4038,
      "любим": 4039,
      "подобно": 4040,
      "цу": 4041,
      "слухо": 4042,
      "сната": 4043,
      "николо": 4044,
      "мил": 4045,
      "докумен": 4046,
      "евен": 4047,
      "симпа": 4048,
      "пишете": 4049,
      "регио": 4050,
      "фла": 4051,
      "ниво": 4052,
      "местните": 4053,
      "мъжете": 4054,
      "няма.": 4055,
      "миналото": 4056,
      "визия": 4057,
      "а,": 4058,
      "вува": 4059,
      "яде": 4060,
      "дала": 4061,
      "дателя": 4062,
      "ланд": 4063,
      "асен": 4064,
      "зов": 4065,
      "смее": 4066,
      "известна": 4067,
      "говора": 4068,
      "хората.": 4069,
      "отговорност": 4070,
      "военно": 4071,
      "селя": 4072,
      "преговори": 4073,
      "лято": 4074,
      "сестра": 4075,
      "април": 4076,
      "it": 4077,
      "ка!": 4078,
      "вери": 4079,
      "украйна.": 4080,
      "европа.": 4081,
      "установи": 4082,
      "дe": 4083,
      "борба": 4084,
      "партий": 4085,
      "срам": 4086,
      "психо": 4087,
      "пале": 4088,
      "изявле": 4089,
      "протестира": 4090,
      "значение": 4091,
      "спон": 4092,
      "така.": 4093,
      "марке": 4094,
      "жната": 4095,
      "тията": 4096,
      "берат": 4097,
      "тва": 4098,
      "вено": 4099,
      "делото": 4100,
      "столица": 4101,
      "олимпи": 4102,
      "тят": 4103,
      "национален": 4104,
      "октомври": 4105,
      "сръ": 4106,
      "ление.": 4107,
      "лятото": 4108,
      "ж,": 4109,
      "цитирана": 4110,
      "рекор": 4111,
      "запо": 4112,
      "бога": 4113,
      "оръжие": 4114,
      "гарантира": 4115,
      "лагат": 4116,
      "био": 4117,
      "трениров": 4118,
      "лното": 4119,
      "съдържа": 4120,
      "зеле": 4121,
      "означава": 4122,
      "але": 4123,
      "с!": 4124,
      "„ислямска": 4125,
      "мара": 4126,
      ":00": 4127,
      "вот": 4128,
      "наи": 4129,
      "бащата": 4130,
      "мври,": 4131,
      "отри": 4132,
      "решава": 4133,
      "моето": 4134,
      "перфе": 4135,
      "красива": 4136,
      "ретро": 4137,
      "пропусна": 4138,
      "часове": 4139,
      "прину": 4140,
      "промяна": 4141,
      "ковид": 4142,
      "часа.": 4143,
      "иму": 4144,
      "никаква": 4145,
      "направиха": 4146,
      "пробва": 4147,
      "боже": 4148,
      "сков": 4149,
      "сексу": 4150,
      "вза": 4151,
      "чено": 4152,
      "междунаро": 4153,
      "запи": 4154,
      "григор": 4155,
      "съсед": 4156,
      "блок": 4157,
      "пропа": 4158,
      "барсело": 4159,
      "отбеляза": 4160,
      "чка,": 4161,
      "криза": 4162,
      "кова,": 4163,
      "казват,": 4164,
      "похвали": 4165,
      "националната": 4166,
      "американски": 4167,
      "дната": 4168,
      "зелен": 4169,
      "готви": 4170,
      "телевизион": 4171,
      "инициати": 4172,
      "сю": 4173,
      "огромна": 4174,
      "поредната": 4175,
      "готови": 4176,
      "условията": 4177,
      "нора": 4178,
      "публично": 4179,
      "ес.": 4180,
      "схе": 4181,
      "натова": 4182,
      "демонстрира": 4183,
      "партньо": 4184,
      "разчита": 4185,
      "повече,": 4186,
      "турни": 4187,
      "комисията": 4188,
      "боли": 4189,
      "соф": 4190,
      "мерке": 4191,
      "депутат": 4192,
      "министерство": 4193,
      "нено": 4194,
      "финансира": 4195,
      "означава,": 4196,
      "\"фермата": 4197,
      "км": 4198,
      "прево": 4199,
      "телното": 4200,
      "трифонов": 4201,
      "фен": 4202,
      "играч": 4203,
      "автобу": 4204,
      "сценари": 4205,
      "вица": 4206,
      "тъпо": 4207,
      "малката": 4208,
      "напослед": 4209,
      "футболист": 4210,
      "плеймей": 4211,
      "приказ": 4212,
      "ческия": 4213,
      "ара": 4214,
      "ес,": 4215,
      "иди": 4216,
      "глас": 4217,
      "глупости": 4218,
      "паметника": 4219,
      "кажа,": 4220,
      "найте": 4221,
      "политиката": 4222,
      "виждат": 4223,
      "вдига": 4224,
      "отврати": 4225,
      "юнайте": 4226,
      "дов": 4227,
      "приклю": 4228,
      "военни": 4229,
      "врат": 4230,
      "оставка": 4231,
      "души,": 4232,
      "ващи": 4233,
      "кремъл": 4234,
      "тната": 4235,
      "зар": 4236,
      "гент": 4237,
      "сума": 4238,
      "гласо": 4239,
      "съществува": 4240,
      "ефекти": 4241,
      "прокурор": 4242,
      "изли": 4243,
      "фести": 4244,
      "иванова": 4245,
      "непрекъсна": 4246,
      "кин": 4247,
      "правилно": 4248,
      "фору": 4249,
      "участниците": 4250,
      "автомобила": 4251,
      "лав": 4252,
      "нията,": 4253,
      "ства.": 4254,
      "втора": 4255,
      "креди": 4256,
      "......": 4257,
      "кори": 4258,
      "ров,": 4259,
      "рено": 4260,
      "държавен": 4261,
      "тресе": 4262,
      "сериозна": 4263,
      "създава": 4264,
      "огъ": 4265,
      "ваха": 4266,
      "забравя": 4267,
      "осъзна": 4268,
      "кучета": 4269,
      "казвам": 4270,
      "45": 4271,
      "ц,": 4272,
      "кер": 4273,
      "площа": 4274,
      "2017": 4275,
      "определи": 4276,
      "заслужава": 4277,
      "йца": 4278,
      "изпита": 4279,
      "би.": 4280,
      "брази": 4281,
      "най-малко": 4282,
      "класа": 4283,
      "ситуация": 4284,
      "съгласи": 4285,
      "жури": 4286,
      "редовно": 4287,
      "нете": 4288,
      "резултатите": 4289,
      "ръцете": 4290,
      "каси": 4291,
      "сашо": 4292,
      "евти": 4293,
      "благоев": 4294,
      "членове": 4295,
      "прека": 4296,
      "изгражда": 4297,
      "нашето": 4298,
      "ремон": 4299,
      "мит": 4300,
      "метро": 4301,
      "най-големите": 4302,
      "начин.": 4303,
      "ежедневно": 4304,
      "властта": 4305,
      "луксо": 4306,
      "сен,": 4307,
      "безо": 4308,
      "п://": 4309,
      "шките": 4310,
      "чен,": 4311,
      "декла": 4312,
      "хттп://": 4313,
      "поколе": 4314,
      "станат": 4315,
      "сащ,": 4316,
      "притесне": 4317,
      "говоря": 4318,
      "въпросът": 4319,
      "ноември": 4320,
      "2020": 4321,
      "долара": 4322,
      "азис": 4323,
      "талан": 4324,
      "зират": 4325,
      "стоят": 4326,
      "цените": 4327,
      "развитие": 4328,
      "истан": 4329,
      "обновена": 4330,
      "хит": 4331,
      "концерт": 4332,
      "„не": 4333,
      "ко.": 4334,
      "едната": 4335,
      "гърба": 4336,
      "известни": 4337,
      "-годишна": 4338,
      "скъпи": 4339,
      "сръб": 4340,
      "б,": 4341,
      "куро": 4342,
      "родния": 4343,
      "миналия": 4344,
      "сега,": 4345,
      "място,": 4346,
      "техно": 4347,
      "2,": 4348,
      "страда": 4349,
      "страшно": 4350,
      "трай": 4351,
      "благоевград": 4352,
      "гос": 4353,
      "лоши": 4354,
      "ей,": 4355,
      "тий": 4356,
      "разочарова": 4357,
      "ген.": 4358,
      "\"това": 4359,
      "направя": 4360,
      "мадри": 4361,
      "понеже": 4362,
      "влюбе": 4363,
      "опе": 4364,
      "никого": 4365,
      "копе": 4366,
      "хан": 4367,
      "широ": 4368,
      "нейни": 4369,
      "проекта": 4370,
      "йордан": 4371,
      "изто": 4372,
      "сор": 4373,
      "предвари": 4374,
      "мяна": 4375,
      "станаха": 4376,
      "хем": 4377,
      "посока": 4378,
      "ционна": 4379,
      "превър": 4380,
      "ляват": 4381,
      "годините": 4382,
      "изпълни": 4383,
      "живот,": 4384,
      "образува": 4385,
      "концер": 4386,
      "ов": 4387,
      "социали": 4388,
      "понедел": 4389,
      "македония": 4390,
      "квали": 4391,
      "направим": 4392,
      "вайки": 4393,
      "знаеш": 4394,
      "татко": 4395,
      "самолет": 4396,
      "пламен": 4397,
      "положението": 4398,
      "възможността": 4399,
      "бомба": 4400,
      "принцип": 4401,
      "влича": 4402,
      "нско": 4403,
      "ом": 4404,
      "ронал": 4405,
      "стари": 4406,
      "комунисти": 4407,
      "постави": 4408,
      "зят": 4409,
      "справя": 4410,
      "следи": 4411,
      "хареса": 4412,
      "извънредно!": 4413,
      "резер": 4414,
      "света.": 4415,
      "силна": 4416,
      "здравосло": 4417,
      "нин": 4418,
      "тип": 4419,
      "съжаление": 4420,
      "съвмест": 4421,
      "ров.": 4422,
      "превърна": 4423,
      "стату": 4424,
      "добре.": 4425,
      "случаи": 4426,
      "правед": 4427,
      "бежанци": 4428,
      "щат": 4429,
      "способ": 4430,
      "гни": 4431,
      "митко": 4432,
      "ционен": 4433,
      "подкрепата": 4434,
      "3-": 4435,
      "чка.": 4436,
      "тодор": 4437,
      "типи": 4438,
      "неговия": 4439,
      "направил": 4440,
      "месеци": 4441,
      "европейските": 4442,
      "съпруг": 4443,
      "случайно": 4444,
      "дка": 4445,
      "привър": 4446,
      "мври.": 4447,
      "тежки": 4448,
      "изненадва": 4449,
      "потвърди": 4450,
      "тел.": 4451,
      "им,": 4452,
      "август": 4453,
      "справед": 4454,
      "много,": 4455,
      "деца.": 4456,
      "мост": 4457,
      "разполага": 4458,
      "тука": 4459,
      "точка": 4460,
      "корнелия": 4461,
      "младеж": 4462,
      "тег": 4463,
      "падне": 4464,
      "прибира": 4465,
      "информира": 4466,
      "плаши": 4467,
      "бун": 4468,
      "блокира": 4469,
      "глупо": 4470,
      "еп": 4471,
      "закъ": 4472,
      "станов": 4473,
      "ходими": 4474,
      "братя": 4475,
      "йорда": 4476,
      "нии": 4477,
      "бран": 4478,
      "преживя": 4479,
      "слага": 4480,
      "ческото": 4481,
      "италиан": 4482,
      "симпати": 4483,
      "господ": 4484,
      "радост": 4485,
      "тена": 4486,
      "европа,": 4487,
      "бни": 4488,
      "ките,": 4489,
      "разру": 4490,
      "нашия": 4491,
      "пръв": 4492,
      "практика": 4493,
      "тере": 4494,
      "жение.": 4495,
      "водещата": 4496,
      "категоричен": 4497,
      "дуп": 4498,
      "актуал": 4499,
      "отнася": 4500,
      "кратко": 4501,
      "търго": 4502,
      "le": 4503,
      "а.": 4504,
      "корек": 4505,
      "нема": 4506,
      "донал": 4507,
      "власти": 4508,
      "о,": 4509,
      "остават": 4510,
      "лъже": 4511,
      "българският": 4512,
      "цът": 4513,
      "андрей": 4514,
      "полицаи": 4515,
      "псу": 4516,
      "откакто": 4517,
      "дох": 4518,
      "ша,": 4519,
      "фар": 4520,
      "участници": 4521,
      "депутатът": 4522,
      "подходя": 4523,
      "плевнелиев": 4524,
      "каса": 4525,
      "бит": 4526,
      "сектор": 4527,
      "генерал": 4528,
      "соли": 4529,
      "нямаме": 4530,
      "можеше": 4531,
      "посол": 4532,
      "участват": 4533,
      "зация": 4534,
      "гости": 4535,
      "проверка": 4536,
      "стадион": 4537,
      "справи": 4538,
      "съсе": 4539,
      "бути": 4540,
      "дълги": 4541,
      "борис": 4542,
      "победата": 4543,
      "аааа": 4544,
      "мнение": 4545,
      "мане": 4546,
      "мой": 4547,
      "прио": 4548,
      "красо": 4549,
      "трафи": 4550,
      "документи": 4551,
      "духо": 4552,
      "ното.": 4553,
      "цветан": 4554,
      "групиров": 4555,
      "тера": 4556,
      "гант": 4557,
      "срещи": 4558,
      "път.": 4559,
      "подигра": 4560,
      "нагла": 4561,
      "тодо": 4562,
      "сия,": 4563,
      "позволява": 4564,
      "счу": 4565,
      "зан": 4566,
      "няване": 4567,
      "вам.": 4568,
      "посочва": 4569,
      "закри": 4570,
      "грозна": 4571,
      "брюнет": 4572,
      "ra": 4573,
      "свали": 4574,
      "познава": 4575,
      "събитието": 4576,
      "кош": 4577,
      "засне": 4578,
      "битка": 4579,
      "пиян": 4580,
      "бележи": 4581,
      "кун": 4582,
      "доброто": 4583,
      "огромен": 4584,
      "паци": 4585,
      "худо": 4586,
      "външен": 4587,
      "място.": 4588,
      "обикновено": 4589,
      "\"игри": 4590,
      "дo": 4591,
      "назад": 4592,
      "зам.": 4593,
      "демия": 4594,
      "изпълнява": 4595,
      "сериозен": 4596,
      "проблемите": 4597,
      "вниманието": 4598,
      "включва": 4599,
      "\"ма": 4600,
      "имо": 4601,
      "тните": 4602,
      "енерге": 4603,
      "\"уикенд": 4604,
      "стове": 4605,
      "страна,": 4606,
      "играта": 4607,
      "оставя": 4608,
      "ключо": 4609,
      "приеме": 4610,
      "биле": 4611,
      "върхо": 4612,
      "граница": 4613,
      "ционни": 4614,
      "шофьо": 4615,
      "меси": 4616,
      "знам,": 4617,
      "аец": 4618,
      "съпер": 4619,
      "казал": 4620,
      "момента,": 4621,
      "дръж": 4622,
      "пау": 4623,
      "важни": 4624,
      "контрол": 4625,
      "кметът": 4626,
      "забо": 4627,
      "хубава": 4628,
      "държавата,": 4629,
      "малкия": 4630,
      "опасност": 4631,
      "тегли": 4632,
      "проу": 4633,
      "плажа": 4634,
      "туристи": 4635,
      "обстанов": 4636,
      "допълни,": 4637,
      "касиер": 4638,
      "отказва": 4639,
      "викто": 4640,
      "интри": 4641,
      "изчезна": 4642,
      "1000": 4643,
      "главен": 4644,
      "вълнува": 4645,
      "кажат": 4646,
      "ска,": 4647,
      "парче": 4648,
      "столицата": 4649,
      "(видео)": 4650,
      "богат": 4651,
      "добавя": 4652,
      "режисьор": 4653,
      "\"да": 4654,
      "окон": 4655,
      "яко": 4656,
      "телевизията": 4657,
      "ti": 4658,
      "жите": 4659,
      "глория": 4660,
      "зре": 4661,
      "секси": 4662,
      "роналдо": 4663,
      "(снимка": 4664,
      "кo": 4665,
      "кам": 4666,
      "негати": 4667,
      "напоследък": 4668,
      "доналд": 4669,
      "3.": 4670,
      "vi": 4671,
      "упра": 4672,
      "каля": 4673,
      "чаров": 4674,
      "бала": 4675,
      "размер": 4676,
      "отбраната": 4677,
      "маса": 4678,
      "стата": 4679,
      "директно": 4680,
      "\"сините\"": 4681,
      "технологи": 4682,
      "ките.": 4683,
      "февруари": 4684,
      "висока": 4685,
      "даниел": 4686,
      "оконча": 4687,
      "ски.": 4688,
      "но-": 4689,
      "косто": 4690,
      "помисли": 4691,
      "рието": 4692,
      "необходими": 4693,
      "обърна": 4694,
      "цветанов": 4695,
      "блу": 4696,
      "натрупа": 4697,
      "рските": 4698,
      "действие": 4699,
      "неприят": 4700,
      "издаде": 4701,
      "руският": 4702,
      "сев": 4703,
      "земята": 4704,
      "бръ": 4705,
      "бона": 4706,
      "чите": 4707,
      "чист": 4708,
      "експерти": 4709,
      "поток": 4710,
      "малък": 4711,
      "проя": 4712,
      "ня,": 4713,
      "каракача": 4714,
      "василев": 4715,
      "рд": 4716,
      "сар": 4717,
      "силикон": 4718,
      "изяви": 4719,
      "граду": 4720,
      "движение": 4721,
      "инстаграм": 4722,
      "избух": 4723,
      "реагира": 4724,
      "голо": 4725,
      "ги,": 4726,
      "ирак": 4727,
      "възму": 4728,
      "фирма": 4729,
      "чко": 4730,
      "дама": 4731,
      "2018": 4732,
      "музиката": 4733,
      "цвети": 4734,
      "щастие": 4735,
      "срок": 4736,
      "незакон": 4737,
      "мед": 4738,
      "бият": 4739,
      "животът": 4740,
      "смисъл": 4741,
      "\"черве": 4742,
      "рана": 4743,
      "хито": 4744,
      "състоянието": 4745,
      "бъдещето": 4746,
      "мило": 4747,
      "успехи": 4748,
      "хa": 4749,
      "награда": 4750,
      "посрещ": 4751,
      "кула": 4752,
      "секса": 4753,
      "потреби": 4754,
      "обсъжда": 4755,
      "ряване": 4756,
      "евентуал": 4757,
      "мене": 4758,
      "проститу": 4759,
      "фаши": 4760,
      "медий": 4761,
      "почивка": 4762,
      "заплата": 4763,
      "видях": 4764,
      "доса": 4765,
      "пиро": 4766,
      "разе": 4767,
      "бута": 4768,
      "спече": 4769,
      "цка": 4770,
      "ландия": 4771,
      "спорти": 4772,
      "ле,": 4773,
      "моменти": 4774,
      "сцена": 4775,
      "ангел": 4776,
      "поведение": 4777,
      "приорите": 4778,
      "казах": 4779,
      "започнала": 4780,
      "затвор": 4781,
      "брюксел": 4782,
      "нери": 4783,
      "имали": 4784,
      "музе": 4785,
      "другия": 4786,
      "лов,": 4787,
      "властите": 4788,
      "пациен": 4789,
      "\"уикенд\".": 4790,
      "мнението": 4791,
      "кати": 4792,
      "вицата": 4793,
      "спек": 4794,
      "истинска": 4795,
      "енергий": 4796,
      "опо": 4797,
      "седем": 4798,
      "щават": 4799,
      "идват": 4800,
      "длъж": 4801,
      "the": 4802,
      "бнт": 4803,
      "расте": 4804,
      "повяр": 4805,
      "менят": 4806,
      "интели": 4807,
      "младата": 4808,
      "процента": 4809,
      "атака": 4810,
      "вдъх": 4811,
      "канал": 4812,
      "спом": 4813,
      "референду": 4814,
      "стрия": 4815,
      "готова": 4816,
      "бул.": 4817,
      "продължение": 4818,
      "рожден": 4819,
      "елена": 4820,
      "лизира": 4821,
      "прекара": 4822,
      "сякаш": 4823,
      "камелия": 4824,
      "цa": 4825,
      "негови": 4826,
      "красивата": 4827,
      "заместник": 4828,
      "йка": 4829,
      "цето": 4830,
      "тряб": 4831,
      "белене": 4832,
      "страхот": 4833,
      "енергети": 4834,
      "изпит": 4835,
      "страната,": 4836,
      "красимир": 4837,
      "празни": 4838,
      "интернет": 4839,
      "локом": 4840,
      "борбата": 4841,
      "разява": 4842,
      "бна": 4843,
      "потен": 4844,
      "етап": 4845,
      "щен": 4846,
      "последното": 4847,
      "виждаме": 4848,
      "халва": 4849,
      "нае": 4850,
      "завръща": 4851,
      "часо": 4852,
      "липсата": 4853,
      "осигури": 4854,
      "сат": 4855,
      "най-голямата": 4856,
      "бъдем": 4857,
      "карти": 4858,
      "полза": 4859,
      "намаля": 4860,
      "коалиция": 4861,
      "чa": 4862,
      "кари": 4863,
      "капа": 4864,
      "мана": 4865,
      "цар": 4866,
      "рядко": 4867,
      "ността,": 4868,
      "бизнесмен": 4869,
      "издир": 4870,
      "вне": 4871,
      "жена.": 4872,
      "тяхната": 4873,
      "видят": 4874,
      "св.": 4875,
      "ражда": 4876,
      "знаете": 4877,
      "събота": 4878,
      ".0": 4879,
      "републи": 4880,
      "изказ": 4881,
      "телния": 4882,
      "радио": 4883,
      "функ": 4884,
      "ът.": 4885,
      "албу": 4886,
      "лъжа": 4887,
      "хла": 4888,
      "нав": 4889,
      "росен": 4890,
      "инг": 4891,
      "родители": 4892,
      "депутатите": 4893,
      "покани": 4894,
      "зам.-": 4895,
      "втор": 4896,
      "начал": 4897,
      "видеото": 4898,
      "култура": 4899,
      "подготвя": 4900,
      "дипломати": 4901,
      "вяват": 4902,
      "задача": 4903,
      "рождения": 4904,
      "ne": 4905,
      "неш": 4906,
      "заве": 4907,
      "препоръ": 4908,
      "стил": 4909,
      "близкия": 4910,
      "кампания": 4911,
      "уе": 4912,
      "сваля": 4913,
      "получават": 4914,
      "чването": 4915,
      "причини": 4916,
      "намере": 4917,
      "сергей": 4918,
      "ваксинира": 4919,
      "второто": 4920,
      "локомоти": 4921,
      "чувствам": 4922,
      "мартин": 4923,
      "хеге": 4924,
      "сутринта": 4925,
      "мафи": 4926,
      "печал": 4927,
      "придо": 4928,
      "искал": 4929,
      "последствие": 4930,
      "герб.": 4931,
      "световна": 4932,
      "посочи,": 4933,
      "шефът": 4934,
      "cт": 4935,
      "li": 4936,
      "женията": 4937,
      "празнува": 4938,
      "януари": 4939,
      "непрекъснато": 4940,
      "фера": 4941,
      "водят": 4942,
      "дие": 4943,
      "хап": 4944,
      "правиш": 4945,
      "2013": 4946,
      "нейния": 4947,
      "танц": 4948,
      "ro": 4949,
      "моде": 4950,
      "мениджър": 4951,
      "(снимка)": 4952,
      "наса": 4953,
      "кожа": 4954,
      "минимал": 4955,
      "избори.": 4956,
      "4-": 4957,
      "проми": 4958,
      "телефо": 4959,
      "манипу": 4960,
      "ергенът": 4961,
      "друже": 4962,
      "милион": 4963,
      "организация": 4964,
      "вани": 4965,
      "деба": 4966,
      "знае,": 4967,
      "злоба": 4968,
      "инцидента": 4969,
      "загинали": 4970,
      "епизо": 4971,
      "награ": 4972,
      "вати": 4973,
      "броя": 4974,
      "обясни,": 4975,
      "блондинката": 4976,
      "извади": 4977,
      "безопа": 4978,
      "евгени": 4979,
      "спло": 4980,
      ",а": 4981,
      "епи": 4982,
      "летя": 4983,
      "изигра": 4984,
      "разговори": 4985,
      "равно": 4986,
      "погре": 4987,
      "диза": 4988,
      "каже,": 4989,
      "андреа": 4990,
      "лондон": 4991,
      "стъра": 4992,
      "действията": 4993,
      "удовол": 4994,
      "меркел": 4995,
      "аде": 4996,
      "микро": 4997,
      "чий": 4998,
      "дупе": 4999,
      "минист": 5000,
      "каквито": 5001,
      "пускат": 5002,
      "нелега": 5003,
      "ул.": 5004,
      "вор": 5005,
      "мута": 5006,
      "здрави": 5007,
      "милиони": 5008,
      "език": 5009,
      "%.": 5010,
      "бого": 5011,
      "останат": 5012,
      "броени": 5013,
      "протест": 5014,
      "кабине": 5015,
      "стратеги": 5016,
      "халваджи": 5017,
      "вое": 5018,
      "тик": 5019,
      "бож": 5020,
      "маринова": 5021,
      "реформато": 5022,
      "лана": 5023,
      "говоре": 5024,
      "кръв": 5025,
      "видимо": 5026,
      "3,": 5027,
      "йн": 5028,
      "класи": 5029,
      "съзна": 5030,
      "нещо.": 5031,
      "сватба": 5032,
      "заседа": 5033,
      "ева,": 5034,
      "пото": 5035,
      "ща,": 5036,
      "свое": 5037,
      "показват": 5038,
      "селек": 5039,
      "чи,": 5040,
      "външните": 5041,
      "отборът": 5042,
      "тас": 5043,
      "никак": 5044,
      "неочаква": 5045,
      "ня.": 5046,
      "джиев": 5047,
      "идея": 5048,
      "ut": 5049,
      "никол": 5050,
      "облек": 5051,
      "анкара": 5052,
      "влизат": 5053,
      "дю": 5054,
      "ул": 5055,
      "никакво": 5056,
      "тура,": 5057,
      "огром": 5058,
      "квартал": 5059,
      "\"аз": 5060,
      "усили": 5061,
      "фс": 5062,
      "кови": 5063,
      "пайнер": 5064,
      "задръ": 5065,
      "съобщи,": 5066,
      "реално": 5067,
      "кърва": 5068,
      "ави": 5069,
      "еги": 5070,
      "превръща": 5071,
      "свик": 5072,
      "съдебната": 5073,
      "2000": 5074,
      "кита": 5075,
      "премести": 5076,
      "пани": 5077,
      "ста,": 5078,
      "днес,": 5079,
      "станала": 5080,
      "стойност": 5081,
      "златка": 5082,
      "армията": 5083,
      "привърже": 5084,
      "(обновена": 5085,
      "вка,": 5086,
      "еш": 5087,
      "френ": 5088,
      "ресур": 5089,
      "отсе": 5090,
      "шена": 5091,
      "различно": 5092,
      "кен": 5093,
      "трав": 5094,
      "хванала": 5095,
      "предложение": 5096,
      "галена": 5097,
      "очакват": 5098,
      "гран": 5099,
      "предпочита": 5100,
      "буди": 5101,
      "дъж": 5102,
      "надпре": 5103,
      "терзи": 5104,
      "!!!!!!!!": 5105,
      "заседание": 5106,
      "клинтън": 5107,
      "конту": 5108,
      "искаш": 5109,
      "тръгне": 5110,
      "плащат": 5111,
      "естестве": 5112,
      "юнайтед": 5113,
      "управител": 5114,
      "самочув": 5115,
      "по-голяма": 5116,
      "тират": 5117,
      "филма": 5118,
      "жават": 5119,
      "хожда": 5120,
      "негова": 5121,
      "повече.": 5122,
      "телеграф": 5123,
      "морето": 5124,
      "нев,": 5125,
      "гин": 5126,
      "с\"": 5127,
      "ления": 5128,
      "живи": 5129,
      "цена": 5130,
      "2019": 5131,
      "чужден": 5132,
      "треньорът": 5133,
      "обекти": 5134,
      "кариера": 5135,
      "чужбина": 5136,
      "търпение": 5137,
      "спомена": 5138,
      "зя": 5139,
      "хран": 5140,
      "предимно": 5141,
      "нейното": 5142,
      "стоичков": 5143,
      "коп": 5144,
      "дение": 5145,
      "миляр": 5146,
      "пече": 5147,
      "туи": 5148,
      "начало": 5149,
      "българско": 5150,
      "-годишния": 5151,
      "5-": 5152,
      "ефир": 5153,
      "го,": 5154,
      "гара": 5155,
      "жени,": 5156,
      "орга": 5157,
      "онлай": 5158,
      "пък,": 5159,
      "марш": 5160,
      "ma": 5161,
      "лива": 5162,
      "образи": 5163,
      "велик": 5164,
      "обясня": 5165,
      "вестник": 5166,
      "кир": 5167,
      "правата": 5168,
      "изпълнение": 5169,
      "обясне": 5170,
      "водещи": 5171,
      "берба": 5172,
      "икономически": 5173,
      "31": 5174,
      "2022": 5175,
      "некадър": 5176,
      "отвори": 5177,
      "ите,": 5178,
      "баре": 5179,
      "признава": 5180,
      "любимата": 5181,
      "150": 5182,
      "напусне": 5183,
      "кост": 5184,
      "мама": 5185,
      "междувременно": 5186,
      "приятели,": 5187,
      "активно": 5188,
      "фитнес": 5189,
      "тече": 5190,
      "стка": 5191,
      "обле": 5192,
      "решила": 5193,
      "регистра": 5194,
      "дъщерята": 5195,
      "вира": 5196,
      "голе": 5197,
      "съдбата": 5198,
      "7.": 5199,
      "премах": 5200,
      "продукти": 5201,
      "жa": 5202,
      "сексуал": 5203,
      "успо": 5204,
      "кова.": 5205,
      "жилище": 5206,
      "ряват": 5207,
      "лета": 5208,
      "циган": 5209,
      "хайде": 5210,
      "приемат": 5211,
      "храните": 5212,
      "вярно": 5213,
      "забавно": 5214,
      "бебето": 5215,
      "наци": 5216,
      "кай": 5217,
      "лати": 5218,
      "личните": 5219,
      "малкото": 5220,
      "водач": 5221,
      "основните": 5222,
      "мнозина": 5223,
      "предупреди": 5224,
      "чки,": 5225,
      "ниска": 5226,
      "замина": 5227,
      "бели": 5228,
      "пролет": 5229,
      "профил": 5230,
      "хай": 5231,
      "банда": 5232,
      "грим": 5233,
      "почитателите": 5234,
      "половинката": 5235,
      "ит": 5236,
      "прео": 5237,
      "обща": 5238,
      "издание": 5239,
      "възстановя": 5240,
      "мo": 5241,
      "плу": 5242,
      "сму": 5243,
      "уро": 5244,
      "валя": 5245,
      "откара": 5246,
      "моли": 5247,
      "тук,": 5248,
      "джор": 5249,
      "смята,": 5250,
      "скон": 5251,
      "съществу": 5252,
      "спокойно": 5253,
      "локомотив": 5254,
      "ъм": 5255,
      "изключи": 5256,
      "присти": 5257,
      "отиш": 5258,
      "2021": 5259,
      "успяха": 5260,
      "огромно": 5261,
      "мало": 5262,
      "изследва": 5263,
      "изтък": 5264,
      "държат": 5265,
      "председателя": 5266,
      "емил": 5267,
      "образование": 5268,
      "определени": 5269,
      "вките": 5270,
      "дете,": 5271,
      "играят": 5272,
      "възможности": 5273,
      "подкрепят": 5274,
      "\"о": 5275,
      "николе": 5276,
      "рев": 5277,
      "пени": 5278,
      "средата": 5279,
      "бял": 5280,
      "турция,": 5281,
      "успели": 5282,
      "списъ": 5283,
      "обществото": 5284,
      "еману": 5285,
      "мадрид": 5286,
      "тича": 5287,
      "русофи": 5288,
      "разпре": 5289,
      "центри": 5290,
      "джиха": 5291,
      "клипа": 5292,
      "хубави": 5293,
      "голямото": 5294,
      "дът": 5295,
      "к'": 5296,
      "диско": 5297,
      "дия,": 5298,
      "максима": 5299,
      "рен,": 5300,
      "биг": 5301,
      "купа": 5302,
      "страху": 5303,
      "григо": 5304,
      "гражданите": 5305,
      "неща.": 5306,
      "ориен": 5307,
      "силни": 5308,
      "тия,": 5309,
      "прибра": 5310,
      "негов": 5311,
      "всичко.": 5312,
      "желае": 5313,
      "извърш": 5314,
      "дисци": 5315,
      "афри": 5316,
      "разузна": 5317,
      "барселона": 5318,
      "вo": 5319,
      "есен": 5320,
      "такси": 5321,
      "роден": 5322,
      "сал": 5323,
      "тел,": 5324,
      "влади": 5325,
      "движи": 5326,
      "крал": 5327,
      "гуще": 5328,
      "антон": 5329,
      "интересни": 5330,
      "поздрави": 5331,
      "нените": 5332,
      "лен,": 5333,
      "герб,": 5334,
      "населението": 5335,
      "япо": 5336,
      "копа": 5337,
      "отправи": 5338,
      "ганда": 5339,
      "нищо.": 5340,
      "медията": 5341,
      "стите.": 5342,
      "единственият": 5343,
      "нападна": 5344,
      "забавлява": 5345,
      "подчерта,": 5346,
      "конфликт": 5347,
      "цвет": 5348,
      "невероят": 5349,
      "мандат": 5350,
      "гришо": 5351,
      "позити": 5352,
      "плевен": 5353,
      "начело": 5354,
      "увелича": 5355,
      "абе,": 5356,
      "днес.": 5357,
      "198": 5358,
      "открито": 5359,
      "програмата": 5360,
      "поведението": 5361,
      "тепърва": 5362,
      "киев": 5363,
      "воля": 5364,
      "трибу": 5365,
      "света,": 5366,
      "благодар": 5367,
      "константин": 5368,
      "дисципли": 5369,
      "нация": 5370,
      "дадат": 5371,
      "цеп": 5372,
      "надява": 5373,
      "жертва": 5374,
      "трансфер": 5375,
      "габри": 5376,
      "стори": 5377,
      "кух": 5378,
      "бъчва": 5379,
      "джей": 5380,
      ")))": 5381,
      "раздялата": 5382,
      "рови": 5383,
      "гон": 5384,
      "същи": 5385,
      "късме": 5386,
      "конгре": 5387,
      "циите,": 5388,
      "броят": 5389,
      "подобна": 5390,
      "развитието": 5391,
      "увеличи": 5392,
      "професионали": 5393,
      "характер": 5394,
      "мета": 5395,
      "разделе": 5396,
      "бяг": 5397,
      "мян": 5398,
      "демията": 5399,
      "шаване": 5400,
      "сява": 5401,
      "хей": 5402,
      "щастлива": 5403,
      "уточни": 5404,
      "\":": 5405,
      "изпо": 5406,
      "церемо": 5407,
      "филип": 5408,
      "любовни": 5409,
      "готва": 5410,
      "спра": 5411,
      "отстра": 5412,
      "разши": 5413,
      "крака": 5414,
      "пул": 5415,
      "сигурността": 5416,
      "производство": 5417,
      "ума": 5418,
      "избе": 5419,
      "дете.": 5420,
      "спомня": 5421,
      "атра": 5422,
      "копи": 5423,
      "вятър": 5424,
      "борисов,": 5425,
      "позицията": 5426,
      "чужди": 5427,
      "михаил": 5428,
      "моят": 5429,
      "бара": 5430,
      "пусти": 5431,
      "вечерта": 5432,
      "тът,": 5433,
      "линия": 5434,
      "хонора": 5435,
      "стефа": 5436,
      "тренира": 5437,
      "атанасо": 5438,
      "предизви": 5439,
      "гласуват": 5440,
      "добави,": 5441,
      "другото": 5442,
      "мля": 5443,
      "юго": 5444,
      "инду": 5445,
      "страна.": 5446,
      "самото": 5447,
      "начин,": 5448,
      "преодо": 5449,
      "инстру": 5450,
      "хими": 5451,
      "лв": 5452,
      "небе": 5453,
      "докара": 5454,
      "денти": 5455,
      "високи": 5456,
      "отър": 5457,
      "отслаб": 5458,
      "гове": 5459,
      "провин": 5460,
      "духа": 5461,
      "фавори": 5462,
      "искре": 5463,
      "приятелка": 5464,
      "фандъ": 5465,
      "кадрите": 5466,
      "откраднат": 5467,
      "or": 5468,
      "напра": 5469,
      "так": 5470,
      "зи.": 5471,
      "разходи": 5472,
      "исках": 5473,
      "бъдете": 5474,
      "предупре": 5475,
      ":1": 5476,
      "дп": 5477,
      "рд.": 5478,
      "най-добрите": 5479,
      "грешка": 5480,
      "дния": 5481,
      "увол": 5482,
      "лег": 5483,
      "беро": 5484,
      "гледаме": 5485,
      "свят.": 5486,
      "нагло": 5487,
      "каца": 5488,
      "сия.": 5489,
      "тя,": 5490,
      "живота.": 5491,
      "хваща": 5492,
      "петров": 5493,
      "швейца": 5494,
      "звучи": 5495,
      "е?": 5496,
      "серия": 5497,
      "отче": 5498,
      "въве": 5499,
      "нищо,": 5500,
      "лик": 5501,
      "виновен": 5502,
      "бит.": 5503,
      "петък": 5504,
      "свобода": 5505,
      "предизбор": 5506,
      "единствената": 5507,
      "поясни": 5508,
      "/2": 5509,
      "сигнали": 5510,
      "лев.": 5511,
      "дол": 5512,
      "достъп": 5513,
      "чието": 5514,
      "брак": 5515,
      "коментират": 5516,
      "сащ.": 5517,
      "провежда": 5518,
      "титлата": 5519,
      "екран": 5520,
      "стандарт": 5521,
      "чиято": 5522,
      "каквато": 5523,
      "занимавате": 5524,
      "лекарите": 5525,
      "носа": 5526,
      "откъде": 5527,
      "битката": 5528,
      "разно": 5529,
      "разследва": 5530,
      "развива": 5531,
      "затвора": 5532,
      "алкохол": 5533,
      "кабинета": 5534,
      "консулта": 5535,
      "регионал": 5536,
      "т.е.": 5537,
      "бърка": 5538,
      "световен": 5539,
      "брута": 5540,
      "!\"": 5541,
      "готи": 5542,
      "последва": 5543,
      "прием": 5544,
      "рокля": 5545,
      "целият": 5546,
      "гаджето": 5547,
      "първоначално": 5548,
      "иг": 5549,
      "дизе": 5550,
      "гали": 5551,
      "можа": 5552,
      "бито": 5553,
      "фили": 5554,
      "случ": 5555,
      "малките": 5556,
      "романти": 5557,
      "з.": 5558,
      "зоти": 5559,
      "ско,": 5560,
      "политици": 5561,
      "красавица": 5562,
      "хър": 5563,
      "фики": 5564,
      "експло": 5565,
      "греш": 5566,
      "ционния": 5567,
      "вариант": 5568,
      "усилия": 5569,
      "е...": 5570,
      "старо": 5571,
      "хари": 5572,
      "интелек": 5573,
      "празник": 5574,
      "чужде": 5575,
      "промяната": 5576,
      "асо": 5577,
      "хен": 5578,
      "цъ": 5579,
      "сен.": 5580,
      "стора": 5581,
      "гласът": 5582,
      "александра": 5583,
      "михаела": 5584,
      "улица": 5585,
      "дим": 5586,
      "започват": 5587,
      "футбол": 5588,
      "ционните": 5589,
      "опитват": 5590,
      "лв.,": 5591,
      "млрд.": 5592,
      "притеснява": 5593,
      "образованието": 5594,
      "споразумение": 5595,
      "-ия": 5596,
      "прескон": 5597,
      "някого": 5598,
      "кет": 5599,
      "нуж": 5600,
      "оставката": 5601,
      "британ": 5602,
      "парламент": 5603,
      "загуба": 5604,
      "герои": 5605,
      "оня": 5606,
      "напи": 5607,
      "ним": 5608,
      "лив": 5609,
      "печа": 5610,
      "цачева": 5611,
      "мур": 5612,
      "решил": 5613,
      "ционната": 5614,
      "установе": 5615,
      "грамот": 5616,
      "полицейски": 5617,
      "бля": 5618,
      "късмет": 5619,
      "направила": 5620,
      "имена": 5621,
      "лавров": 5622,
      "пресконферен": 5623,
      "нюз": 5624,
      "кало": 5625,
      "лож": 5626,
      "обу": 5627,
      "избори,": 5628,
      "зрители": 5629,
      "жертвите": 5630,
      "нар.": 5631,
      "страните": 5632,
      "онзи": 5633,
      "момичето": 5634,
      "режим": 5635,
      "виктория": 5636,
      "зно": 5637,
      "оф": 5638,
      "претър": 5639,
      "главният": 5640,
      "момента.": 5641,
      "момичета": 5642,
      "ста.": 5643,
      "месеца.": 5644,
      "мълча": 5645,
      "транспор": 5646,
      "вярвам,": 5647,
      "пространство": 5648,
      "вник": 5649,
      "насла": 5650,
      "колек": 5651,
      "знаме": 5652,
      "райо": 5653,
      "плъ": 5654,
      "подпи": 5655,
      "представлява": 5656,
      "провокира": 5657,
      "наблюдава": 5658,
      "адвока": 5659,
      "мс": 5660,
      "тния": 5661,
      "треньо": 5662,
      "евро.": 5663,
      "тернати": 5664,
      "изпраща": 5665,
      "разследването": 5666,
      "\"ислямска": 5667,
      "газо": 5668,
      "щението": 5669,
      "бански": 5670,
      "пун": 5671,
      "гнала": 5672,
      "понеделник": 5673,
      "лов.": 5674,
      "обикаля": 5675,
      "мерят": 5676,
      "нейна": 5677,
      "ужас": 5678,
      "зву": 5679,
      "оправи": 5680,
      "предни": 5681,
      "драма": 5682,
      "месеца,": 5683,
      "национална": 5684,
      "обвине": 5685,
      "здравеопа": 5686,
      "евре": 5687,
      "вяне": 5688,
      "спазва": 5689,
      "решен": 5690,
      "ционно": 5691,
      "устата": 5692,
      "съдебно": 5693,
      "надпрева": 5694,
      "фри": 5695,
      "„за": 5696,
      "че.": 5697,
      "чар": 5698,
      "телка": 5699,
      "множество": 5700,
      "желанието": 5701,
      "атанас": 5702,
      "служба": 5703,
      "сайта": 5704,
      "стораро": 5705,
      "вка.": 5706,
      "самите": 5707,
      "червен": 5708,
      "димитрова": 5709,
      "пропаганда": 5710,
      "пф": 5711,
      "ч0": 5712,
      "сипа": 5713,
      "изнася": 5714,
      "учени": 5715,
      "купува": 5716,
      "уди": 5717,
      "зарадва": 5718,
      "хамас": 5719,
      "алтернати": 5720,
      "хил.": 5721,
      "фата": 5722,
      "успешно": 5723,
      "важна": 5724,
      "красавицата": 5725,
      "di": 5726,
      "мащаб": 5727,
      "пеев": 5728,
      "кери": 5729,
      "новини": 5730,
      "варят": 5731,
      "порту": 5732,
      ".bg.": 5733,
      "същите": 5734,
      "пери": 5735,
      "върха": 5736,
      "търново": 5737,
      "министъра": 5738,
      "днешна": 5739,
      "системата": 5740,
      "онлайн": 5741,
      "bo": 5742,
      "дара": 5743,
      "северо": 5744,
      "лер": 5745,
      "събере": 5746,
      "чии": 5747,
      "процес": 5748,
      "подобен": 5749,
      "довете": 5750,
      "бах": 5751,
      "десети": 5752,
      "родните": 5753,
      "вашинг": 5754,
      "аман": 5755,
      "преговорите": 5756,
      "изказва": 5757,
      "ше.": 5758,
      "главния": 5759,
      "твърд": 5760,
      "сърбия": 5761,
      "използват": 5762,
      "регистри": 5763,
      "автомобили": 5764,
      "писмо": 5765,
      "столичен": 5766,
      "ауди": 5767,
      "законодател": 5768,
      "фра": 5769,
      "рова.": 5770,
      "изпи": 5771,
      "пука": 5772,
      "блиц": 5773,
      "почина": 5774,
      "футболисти": 5775,
      "експер": 5776,
      "34": 5777,
      "гласа": 5778,
      "българин": 5779,
      "бюджета": 5780,
      "освободи": 5781,
      "артисти": 5782,
      "клет": 5783,
      "нското": 5784,
      "четата": 5785,
      "ценности": 5786,
      "телефона": 5787,
      "позова": 5788,
      "дебю": 5789,
      "турция.": 5790,
      "разби": 5791,
      "значе": 5792,
      "бсп,": 5793,
      "основно": 5794,
      "двойка": 5795,
      "хеки": 5796,
      "работим": 5797,
      "наркоти": 5798,
      "задължително": 5799,
      "англия": 5800,
      "риа": 5801,
      "гост": 5802,
      "монта": 5803,
      "разкрива": 5804,
      "нецът": 5805,
      "сайт": 5806,
      "истанбул": 5807,
      "лев,": 5808,
      "лари": 5809,
      "самия": 5810,
      "времето,": 5811,
      "архи": 5812,
      "атлан": 5813,
      "кадиев": 5814,
      "бит.лъ": 5815,
      "важен": 5816,
      "дани": 5817,
      "йл": 5818,
      "изчи": 5819,
      "тъп": 5820,
      "приятелите": 5821,
      "млада": 5822,
      "вана": 5823,
      "договори": 5824,
      "прести": 5825,
      "лота": 5826,
      "казано": 5827,
      "тинг": 5828,
      "студиото": 5829,
      "сря": 5830,
      "хля": 5831,
      "калин": 5832,
      "пребива": 5833,
      "балан": 5834,
      "причините": 5835,
      "полицаите": 5836,
      "слънчев": 5837,
      "капки": 5838,
      "джихади": 5839,
      "\"от": 5840,
      "кири": 5841,
      "петя": 5842,
      "жива": 5843,
      "сезона": 5844,
      "щастлив": 5845,
      "сградата": 5846,
      "съда": 5847,
      "само,": 5848,
      "обади": 5849,
      "станало": 5850,
      "намират": 5851,
      "реч": 5852,
      "пома": 5853,
      "постъп": 5854,
      "сино": 5855,
      "бора": 5856,
      "2012": 5857,
      "георгиев": 5858,
      "заре": 5859,
      "йе": 5860,
      "смях": 5861,
      "49": 5862,
      "олига": 5863,
      "завинаги": 5864,
      "дес": 5865,
      "инцидент": 5866,
      "супермарке": 5867,
      "черномо": 5868,
      "веселин": 5869,
      "симеонов": 5870,
      "\"с": 5871,
      "ото": 5872,
      "ни!": 5873,
      "база": 5874,
      "споде": 5875,
      "гнат": 5876,
      "звездите": 5877,
      "тайна": 5878,
      "висок": 5879,
      "актив": 5880,
      "квалифика": 5881,
      "позира": 5882,
      "превърне": 5883,
      "чин": 5884,
      "парца": 5885,
      "получат": 5886,
      "колега": 5887,
      "хвана": 5888,
      "шенген": 5889,
      "насят": 5890,
      "информация,": 5891,
      "таз": 5892,
      "шено": 5893,
      "хахаха": 5894,
      "паметник": 5895,
      "носе": 5896,
      "цигани": 5897,
      "бок": 5898,
      "привлича": 5899,
      "герена": 5900,
      "пъте": 5901,
      "получил": 5902,
      "проблемът": 5903,
      "упори": 5904,
      "рур": 5905,
      "руска": 5906,
      "има,": 5907,
      "учат": 5908,
      "любимия": 5909,
      "бежанците": 5910,
      "английски": 5911,
      "манолова": 5912,
      "ада": 5913,
      "жът": 5914,
      "уст": 5915,
      "дията": 5916,
      "решения": 5917,
      "чакат": 5918,
      "николета": 5919,
      "ас": 5920,
      "др.": 5921,
      "осъще": 5922,
      "ям": 5923,
      "папа": 5924,
      "продават": 5925,
      "прати": 5926,
      "крад": 5927,
      "предложението": 5928,
      "чиста": 5929,
      "върнат": 5930,
      "останаха": 5931,
      "джиева": 5932,
      "концерта": 5933,
      "сма": 5934,
      "месо": 5935,
      "допусна": 5936,
      "телност": 5937,
      "ша.": 5938,
      "карат": 5939,
      "стреми": 5940,
      "емилия": 5941,
      "непо": 5942,
      "париж": 5943,
      "град,": 5944,
      "катего": 5945,
      "запознати": 5946,
      "военен": 5947,
      "чно,": 5948,
      "стрес": 5949,
      "изпълнителят": 5950,
      "пострада": 5951,
      "гимнасти": 5952,
      "бит.лъ/2": 5953,
      "бена": 5954,
      "политическата": 5955,
      "прa": 5956,
      "горещи": 5957,
      "енергия": 5958,
      "носят": 5959,
      "киро": 5960,
      "автор": 5961,
      "\"ако": 5962,
      "чни,": 5963,
      "джъ": 5964,
      "момент,": 5965,
      "пик:": 5966,
      "състояние,": 5967,
      "коде": 5968,
      "кобра": 5969,
      "излага": 5970,
      "търпи": 5971,
      "последният": 5972,
      "намерени": 5973,
      "унгария": 5974,
      "сиде": 5975,
      "скача": 5976,
      "клубо": 5977,
      "работя": 5978,
      "кабинет": 5979,
      "кв.": 5980,
      "жената,": 5981,
      "придру": 5982,
      "човече": 5983,
      "вътрешните": 5984,
      "болез": 5985,
      "реклама": 5986,
      "усмих": 5987,
      "сътрудничество": 5988,
      "справедливо": 5989,
      "\"като": 5990,
      "ирина": 5991,
      "лo": 5992,
      "раждането": 5993,
      "вете,": 5994,
      "дора": 5995,
      "кубрат": 5996,
      "предвижда": 5997,
      "хирур": 5998,
      "средно": 5999,
      "тежък": 6000,
      "огромни": 6001,
      "помощта": 6002,
      "перфект": 6003,
      "живява": 6004,
      "цени": 6005,
      "личната": 6006,
      "допълва": 6007,
      "собственик": 6008,
      "з,": 6009,
      "разговаря": 6010,
      "държавния": 6011,
      "билизира": 6012,
      "простоти": 6013,
      "откло": 6014,
      "учеб": 6015,
      "сливен": 6016,
      "деклара": 6017,
      "изкарва": 6018,
      "упраж": 6019,
      "be": 6020,
      "чният": 6021,
      "ш!": 6022,
      "теди": 6023,
      "има.": 6024,
      "правил": 6025,
      "държавни": 6026,
      "правосъди": 6027,
      "резултати": 6028,
      "устрой": 6029,
      "руското": 6030,
      "много.": 6031,
      "здравето": 6032,
      "инстагра": 6033,
      "допълнително": 6034,
      "осем": 6035,
      "тали": 6036,
      "ливи": 6037,
      "проблема": 6038,
      "сравнение": 6039,
      "me": 6040,
      "коко": 6041,
      "сети": 6042,
      "лежи": 6043,
      "ска.": 6044,
      "близна": 6045,
      "обама": 6046,
      "бензи": 6047,
      "затвори": 6048,
      "прекрасно": 6049,
      "студент": 6050,
      "кино": 6051,
      "пали": 6052,
      "безпла": 6053,
      "третия": 6054,
      "владо": 6055,
      "джули": 6056,
      "успял": 6057,
      "съвета": 6058,
      "взимат": 6059,
      "секун": 6060,
      "имa": 6061,
      "ниците,": 6062,
      "източна": 6063,
      "събития": 6064,
      "чева.": 6065,
      "ционер": 6066,
      "проекти": 6067,
      "областта": 6068,
      "наказание": 6069,
      "окончателно": 6070,
      "-ти": 6071,
      "часа,": 6072,
      "изглежда,": 6073,
      "постигне": 6074,
      "транспорт": 6075,
      "международната": 6076,
      "том": 6077,
      "отсъ": 6078,
      "доходи": 6079,
      "чани": 6080,
      "кунева": 6081,
      "краде": 6082,
      "президентските": 6083,
      "военна": 6084,
      "55": 6085,
      "таря": 6086,
      "помежду": 6087,
      "цир": 6088,
      "тримата": 6089,
      "оцеля": 6090,
      "пожелавам": 6091,
      "адвокат": 6092,
      "живеем": 6093,
      "диску": 6094,
      "адекват": 6095,
      "%,": 6096,
      "зъл": 6097,
      "ях": 6098,
      "рач": 6099,
      "рели": 6100,
      "ляга": 6101,
      "екзоти": 6102,
      "изпълнението": 6103,
      "вражде": 6104,
      "връзки": 6105,
      "липса": 6106,
      "тиран": 6107,
      "правото": 6108,
      "пенсията": 6109,
      "родната": 6110,
      "фрон": 6111,
      "\"фермата\"": 6112,
      "крите": 6113,
      "чева,": 6114,
      "чан": 6115,
      "върти": 6116,
      "министри": 6117,
      "сървай": 6118,
      "бсп.": 6119,
      "христов": 6120,
      "константи": 6121,
      "леглото": 6122,
      "днъж": 6123,
      "нев.": 6124,
      "лее": 6125,
      "изправи": 6126,
      "съю": 6127,
      "зоха": 6128,
      "държавна": 6129,
      "сменя": 6130,
      "гледай": 6131,
      "храна": 6132,
      "клон": 6133,
      "ссс": 6134,
      "вилня": 6135,
      "камъ": 6136,
      "вила": 6137,
      "имоти": 6138,
      "66": 6139,
      "af": 6140,
      "държава.": 6141,
      "свят,": 6142,
      "електрон": 6143,
      "прекалено": 6144,
      "трета": 6145,
      "нето,": 6146,
      "обичай": 6147,
      "инфра": 6148,
      "олигар": 6149,
      "девой": 6150,
      "чил": 6151,
      "стопан": 6152,
      "друг.": 6153,
      "сърби": 6154,
      "постанов": 6155,
      "телевизия.": 6156,
      "емоционално": 6157,
      "отгоре": 6158,
      "годе": 6159,
      "москов": 6160,
      "стия": 6161,
      "имате": 6162,
      "пласти": 6163,
      "аргу": 6164,
      "данните": 6165,
      "участни": 6166,
      "магистрала": 6167,
      "38": 6168,
      "внесе": 6169,
      "хване": 6170,
      "косми": 6171,
      "петка": 6172,
      "атлети": 6173,
      "свидетели": 6174,
      "37": 6175,
      "de": 6176,
      "съд.": 6177,
      "гео": 6178,
      "искаше": 6179,
      "родината": 6180,
      "щастливи": 6181,
      "променя": 6182,
      "(обновена)": 6183,
      "умре": 6184,
      "дея": 6185,
      "измисли": 6186,
      "разглежда": 6187,
      "гува": 6188,
      "водещият": 6189,
      "румъния": 6190,
      "\"х": 6191,
      "тено": 6192,
      "пат": 6193,
      "инже": 6194,
      "обвини": 6195,
      "ееее": 6196,
      "заявява": 6197,
      "методи": 6198,
      "ефи": 6199,
      "тоз": 6200,
      "вере": 6201,
      "делен": 6202,
      "обуче": 6203,
      "светът": 6204,
      "депутати": 6205,
      "впоследствие": 6206,
      "добрия": 6207,
      "тирани": 6208,
      "скро": 6209,
      "служителите": 6210,
      "измам": 6211,
      "cъ": 6212,
      "одобре": 6213,
      "сфе": 6214,
      "навъ": 6215,
      "цивили": 6216,
      "атакува": 6217,
      "герой": 6218,
      "тоалет": 6219,
      "\"ергенът": 6220,
      "посве": 6221,
      "допуска": 6222,
      "изби": 6223,
      "ща.": 6224,
      "бизнеса": 6225,
      "сватбата": 6226,
      "половинка": 6227,
      "паднал": 6228,
      "максимално": 6229,
      "показва,": 6230,
      "стъл": 6231,
      "отдел": 6232,
      "лагер": 6233,
      "българия\"": 6234,
      "организацията": 6235,
      "бe": 6236,
      "ури": 6237,
      "комите": 6238,
      "домо": 6239,
      "циви": 6240,
      "мъж.": 6241,
      "обратно": 6242,
      "сървайвър": 6243,
      "кр": 6244,
      "толе": 6245,
      "стки": 6246,
      "пев": 6247,
      "холи": 6248,
      "тура.": 6249,
      "щи,": 6250,
      "започнат": 6251,
      "държавата.": 6252,
      "намерение": 6253,
      "афгани": 6254,
      "харесвам": 6255,
      "сподели,": 6256,
      "ева.": 6257,
      "„в": 6258,
      "вит": 6259,
      "рова,": 6260,
      "стотин": 6261,
      "анто": 6262,
      "венци": 6263,
      "слабо": 6264,
      "коледа": 6265,
      "колегата": 6266,
      "гьо": 6267,
      "кна": 6268,
      "ная": 6269,
      "лаге": 6270,
      "баби": 6271,
      "столичния": 6272,
      "специален": 6273,
      "обичат": 6274,
      "познавам": 6275,
      "скъпо": 6276,
      "добрата": 6277,
      "затваря": 6278,
      "диплома": 6279,
      "инфраструк": 6280,
      "ус": 6281,
      "указа": 6282,
      "радан": 6283,
      "чения": 6284,
      "сии": 6285,
      "леку": 6286,
      "доскоро": 6287,
      "лове": 6288,
      "искате": 6289,
      "признание": 6290,
      "какъвто": 6291,
      "американската": 6292,
      "конфлик": 6293,
      "сблъсъ": 6294,
      "дует": 6295,
      "бербатов": 6296,
      "явор": 6297,
      "отглежда": 6298,
      "кратно": 6299,
      "фило": 6300,
      "дуз": 6301,
      "човешки": 6302,
      "направили": 6303,
      "извършва": 6304,
      "поредния": 6305,
      "световно": 6306,
      "естествено": 6307,
      "кампанията": 6308,
      "материал": 6309,
      "поме": 6310,
      "видите": 6311,
      "павел": 6312,
      "продаде": 6313,
      "бокс": 6314,
      "жана": 6315,
      "пътна": 6316,
      "квар": 6317,
      "значително": 6318,
      "основната": 6319,
      "сериала": 6320,
      "валентин": 6321,
      "касиерки": 6322,
      "цивилизова": 6323,
      "диляна": 6324,
      "желя": 6325,
      "краж": 6326,
      "чува": 6327,
      "смеш": 6328,
      "скорост": 6329,
      "взел": 6330,
      "медия": 6331,
      "град.": 6332,
      "специализира": 6333,
      "възстанови": 6334,
      "тация": 6335,
      "кораб": 6336,
      "няването": 6337,
      "шефа": 6338,
      "пулев": 6339,
      "шия": 6340,
      "герман": 6341,
      "изведнъж": 6342,
      "клиенти": 6343,
      "администрати": 6344,
      "обстоя": 6345,
      "трево": 6346,
      "ангелов": 6347,
      "кандидат-": 6348,
      "бряг": 6349,
      "пва": 6350,
      "изтре": 6351,
      "измисле": 6352,
      "бе!": 6353,
      "стина": 6354,
      "аржен": 6355,
      "такива,": 6356,
      "ходят": 6357,
      "близост": 6358,
      "радвам": 6359,
      "рита": 6360,
      "стa": 6361,
      "нататък": 6362,
      "лян": 6363,
      "мерце": 6364,
      "топката": 6365,
      "влязат": 6366,
      "заместник-": 6367,
      "костю": 6368,
      "кване": 6369,
      "счита": 6370,
      "щe": 6371,
      "новява": 6372,
      "лоза": 6373,
      "обслуж": 6374,
      "предсро": 6375,
      "започнал": 6376,
      "успяла": 6377,
      "хвърлят": 6378,
      "създаването": 6379,
      "трагедия": 6380,
      "la": 6381,
      "to": 6382,
      "зри": 6383,
      "нико": 6384,
      "залата": 6385,
      "мачо": 6386,
      "леги": 6387,
      "изме": 6388,
      "можете": 6389,
      "новината": 6390,
      "компе": 6391,
      "хели": 6392,
      "вратата": 6393,
      "болницата": 6394,
      "фонда": 6395,
      "задържани": 6396,
      "адрес": 6397,
      "предварително": 6398,
      "7-": 6399,
      "осъщест": 6400,
      "зиран": 6401,
      "арсе": 6402,
      "открити": 6403,
      "заплати": 6404,
      "приятели.": 6405,
      "недовол": 6406,
      "оправда": 6407,
      "товете": 6408,
      "мак": 6409,
      "градове": 6410,
      "искала": 6411,
      "тяхното": 6412,
      "торът": 6413,
      "нашият": 6414,
      "земетресе": 6415,
      "ети": 6416,
      "метър": 6417,
      "гони": 6418,
      "донесе": 6419,
      "пик.": 6420,
      "следова": 6421,
      "града.": 6422,
      "мус": 6423,
      "самостоя": 6424,
      "възник": 6425,
      "тиражи": 6426,
      "летище": 6427,
      "операти": 6428,
      "германия,": 6429,
      "отбелязва": 6430,
      "елемента": 6431,
      "умиш": 6432,
      "маршру": 6433,
      "5.": 6434,
      "награди": 6435,
      "отстъп": 6436,
      "най-добри": 6437,
      "чно.": 6438,
      "възможни": 6439,
      "източници": 6440,
      "фотошо": 6441,
      "масово": 6442,
      "\"герена": 6443,
      "зната": 6444,
      "сбъ": 6445,
      "заглави": 6446,
      "чеството": 6447,
      "дела": 6448,
      "изпълне": 6449,
      "текст": 6450,
      "6-": 6451,
      "апе": 6452,
      "нетка": 6453,
      "състава": 6454,
      "чие": 6455,
      "предпа": 6456,
      "черта": 6457,
      "момент.": 6458,
      "каракачанов": 6459,
      "неин": 6460,
      "денис": 6461,
      "единият": 6462,
      "оооо": 6463,
      "остров": 6464,
      "1-": 6465,
      "39": 6466,
      "топло": 6467,
      "вакан": 6468,
      "регу": 6469,
      "проз": 6470,
      "лука": 6471,
      "луен": 6472,
      "неговият": 6473,
      "тормо": 6474,
      "любими": 6475,
      "светли": 6476,
      "икономиката": 6477,
      "вторият": 6478,
      "впечатлява": 6479,
      "сериал": 6480,
      "cтa": 6481,
      "настъп": 6482,
      "постоя": 6483,
      "най-накрая": 6484,
      "снимки,": 6485,
      "сърча": 6486,
      "любиме": 6487,
      "дирекция": 6488,
      "екипи": 6489,
      "инцидентът": 6490,
      "жертви": 6491,
      "статисти": 6492,
      "дискоте": 6493,
      "s.": 6494,
      "уд": 6495,
      "насил": 6496,
      "заси": 6497,
      "не!": 6498,
      "йт": 6499,
      "йското": 6500,
      "клас": 6501,
      "нaтa": 6502,
      "доверие": 6503,
      "байер": 6504,
      "бт": 6505,
      "бгне": 6506,
      "жния": 6507,
      "татя": 6508,
      "проговори": 6509,
      "планове": 6510,
      "редже": 6511,
      "нужно": 6512,
      "защити": 6513,
      "територи": 6514,
      "съветската": 6515,
      "лондо": 6516,
      "погледне": 6517,
      "боклук": 6518,
      "твърдят,": 6519,
      "\"телеграф": 6520,
      "бежа": 6521,
      "момиченце": 6522,
      "щяха": 6523,
      "периода": 6524,
      "взриви": 6525,
      "например,": 6526,
      "ексклузивно!": 6527,
      "паднали": 6528,
      "оп": 6529,
      "чере": 6530,
      "кият": 6531,
      "пристига": 6532,
      "имахме": 6533,
      "суб": 6534,
      "всички.": 6535,
      "появиха": 6536,
      "жестоко": 6537,
      "чийто": 6538,
      "мега": 6539,
      "меха": 6540,
      "кън": 6541,
      "арме": 6542,
      "обижда": 6543,
      "нощта": 6544,
      "наричат": 6545,
      "tv!": 6546,
      "титла": 6547,
      "компетен": 6548,
      "договора": 6549,
      "рял": 6550,
      "думата": 6551,
      "тяло": 6552,
      "криста": 6553,
      "лен.": 6554,
      "ждение": 6555,
      "инфлуен": 6556,
      "нарушителката": 6557,
      "враждеб": 6558,
      "отваря": 6559,
      "маре": 6560,
      "водо": 6561,
      "този,": 6562,
      "случвало": 6563,
      "усети": 6564,
      "ниско": 6565,
      "нел": 6566,
      "сала": 6567,
      "жено": 6568,
      "държавната": 6569,
      "благот": 6570,
      "познати": 6571,
      "решили": 6572,
      "арена": 6573,
      "асеновградски": 6574,
      "s,": 6575,
      "дб": 6576,
      "нството": 6577,
      "кадъ": 6578,
      "заложи": 6579,
      "лоша": 6580,
      "социо": 6581,
      "тъпи": 6582,
      "имот": 6583,
      "ненчев": 6584,
      "заедно.": 6585,
      "смисле": 6586,
      "абсур": 6587,
      "вълна": 6588,
      "политическите": 6589,
      "катя": 6590,
      "лица,": 6591,
      "селото": 6592,
      "дее": 6593,
      "дения": 6594,
      "мое": 6595,
      "купата": 6596,
      "турнира": 6597,
      "ниците.": 6598,
      "успява": 6599,
      "нещаст": 6600,
      "сезон.": 6601,
      "логия": 6602,
      "пандемията": 6603,
      "тотално": 6604,
      "попова": 6605,
      "справят": 6606,
      "заблу": 6607,
      "шефо": 6608,
      "найде": 6609,
      "екстра": 6610,
      "борят": 6611,
      "момчето": 6612,
      "ембле": 6613,
      "натиск": 6614,
      "събитие": 6615,
      "мигрантите": 6616,
      "парламентарната": 6617,
      "някакво": 6618,
      "странни": 6619,
      "комуника": 6620,
      "излъчва": 6621,
      "костов": 6622,
      "атракти": 6623,
      "вв": 6624,
      "игна": 6625,
      "никъде": 6626,
      "нощи": 6627,
      "зака": 6628,
      "той,": 6629,
      "фек": 6630,
      "плака": 6631,
      "участъ": 6632,
      "други.": 6633,
      "живея": 6634,
      "насилие": 6635,
      "кулинар": 6636,
      "ври": 6637,
      "и...": 6638,
      "намерят": 6639,
      "заме": 6640,
      "визира": 6641,
      "век": 6642,
      "ким": 6643,
      "издава": 6644,
      "съвремен": 6645,
      "прояви": 6646,
      "евро,": 6647,
      "книга": 6648,
      "волята\"": 6649,
      "загла": 6650,
      "здрава": 6651,
      "дреб": 6652,
      "начина": 6653,
      "зъм,": 6654,
      "приятелката": 6655,
      "персонал": 6656,
      "привлече": 6657,
      "брек": 6658,
      "качва": 6659,
      "силите": 6660,
      "среда": 6661,
      "лошото": 6662,
      "употребя": 6663,
      "a.": 6664,
      "бo": 6665,
      "гня": 6666,
      "ол": 6667,
      "юно": 6668,
      "заема": 6669,
      "неграмот": 6670,
      "лация": 6671,
      "вози": 6672,
      "статия": 6673,
      "чина": 6674,
      "цецка": 6675,
      "стоянов": 6676,
      "разбирам": 6677,
      "културата": 6678,
      "заведение": 6679,
      "кура": 6680,
      "спекти": 6681,
      "другият": 6682,
      "годишни": 6683,
      "горещо": 6684,
      "кмета": 6685,
      "емануела": 6686,
      "косата": 6687,
      "заго": 6688,
      "неф": 6689,
      "диана": 6690,
      "достигна": 6691,
      "ряз": 6692,
      "тенден": 6693,
      "кръсто": 6694,
      "чувство": 6695,
      "изглеждат": 6696,
      "подари": 6697,
      "общината": 6698,
      "убийство": 6699,
      "постоянен": 6700,
      "зър": 6701,
      "ивели": 6702,
      "нареди": 6703,
      "тебе": 6704,
      "родо": 6705,
      "чи.": 6706,
      "въведе": 6707,
      "сул": 6708,
      "снимка,": 6709,
      "сенза": 6710,
      "момиче,": 6711,
      "убеди": 6712,
      "финансови": 6713,
      "фронта": 6714,
      "атаки": 6715,
      "бг.": 6716,
      "онова": 6717,
      "потърси": 6718,
      "отча": 6719,
      "досто": 6720,
      "йтер": 6721,
      "колежката": 6722,
      "общински": 6723,
      "afp": 6724,
      "отрече": 6725,
      "мачове": 6726,
      "душа": 6727,
      "смело": 6728,
      "опасно": 6729,
      "станция": 6730,
      "американските": 6731,
      "ранени": 6732,
      "двубо": 6733,
      "усмивка": 6734,
      "(смее": 6735,
      "някак": 6736,
      "фолка": 6737,
      "говори,": 6738,
      "твърдо": 6739,
      "турската": 6740,
      "умни": 6741,
      "задържан": 6742,
      "актьора": 6743,
      "36": 6744,
      "чна,": 6745,
      "рево": 6746,
      "диви": 6747,
      "боби": 6748,
      "душата": 6749,
      "позор": 6750,
      "фирми": 6751,
      "бележ": 6752,
      "агреси": 6753,
      "дното": 6754,
      "верен": 6755,
      "специална": 6756,
      "подарък": 6757,
      ",но": 6758,
      "шън": 6759,
      "повдигна": 6760,
      "рису": 6761,
      "ройтер": 6762,
      "изток": 6763,
      "писна": 6764,
      "дунав": 6765,
      "спекта": 6766,
      "изнесе": 6767,
      "фокус.": 6768,
      "певецът": 6769,
      "вицепремиерът": 6770,
      "потенциал": 6771,
      "120": 6772,
      "финалите": 6773,
      "глена": 6774,
      "ите.": 6775,
      "знаем,": 6776,
      "уважение": 6777,
      "категоричен,": 6778,
      "победител": 6779,
      "взаимо": 6780,
      "трябват": 6781,
      "риско": 6782,
      "рос": 6783,
      "прибли": 6784,
      "вяра": 6785,
      "управление.": 6786,
      "красиви": 6787,
      "държава\"": 6788,
      "стойчо": 6789,
      "култур": 6790,
      "улиците": 6791,
      "сълзи": 6792,
      "убийството": 6793,
      "забеляза": 6794,
      "сри": 6795,
      "мони": 6796,
      "владя": 6797,
      "интереси": 6798,
      "бург": 6799,
      "случило": 6800,
      "обвиня": 6801,
      "разследване": 6802,
      "заповед": 6803,
      "\"много": 6804,
      "бят": 6805,
      "пpe": 6806,
      "рец": 6807,
      "риск": 6808,
      "чета,": 6809,
      "газа": 6810,
      "изми": 6811,
      "лош": 6812,
      "пропуска": 6813,
      "дълга": 6814,
      "държава“": 6815,
      "празну": 6816,
      "порно": 6817,
      "случилото": 6818,
      "лига.": 6819,
      "нахлу": 6820,
      "ресторант": 6821,
      "стова": 6822,
      "теми": 6823,
      "кока": 6824,
      "листи": 6825,
      "преподава": 6826,
      "изслед": 6827,
      "проби": 6828,
      "обсъди": 6829,
      "ето.": 6830,
      "хилари": 6831,
      "последстви": 6832,
      "дейност": 6833,
      "различен": 6834,
      "старши": 6835,
      "избора": 6836,
      "испания": 6837,
      "домакините": 6838,
      "интелигент": 6839,
      "ĸи": 6840,
      "фън": 6841,
      "волей": 6842,
      "мова": 6843,
      "трето": 6844,
      "черна": 6845,
      "единственото": 6846,
      "нарушава": 6847,
      "шампио": 6848,
      "физически": 6849,
      "сирия,": 6850,
      "метри": 6851,
      "съчета": 6852,
      "най-важното": 6853,
      "семейство,": 6854,
      "банка": 6855,
      "избран": 6856,
      "ете": 6857,
      "стол": 6858,
      "мисли,": 6859,
      "положение,": 6860,
      "въпросите": 6861,
      "западна": 6862,
      "сд": 6863,
      "тат": 6864,
      "вито": 6865,
      "тита": 6866,
      "драмати": 6867,
      "компози": 6868,
      "шоуто.": 6869,
      "честно": 6870,
      "халваджиян": 6871,
      "дки": 6872,
      "огледа": 6873,
      "томи": 6874,
      "лицен": 6875,
      "лидера": 6876,
      "къв": 6877,
      "йският": 6878,
      "вергов": 6879,
      "годишна": 6880,
      "участия": 6881,
      "дъщери": 6882,
      "продуцент": 6883,
      "))))))))": 6884,
      "ф,": 6885,
      "попадна": 6886,
      "държави,": 6887,
      "уважава": 6888,
      "санкции": 6889,
      "5,": 6890,
      "пля": 6891,
      "тъл": 6892,
      "наша": 6893,
      "семе": 6894,
      "детай": 6895,
      ".......": 6896,
      "поредна": 6897,
      "книж": 6898,
      "4.": 6899,
      "описа": 6900,
      "отличи": 6901,
      "чети": 6902,
      "вене": 6903,
      "болна": 6904,
      "всеки,": 6905,
      "имената": 6906,
      "гласуване": 6907,
      "притежава": 6908,
      "промените": 6909,
      "2-3": 6910,
      "драз": 6911,
      "вою": 6912,
      "водите": 6913,
      "вечеря": 6914,
      "сигурен": 6915,
      "заплаха": 6916,
      "информацията": 6917,
      "защитник": 6918,
      "оплаква": 6919,
      "48": 6920,
      "кака": 6921,
      "коста": 6922,
      "сана": 6923,
      "бон": 6924,
      "министър.": 6925,
      "театра": 6926,
      "детски": 6927,
      "събират": 6928,
      "заболя": 6929,
      "реформаторския": 6930,
      "номина": 6931,
      "акъл": 6932,
      "радев,": 6933,
      "мрежата.": 6934,
      "ахме": 6935,
      "жe": 6936,
      "плът": 6937,
      "чл.": 6938,
      "наду": 6939,
      "разход": 6940,
      "соця": 6941,
      "хитри": 6942,
      "ствената": 6943,
      "нейният": 6944,
      "факти": 6945,
      "собственост": 6946,
      "разигра": 6947,
      "завършва": 6948,
      "алкохол,": 6949,
      "холиву": 6950,
      "откаже": 6951,
      "йлов": 6952,
      "мали": 6953,
      "доктор": 6954,
      "прилага": 6955,
      "жили": 6956,
      "продължат": 6957,
      "представле": 6958,
      "авторите": 6959,
      "работни": 6960,
      "пловдив.": 6961,
      "гната": 6962,
      "голи": 6963,
      "съотбор": 6964,
      "щерката": 6965,
      "бое": 6966,
      "страст": 6967,
      "джия": 6968,
      "взеха": 6969,
      "близък": 6970,
      "момчета": 6971,
      "намали": 6972,
      "първенство": 6973,
      "републикан": 6974,
      "иденти": 6975,
      "чки.": 6976,
      "южна": 6977,
      "на...": 6978,
      "ци!": 6979,
      "бела": 6980,
      "пей": 6981,
      "разпо": 6982,
      "имаха": 6983,
      "ръката": 6984,
      "ско-": 6985,
      "поглед": 6986,
      "путин,": 6987,
      "дълбоко": 6988,
      "мнение,": 6989,
      "песните": 6990,
      "антони": 6991,
      "снаха": 6992,
      "президент,": 6993,
      "хране": 6994,
      "пуснат": 6995,
      "фактор": 6996,
      "абв": 6997,
      "университет": 6998,
      "400": 6999,
      "араб": 7000,
      "свръх": 7001,
      "попъл": 7002,
      "веж": 7003,
      "следствие": 7004,
      "стер": 7005,
      "!!!!!": 7006,
      "парк": 7007,
      "любов,": 7008,
      "украинците": 7009,
      "излязат": 7010,
      "пазарджи": 7011,
      "брекзи": 7012,
      "\"ретро": 7013,
      ":30": 7014,
      "ve": 7015,
      "сби": 7016,
      "попов": 7017,
      "прили": 7018,
      "града,": 7019,
      "синди": 7020,
      "качеството": 7021,
      "египет": 7022,
      "((": 7023,
      "рки": 7024,
      "рали": 7025,
      "лора": 7026,
      "педера": 7027,
      "хия": 7028,
      "любов.": 7029,
      "очаквайте": 7030,
      "операцията": 7031,
      "фирмата": 7032,
      "почитатели": 7033,
      "безопас": 7034,
      "32": 7035,
      "гр.": 7036,
      "набира": 7037,
      "разправя": 7038,
      "инти": 7039,
      "страни,": 7040,
      "славо": 7041,
      "тракия": 7042,
      "блате": 7043,
      "признава,": 7044,
      "обвинения": 7045,
      "австрия": 7046,
      "клиентите": 7047,
      "допълнителни": 7048,
      "te": 7049,
      "давам": 7050,
      "сити": 7051,
      "пам": 7052,
      "нямало": 7053,
      "зона": 7054,
      "видяхме": 7055,
      "свидетел": 7056,
      "медиите,": 7057,
      "челси": 7058,
      "алепо": 7059,
      "тийней": 7060,
      "коса": 7061,
      "скат": 7062,
      "определен": 7063,
      "?!?": 7064,
      "проблеми.": 7065,
      "започнах": 7066,
      "ориги": 7067,
      "пуснал": 7068,
      "ницата": 7069,
      "бос": 7070,
      "орди": 7071,
      "комби": 7072,
      "работи.": 7073,
      "местни": 7074,
      "проблеми,": 7075,
      "месец.": 7076,
      "европейска": 7077,
      "състав": 7078,
      "свързана": 7079,
      "членовете": 7080,
      "ктно": 7081,
      "окръ": 7082,
      "си\",": 7083,
      "вените": 7084,
      "жени.": 7085,
      "щи.": 7086,
      "казаха": 7087,
      "карват": 7088,
      "истинско": 7089,
      "съобщават": 7090,
      "професи": 7091,
      "***,": 7092,
      "поеме": 7093,
      "повтаря": 7094,
      "напрежението": 7095,
      "\"няма": 7096,
      "тое": 7097,
      "застра": 7098,
      "призи": 7099,
      "ствие.": 7100,
      "дейности": 7101,
      "силико": 7102,
      "фотосе": 7103,
      "господин": 7104,
      "галерия": 7105,
      "министър-председател": 7106,
      "ho": 7107,
      "наско": 7108,
      "песен,": 7109,
      "възхи": 7110,
      "банк": 7111,
      "шоуто,": 7112,
      "харесват": 7113,
      "четирима": 7114,
      "рускинята": 7115,
      "територия": 7116,
      "ш0": 7117,
      "ясни": 7118,
      "старите": 7119,
      "гърция,": 7120,
      "георгиева": 7121,
      "посещение": 7122,
      "полицията.": 7123,
      "те!": 7124,
      "лечение": 7125,
      "гай": 7126,
      "баха": 7127,
      "черни": 7128,
      "починал": 7129,
      "починали": 7130,
      "получила": 7131,
      "производи": 7132,
      "излизат": 7133,
      "поема": 7134,
      "километра": 7135,
      "подозира": 7136,
      "божков": 7137,
      "спрат": 7138,
      "\"?": 7139,
      "-ха": 7140,
      "4,": 7141,
      "us": 7142,
      "yo": 7143,
      "клич": 7144,
      "учу": 7145,
      "ясна": 7146,
      "линей": 7147,
      "отзад": 7148,
      "водата": 7149,
      "преси": 7150,
      "пригот": 7151,
      "бат": 7152,
      "муску": 7153,
      "орбан": 7154,
      "няма,": 7155,
      "успеха": 7156,
      "семейство.": 7157,
      "убити": 7158,
      "благодари": 7159,
      "разликата": 7160,
      "направени": 7161,
      "божидар": 7162,
      "омъ": 7163,
      "тест": 7164,
      "кажи": 7165,
      "дадоха": 7166,
      "вежда": 7167,
      "волен": 7168,
      "лова.": 7169,
      "старта": 7170,
      "т.нар.": 7171,
      "публичното": 7172,
      "клуба.": 7173,
      "последен": 7174,
      "скандала": 7175,
      "съответно": 7176,
      "материали": 7177,
      "татяна": 7178,
      "заклю": 7179,
      "стката": 7180,
      "досъдебно": 7181,
      "версия": 7182,
      "желая": 7183,
      "хубав": 7184,
      "12.": 7185,
      "участник": 7186,
      "песни,": 7187,
      "ремонт": 7188,
      "нападателят": 7189,
      "отрица": 7190,
      "посреща": 7191,
      "йй": 7192,
      "милен": 7193,
      "бага": 7194,
      "драсти": 7195,
      "блока": 7196,
      "радев.": 7197,
      "странно": 7198,
      "самолета": 7199,
      "зма.": 7200,
      "осъди": 7201,
      "пна": 7202,
      "незабавно": 7203,
      "титу": 7204,
      "импе": 7205,
      "уважа": 7206,
      "симеон": 7207,
      "-то": 7208,
      "умира": 7209,
      "„това": 7210,
      "порта": 7211,
      "мои": 7212,
      "минало": 7213,
      "грижа": 7214,
      "известно,": 7215,
      "кандидатът": 7216,
      "охраните": 7217,
      "брюнетката": 7218,
      "капаците": 7219,
      "разделя": 7220,
      "върза": 7221,
      "българи,": 7222,
      "криско": 7223,
      "съмне": 7224,
      "мвр.": 7225,
      "очакваме": 7226,
      "западните": 7227,
      "заедно,": 7228,
      "ситуация,": 7229,
      "идеал": 7230,
      "чиито": 7231,
      "оси": 7232,
      "удоб": 7233,
      "парите,": 7234,
      "границите": 7235,
      "финали": 7236,
      "срещна": 7237,
      "зъм.": 7238,
      "съдът": 7239,
      "бюджет": 7240,
      "vid": 7241,
      "механи": 7242,
      "забележи": 7243,
      "силата": 7244,
      "лови": 7245,
      "ьора": 7246,
      "питам": 7247,
      "кръсте": 7248,
      "присъствието": 7249,
      "служби": 7250,
      "алкохол.": 7251,
      "тръгва": 7252,
      "асоциа": 7253,
      "\"ние": 7254,
      "кг": 7255,
      "ващо": 7256,
      "подло": 7257,
      "илиян": 7258,
      "слава,": 7259,
      "полша": 7260,
      "външно": 7261,
      "народно": 7262,
      "компании": 7263,
      "ужасно": 7264,
      "г-жа": 7265,
      "белги": 7266,
      "залож": 7267,
      "виртуал": 7268,
      "присъедини": 7269,
      "здравеопазването": 7270,
      "гд": 7271,
      "иран": 7272,
      "напъл": 7273,
      "терена": 7274,
      "състои": 7275,
      "ги.": 7276,
      "славия": 7277,
      "служители,": 7278,
      "подготовка": 7279,
      "изненадващо": 7280,
      "отсече": 7281,
      "\"и": 7282,
      "шле": 7283,
      "ливър": 7284,
      "знак": 7285,
      "по-голям": 7286,
      "хумани": 7287,
      "съдия": 7288,
      "електри": 7289,
      "американците": 7290,
      "мюн": 7291,
      "страхотен": 7292,
      "арсенал": 7293,
      "а?": 7294,
      "бтв": 7295,
      "отре": 7296,
      "мобил": 7297,
      "зин": 7298,
      "бе?": 7299,
      "пин": 7300,
      "денков": 7301,
      "криминал": 7302,
      "друж": 7303,
      "сумата": 7304,
      "чо,": 7305,
      "хули": 7306,
      "народни": 7307,
      "външния": 7308,
      "мъже,": 7309,
      "месец,": 7310,
      "хахахаха": 7311,
      "мръзна": 7312,
      "исторически": 7313,
      "отделно": 7314,
      "сексапи": 7315,
      "фандъкова": 7316,
      "анелия": 7317,
      "нагоре": 7318,
      "покой": 7319,
      "телството": 7320,
      "хич": 7321,
      "личност": 7322,
      "книгата": 7323,
      "ваксини": 7324,
      "станишев": 7325,
      "популярни": 7326,
      "федерация": 7327,
      "митьо": 7328,
      "омра": 7329,
      "зма,": 7330,
      "постига": 7331,
      "мети": 7332,
      "изъ": 7333,
      "сов": 7334,
      "отиват": 7335,
      "2023": 7336,
      "направих": 7337,
      "популя": 7338,
      "национали": 7339,
      "споразумението": 7340,
      "любопитна": 7341,
      "христия": 7342,
      "християн": 7343,
      "минималната": 7344,
      "бот": 7345,
      "рони": 7346,
      "пеше": 7347,
      "басей": 7348,
      "шето": 7349,
      "трез": 7350,
      "конституцията": 7351,
      "фигура": 7352,
      "--------": 7353,
      "чаровната": 7354,
      "is": 7355,
      "маски": 7356,
      "минира": 7357,
      "борислав": 7358,
      "онален": 7359,
      "изданието": 7360,
      "катастрофата": 7361,
      "турските": 7362,
      "аудито": 7363,
      "заподо": 7364,
      "отделе": 7365,
      "госту": 7366,
      "разбера": 7367,
      "2009": 7368,
      "корея": 7369,
      "индиви": 7370,
      "протестиращите": 7371,
      "йско": 7372,
      "праща": 7373,
      "предвиде": 7374,
      "годишната": 7375,
      "пловдив,": 7376,
      "слънце": 7377,
      "приятно": 7378,
      "напрежение": 7379,
      "берое": 7380,
      "ир": 7381,
      "напомня": 7382,
      "вище": 7383,
      "галин": 7384,
      "патру": 7385,
      "белия": 7386,
      "подчи": 7387,
      "канц": 7388,
      "вижда,": 7389,
      "запада": 7390,
      "сцената,": 7391,
      "делега": 7392,
      "различна": 7393,
      "поредното": 7394,
      "жоро": 7395,
      "изненада!": 7396,
      "ангажимен": 7397,
      "капките": 7398,
      "путин.": 7399,
      "симво": 7400,
      "\"ще": 7401,
      "пe": 7402,
      "заключи": 7403,
      "симона": 7404,
      "па.": 7405,
      "пътни": 7406,
      "професия": 7407,
      "украинка": 7408,
      "дойдат": 7409,
      "манасти": 7410,
      "__": 7411,
      "аса": 7412,
      "ален": 7413,
      "опти": 7414,
      "рон": 7415,
      "знаят,": 7416,
      "народен": 7417,
      "обявиха": 7418,
      "двубоя": 7419,
      "лидери": 7420,
      "одоб": 7421,
      "склю": 7422,
      "щa": 7423,
      "залага": 7424,
      "нела": 7425,
      "веще": 7426,
      "припомни": 7427,
      "крим": 7428,
      "представят": 7429,
      "директорът": 7430,
      "милионер": 7431,
      "майстор": 7432,
      "задръж": 7433,
      "та!": 7434,
      "равен": 7435,
      "виза": 7436,
      "лекува": 7437,
      "търже": 7438,
      "стоянова": 7439,
      "мерки,": 7440,
      "джен": 7441,
      "регистрира": 7442,
      "охрана": 7443,
      "изригна": 7444,
      "пеевски": 7445,
      "лки": 7446,
      "гана": 7447,
      "върнала": 7448,
      "спеця": 7449,
      "гледна": 7450,
      "възползва": 7451,
      "основни": 7452,
      "агенцията": 7453,
      "михайлов": 7454,
      "македон": 7455,
      "парламента.": 7456,
      "бутилка": 7457,
      "художе": 7458,
      "\"телеграф\".": 7459,
      "6.": 7460,
      "зале": 7461,
      "лих": 7462,
      "отрази": 7463,
      "девет": 7464,
      "доц.": 7465,
      "прост": 7466,
      "дърта": 7467,
      "снат": 7468,
      "човека,": 7469,
      "политическо": 7470,
      "спару": 7471,
      "приели": 7472,
      "познат": 7473,
      "ислями": 7474,
      "появата": 7475,
      "легендар": 7476,
      "пирогов": 7477,
      "предизвиква": 7478,
      "вашингтон": 7479,
      "\"вип": 7480,
      "апло": 7481,
      "мби": 7482,
      "ьон": 7483,
      "„на": 7484,
      "белите": 7485,
      "крачка": 7486,
      "кризата": 7487,
      "армей": 7488,
      "очаквам": 7489,
      "цветели": 7490,
      "двойката": 7491,
      "увере": 7492,
      "влияние": 7493,
      "соти": 7494,
      "посто": 7495,
      "либера": 7496,
      "бет": 7497,
      "стиму": 7498,
      "ивана": 7499,
      "кръч": 7500,
      "вaт": 7501,
      "гордо": 7502,
      "двига": 7503,
      "компю": 7504,
      "сюл": 7505,
      "250": 7506,
      "па,": 7507,
      "прото": 7508,
      "хаско": 7509,
      "общата": 7510,
      "питат": 7511,
      "вдигне": 7512,
      "човекът": 7513,
      "варна,": 7514,
      "чакаме": 7515,
      "прекрасна": 7516,
      "българинът": 7517,
      "австра": 7518,
      "медицински": 7519,
      "яя": 7520,
      "тона": 7521,
      "загора": 7522,
      "съхра": 7523,
      "фали": 7524,
      "живота,": 7525,
      "поставят": 7526,
      "култо": 7527,
      "влизането": 7528,
      "нзи": 7529,
      "умно": 7530,
      "увре": 7531,
      "вас,": 7532,
      "си?": 7533,
      "папара": 7534,
      "държавният": 7535,
      "работи,": 7536,
      "разкри,": 7537,
      "проектът": 7538,
      "сигурност,": 7539,
      "загубата": 7540,
      "харчи": 7541,
      "загина": 7542,
      "щях": 7543,
      "павлова": 7544,
      "команди": 7545,
      "синопти": 7546,
      "настъпи": 7547,
      "раш": 7548,
      "задава": 7549,
      "отчита": 7550,
      "изоста": 7551,
      "илия": 7552,
      "партия,": 7553,
      "собствен": 7554,
      "военните": 7555,
      "категорична": 7556,
      "украински": 7557,
      "произход": 7558,
      "падането": 7559,
      "текста": 7560,
      "\"откраднат": 7561,
      "as": 7562,
      "ало": 7563,
      "снал": 7564,
      "изгу": 7565,
      "тяване": 7566,
      "бяла": 7567,
      "2010": 7568,
      "правителство,": 7569,
      "александ": 7570,
      "tv:": 7571,
      "уточни,": 7572,
      "посланик": 7573,
      "тегля": 7574,
      "реджеп": 7575,
      "пв": 7576,
      "рела": 7577,
      "речи": 7578,
      "лова,": 7579,
      "прикри": 7580,
      "многоброй": 7581,
      "частни": 7582,
      "резултатът": 7583,
      "covid": 7584,
      "сдо": 7585,
      "кили": 7586,
      "вота": 7587,
      "общност": 7588,
      "отидат": 7589,
      "ясно.": 7590,
      "изпълнители": 7591,
      "***.": 7592,
      "случи.": 7593,
      "разбрах": 7594,
      "певицата.": 7595,
      "оценка": 7596,
      "николов": 7597,
      "индивиду": 7598,
      "дами": 7599,
      "куби": 7600,
      "музика,": 7601,
      "заплахи": 7602,
      "интервен": 7603,
      "пътища": 7604,
      "оръжия": 7605,
      "световни": 7606,
      "доказател": 7607,
      "сблъсък": 7608,
      "хъ": 7609,
      "шъ": 7610,
      "тец": 7611,
      "но!": 7612,
      "дух": 7613,
      "аз,": 7614,
      "ероти": 7615,
      "начина,": 7616,
      "силвия": 7617,
      "седмица.": 7618,
      "продължаваме": 7619,
      "улицата": 7620,
      "защитава": 7621,
      "удоволствие": 7622,
      "пфк": 7623,
      "зва,": 7624,
      "навремето": 7625,
      "заку": 7626,
      "мег": 7627,
      "чисти": 7628,
      "товата": 7629,
      "хов": 7630,
      "правилата": 7631,
      "искане": 7632,
      "илиев": 7633,
      "ствие,": 7634,
      "мерките": 7635,
      "ползват": 7636,
      "учител": 7637,
      "резул": 7638,
      "проблем.": 7639,
      "нуждае": 7640,
      "опити": 7641,
      "шампионската": 7642,
      "мюсюл": 7643,
      "предстоящите": 7644,
      "огра": 7645,
      "чност": 7646,
      "вита": 7647,
      "гостува": 7648,
      "преврат": 7649,
      "съвър": 7650,
      "станали": 7651,
      "дълъ": 7652,
      "граждани,": 7653,
      "нещата,": 7654,
      "скъп": 7655,
      "музикалната": 7656,
      "моделката": 7657,
      "играчите": 7658,
      "вторник": 7659,
      "атланти": 7660,
      "1:": 7661,
      "смо": 7662,
      "нанесе": 7663,
      "реших": 7664,
      "страница": 7665,
      "експерт": 7666,
      "натоваре": 7667,
      "площад": 7668,
      "секунди": 7669,
      "тори,": 7670,
      "потъ": 7671,
      "изгра": 7672,
      "дърве": 7673,
      "вете.": 7674,
      "зуе": 7675,
      "падъ": 7676,
      "припом": 7677,
      "бани": 7678,
      "турите": 7679,
      "майму": 7680,
      "логично": 7681,
      "бременна": 7682,
      "кристиано": 7683,
      "министрите": 7684,
      "lo": 7685,
      "rt": 7686,
      "знa": 7687,
      "цвят": 7688,
      "нави": 7689,
      "ците\"": 7690,
      "вул": 7691,
      "любимите": 7692,
      "професор": 7693,
      "певицата,": 7694,
      "контакт": 7695,
      "благотвори": 7696,
      ":)))": 7697,
      "гада": 7698,
      "падат": 7699,
      "тук.": 7700,
      "дент": 7701,
      "президент.": 7702,
      "2011": 7703,
      "институции": 7704,
      "претърпя": 7705,
      "байерн": 7706,
      "\"белене": 7707,
      "нивото": 7708,
      "равни": 7709,
      "нестабил": 7710,
      "диша": 7711,
      "някое": 7712,
      "шести": 7713,
      "най-добре": 7714,
      "срещне": 7715,
      "виждали": 7716,
      "американския": 7717,
      "серти": 7718,
      "контрола": 7719,
      "чужбина.": 7720,
      "new": 7721,
      "фло": 7722,
      "пена": 7723,
      "раздава": 7724,
      "разпоре": 7725,
      "най-важ": 7726,
      "берг": 7727,
      "сняг": 7728,
      "статията": 7729,
      "милиарда": 7730,
      "резултата": 7731,
      "напом": 7732,
      "постъпи": 7733,
      "рома": 7734,
      "дивата": 7735,
      "чиев": 7736,
      "луи": 7737,
      "консер": 7738,
      "майка.": 7739,
      "карта": 7740,
      "слове": 7741,
      "работил": 7742,
      "цом": 7743,
      "съжалява": 7744,
      "академи": 7745,
      "9.": 7746,
      "нато,": 7747,
      "показ": 7748,
      "отказ": 7749,
      "бони": 7750,
      "пирин": 7751,
      "жа,": 7752,
      "по-бързо": 7753,
      "забрани": 7754,
      "страхотно": 7755,
      "детска": 7756,
      "ing": 7757,
      "осъществи": 7758,
      "най-добрият": 7759,
      "оглед": 7760,
      "отлично": 7761,
      "сире": 7762,
      "сила,": 7763,
      "лето": 7764,
      "бов": 7765,
      "разград": 7766,
      "нямаш": 7767,
      "гласове": 7768,
      "курва": 7769,
      "довери": 7770,
      "бюро": 7771,
      "скъса": 7772,
      "онези": 7773,
      "апартамент": 7774,
      "зря": 7775,
      "ина": 7776,
      "офер": 7777,
      "хер": 7778,
      "наем": 7779,
      "коорди": 7780,
      "репли": 7781,
      "вода,": 7782,
      "доне": 7783,
      "рският": 7784,
      "10.": 7785,
      "места,": 7786,
      "решарски": 7787,
      "нормален": 7788,
      "весели": 7789,
      "свързано": 7790,
      "\"червените\"": 7791,
      "усилията": 7792,
      "хекимян": 7793,
      "75": 7794,
      "уреди": 7795,
      "южен": 7796,
      "вашите": 7797,
      "поредица": 7798,
      "изтър": 7799,
      "най-големият": 7800,
      "...и": 7801,
      "война,": 7802,
      "президентската": 7803,
      "действието": 7804,
      "икономика": 7805,
      "количество": 7806,
      "десислава": 7807,
      "анита": 7808,
      "конкурс": 7809,
      "лидерите": 7810,
      "йорданка": 7811,
      "избухна": 7812,
      "хегемо": 7813,
      "вло": 7814,
      "мра": 7815,
      "стване": 7816,
      "сена": 7817,
      "стите,": 7818,
      "държавите": 7819,
      "хил": 7820,
      "простотия": 7821,
      "обект": 7822,
      "общество": 7823,
      "официалната": 7824,
      "специални": 7825,
      "малкият": 7826,
      "процедура": 7827,
      "министър-председателят": 7828,
      "копейки": 7829,
      "образувано": 7830,
      "референдум": 7831,
      "окаже": 7832,
      "кала": 7833,
      "пенсия": 7834,
      "брюнетка": 7835,
      "блондинка": 7836,
      "a,": 7837,
      "ag": 7838,
      "ai": 7839,
      "астро": 7840,
      "ети.": 7841,
      "звер": 7842,
      "ниските": 7843,
      "неведнъж": 7844,
      "черен": 7845,
      "буле": 7846,
      "драго": 7847,
      "благой": 7848,
      "10-": 7849,
      "отношението": 7850,
      "катето": 7851,
      "младият": 7852,
      "пряко": 7853,
      "сряда": 7854,
      "\"ботев": 7855,
      "реван": 7856,
      "пана": 7857,
      "богата": 7858,
      "къса": 7859,
      "думи,": 7860,
      "българия!": 7861,
      "хвали": 7862,
      "вярвам": 7863,
      "денонощи": 7864,
      "категория": 7865,
      "рe": 7866,
      "ника.": 7867,
      "йон": 7868,
      "желе": 7869,
      "хотели": 7870,
      "професо": 7871,
      "бургас.": 7872,
      "спонсо": 7873,
      "72": 7874,
      "ава": 7875,
      "имен": 7876,
      "зам": 7877,
      "замени": 7878,
      "лицата": 7879,
      "диa": 7880,
      "предим": 7881,
      "нски,": 7882,
      "обяд": 7883,
      "известните": 7884,
      "заплатите": 7885,
      "скандално": 7886,
      "мариана": 7887,
      "документа": 7888,
      "сметка,": 7889,
      "реакция": 7890,
      "брюксе": 7891,
      "камион": 7892,
      "кошмар": 7893,
      "к'во": 7894,
      "un": 7895,
      "нки": 7896,
      "фър": 7897,
      "сени": 7898,
      "докога": 7899,
      "жителите": 7900,
      "предлагат": 7901,
      "ствените": 7902,
      "карто": 7903,
      "политиците": 7904,
      "решение.": 7905,
      "партньори": 7906,
      "ох": 7907,
      "почер": 7908,
      "постепен": 7909,
      "йна": 7910,
      "санда": 7911,
      "избере": 7912,
      "паси": 7913,
      "жи,": 7914,
      "страни.": 7915,
      "мярка": 7916,
      "решение,": 7917,
      "смятат,": 7918,
      "шумен": 7919,
      "основен": 7920,
      "парламента,": 7921,
      "кобрата": 7922,
      "\"когато": 7923,
      "м!": 7924,
      "мата,": 7925,
      "миг": 7926,
      "изпре": 7927,
      "соци": 7928,
      "акцен": 7929,
      "каранти": 7930,
      "ционира": 7931,
      "певица,": 7932,
      "опасни": 7933,
      "проблемите,": 7934,
      "засегна": 7935,
      "кандидатира": 7936,
      "станислав": 7937,
      "грозни": 7938,
      "продуцентите": 7939,
      "опонен": 7940,
      "пко": 7941,
      "списа": 7942,
      "сграда": 7943,
      "искали": 7944,
      "война.": 7945,
      "спират": 7946,
      "цска.": 7947,
      "двубой": 7948,
      "турският": 7949,
      "провокати": 7950,
      "фронт": 7951,
      "ети.пв": 7952,
      "1/": 7953,
      "аспару": 7954,
      "неотдавна": 7955,
      "разполо": 7956,
      "рън": 7957,
      "прави,": 7958,
      "познават": 7959,
      "свързва": 7960,
      "служител": 7961,
      "футболистите": 7962,
      "напред.": 7963,
      "физио": 7964,
      "\"по": 7965,
      "бк": 7966,
      "раха": 7967,
      "дикта": 7968,
      "кънев": 7969,
      "видиш": 7970,
      "присъствие": 7971,
      "случи,": 7972,
      "наказанието": 7973,
      "появява": 7974,
      "впечатление": 7975,
      "съпругът": 7976,
      "емблемати": 7977,
      "од": 7978,
      "натра": 7979,
      "номе": 7980,
      "оттам": 7981,
      "меня": 7982,
      "местен": 7983,
      "тихо": 7984,
      "цитири": 7985,
      "следо": 7986,
      "соха": 7987,
      "хме.": 7988,
      "започнали": 7989,
      "спася": 7990,
      "празника": 7991,
      "смисъ": 7992,
      "маринов": 7993,
      "единия": 7994,
      "четвъртък": 7995,
      "конкурса": 7996,
      "хттпс://бит.лъ/2": 7997,
      "умишлено": 7998,
      "д\"": 7999,
      "шe": 8000,
      "дайте": 8001,
      "данаи": 8002,
      "се!": 8003,
      "кипър": 8004,
      "перу": 8005,
      "пук": 8006,
      "дяво": 8007,
      "вно,": 8008,
      "слова": 8009,
      "интересите": 8010,
      "високите": 8011,
      "децата,": 8012,
      "вляват": 8013,
      "загинаха": 8014,
      "санкциите": 8015,
      "радват": 8016,
      "принуди": 8017,
      "скла": 8018,
      "йки,": 8019,
      "мекси": 8020,
      "розо": 8021,
      "съоръ": 8022,
      "бело": 8023,
      "прибере": 8024,
      "вървят": 8025,
      "по-голямата": 8026,
      "платени": 8027,
      "също,": 8028,
      "средното": 8029,
      "футболен": 8030,
      "произше": 8031,
      "фанзи": 8032,
      "пазара": 8033,
      "слънче": 8034,
      "надеж": 8035,
      "брадър\"": 8036,
      "църква": 8037,
      "подготовката": 8038,
      "сдс": 8039,
      "вода.": 8040,
      "румяна": 8041,
      "ал.": 8042,
      "шок": 8043,
      "проект,": 8044,
      "събраха": 8045,
      "рекорд": 8046,
      "изграждането": 8047,
      "псев": 8048,
      "тхе": 8049,
      "непре": 8050,
      "пача": 8051,
      "баш": 8052,
      "суе": 8053,
      "тък,": 8054,
      "фамили": 8055,
      "въпрос.": 8056,
      "виждал": 8057,
      "техния": 8058,
      "същество": 8059,
      "пандемия": 8060,
      "събити": 8061,
      "атмос": 8062,
      "спектакъл": 8063,
      "7,": 8064,
      "8.": 8065,
      "бфс": 8066,
      "оу": 8067,
      "тен,": 8068,
      "зара": 8069,
      "цин": 8070,
      "орлин": 8071,
      "прави.": 8072,
      "убиец": 8073,
      "умря": 8074,
      "възраждане": 8075,
      "червените": 8076,
      "източник": 8077,
      "предложения": 8078,
      "кандидати": 8079,
      "управляващите": 8080,
      "калфин": 8081,
      "медицинска": 8082,
      "мандата": 8083,
      "игрите": 8084,
      "критери": 8085,
      "ожени": 8086,
      "ура": 8087,
      "визо": 8088,
      "сауди": 8089,
      "пере": 8090,
      "развод": 8091,
      "сова": 8092,
      "майка,": 8093,
      "визията": 8094,
      "позиции": 8095,
      "свири": 8096,
      "\"има": 8097,
      "вна,": 8098,
      "нава": 8099,
      "пея": 8100,
      "хаза": 8101,
      "базата": 8102,
      "конферен": 8103,
      "поставени": 8104,
      "гласуването": 8105,
      "мигрант": 8106,
      "личи,": 8107,
      "свързан": 8108,
      "кожата": 8109,
      "дизайнер": 8110,
      "хуманитар": 8111,
      "яй": 8112,
      "кази": 8113,
      "чудя": 8114,
      "алекси": 8115,
      "сцената.": 8116,
      "напада": 8117,
      "злато": 8118,
      "светлана": 8119,
      "настоящия": 8120,
      "принце": 8121,
      "грандио": 8122,
      "бта.": 8123,
      "ядоса": 8124,
      "лия,": 8125,
      "моно": 8126,
      "ходе": 8127,
      "пуши": 8128,
      "вен,": 8129,
      "въпроси,": 8130,
      "недопусти": 8131,
      "изявление": 8132,
      "сидеров": 8133,
      "умо": 8134,
      "мело": 8135,
      "тир": 8136,
      "русо": 8137,
      "чинов": 8138,
      "хор": 8139,
      "самолети": 8140,
      "по-големи": 8141,
      "плаче": 8142,
      "чуди": 8143,
      "взела": 8144,
      "показа,": 8145,
      "факт,": 8146,
      "джан": 8147,
      "двойно": 8148,
      "кандидатурата": 8149,
      "купила": 8150,
      "вм": 8151,
      "щна": 8152,
      "неца": 8153,
      "дохме": 8154,
      "доколкото": 8155,
      "бак": 8156,
      "совете": 8157,
      "крава": 8158,
      "банко": 8159,
      "минута,": 8160,
      "пръст": 8161,
      "ареста": 8162,
      "представянето": 8163,
      "гражданин": 8164,
      "анализ": 8165,
      "нарушение": 8166,
      "мутафо": 8167,
      "субси": 8168,
      "холивуд": 8169,
      "псевдо": 8170,
      "саудит": 8171,
      "(пловдив": 8172,
      "егати": 8173,
      "орешарски": 8174,
      "видин": 8175,
      "родена": 8176,
      "дия.": 8177,
      "волни": 8178,
      "измък": 8179,
      "бельо": 8180,
      "прило": 8181,
      "зел": 8182,
      "сутре": 8183,
      "граждани.": 8184,
      "бизнесме": 8185,
      "собствената": 8186,
      "лицето.": 8187,
      "ваксина": 8188,
      "журито": 8189,
      "помагат": 8190,
      "хулиган": 8191,
      "\"клуб": 8192,
      "асан": 8193,
      "напълни": 8194,
      "дата.": 8195,
      "костади": 8196,
      "нети": 8197,
      "допри": 8198,
      "папи": 8199,
      "куват": 8200,
      "спекула": 8201,
      "изпълнителка": 8202,
      "свободен": 8203,
      "свободата": 8204,
      "100%": 8205,
      "отбор.": 8206,
      "грозно": 8207,
      "ръководител": 8208,
      "навън.": 8209,
      "наяве": 8210,
      "ясен": 8211,
      "бъди": 8212,
      "сузани": 8213,
      "труда": 8214,
      "влизане": 8215,
      "шофьорът": 8216,
      "персонала": 8217,
      "нюз\".": 8218,
      "зните": 8219,
      "насам": 8220,
      "току": 8221,
      "поче": 8222,
      "компро": 8223,
      "интересен": 8224,
      "мъжки": 8225,
      "селски": 8226,
      "употреба": 8227,
      "оке": 8228,
      "лков": 8229,
      "плате": 8230,
      "дейността": 8231,
      "войници": 8232,
      "делян": 8233,
      "добронамерени": 8234,
      "парламентарни": 8235,
      "контролира": 8236,
      "сното": 8237,
      "тният": 8238,
      "тея": 8239,
      "нож": 8240,
      "отбори": 8241,
      "йката": 8242,
      "леле": 8243,
      "каза:": 8244,
      "кеф": 8245,
      "центро": 8246,
      "борда": 8247,
      "интересна": 8248,
      "санти": 8249,
      "различните": 8250,
      "първанов": 8251,
      "доволен": 8252,
      "имуще": 8253,
      "григорова": 8254,
      "пребивава": 8255,
      "упорито": 8256,
      "небре": 8257,
      "моури": 8258,
      "цензу": 8259,
      "гледах": 8260,
      "перспекти": 8261,
      "точки.": 8262,
      "украинската": 8263,
      "последователи": 8264,
      "доказателства": 8265,
      "обору": 8266,
      "\"а\"": 8267,
      "училища": 8268,
      "джулиана": 8269,
      "цивилизовани": 8270,
      "моуриньо": 8271,
      "800": 8272,
      "of": 8273,
      "огне": 8274,
      "очерта": 8275,
      "ш?": 8276,
      "навръх": 8277,
      "зася": 8278,
      "йне": 8279,
      "говарят": 8280,
      "предател": 8281,
      "хол": 8282,
      "новините": 8283,
      "твърдят": 8284,
      "взели": 8285,
      "министър,": 8286,
      "факт.": 8287,
      "израе": 8288,
      "престъпление": 8289,
      "юлиан": 8290,
      "дълъг": 8291,
      "79": 8292,
      "рна": 8293,
      "зим": 8294,
      "цари": 8295,
      "сцени": 8296,
      "цска,": 8297,
      "пространство.": 8298,
      "международен": 8299,
      "трафик": 8300,
      "заседанието": 8301,
      "африка": 8302,
      "бъчварова": 8303,
      "\"ергенът\"": 8304,
      "трезво": 8305,
      "коз": 8306,
      "реста": 8307,
      "изтри": 8308,
      "разсъ": 8309,
      "най-близките": 8310,
      "глад": 8311,
      "глей": 8312,
      "вно.": 8313,
      "нето.": 8314,
      "съобщение": 8315,
      "националните": 8316,
      "въпросната": 8317,
      "проблем,": 8318,
      "полицай": 8319,
      "образа": 8320,
      "църк": 8321,
      "шин": 8322,
      "юн": 8323,
      "„аз": 8324,
      "сите,": 8325,
      "го.": 8326,
      "приходи": 8327,
      "нията.": 8328,
      "жители": 8329,
      "представа": 8330,
      "казу": 8331,
      "интензи": 8332,
      "работо": 8333,
      "група.": 8334,
      "отбор,": 8335,
      "операции": 8336,
      "петрол": 8337,
      "съжаля": 8338,
      "имита": 8339,
      "гря": 8340,
      "уре": 8341,
      "недя": 8342,
      "докто": 8343,
      "провали": 8344,
      "пира": 8345,
      "влече": 8346,
      "водещите": 8347,
      "момченце": 8348,
      "хвърлила": 8349,
      "демонта": 8350,
      "подробност": 8351,
      "600": 8352,
      "ари,": 8353,
      "чкова": 8354,
      "навърши": 8355,
      "жения,": 8356,
      "най-после": 8357,
      "тази,": 8358,
      "направихме": 8359,
      "обиди": 8360,
      "лите.": 8361,
      "премине": 8362,
      "известната": 8363,
      "вътрешен": 8364,
      "болница.": 8365,
      "покана": 8366,
      "лекари": 8367,
      "турския": 8368,
      "създаване": 8369,
      "магистратите": 8370,
      "пресцентъра": 8371,
      "здравко": 8372,
      "списъка": 8373,
      "религи": 8374,
      "лист": 8375,
      "рович": 8376,
      "зимата": 8377,
      "нявам": 8378,
      "наталия": 8379,
      "политик": 8380,
      "банди": 8381,
      "ганчев": 8382,
      "притесня": 8383,
      "страхотна": 8384,
      "разпределе": 8385,
      "44": 8386,
      "ла!": 8387,
      "стая": 8388,
      "луди": 8389,
      "многократно": 8390,
      "спешна": 8391,
      "сега.": 8392,
      "малко,": 8393,
      "добрев": 8394,
      "литера": 8395,
      "видео,": 8396,
      "десетина": 8397,
      "море.": 8398,
      "спрете": 8399,
      "превозва": 8400,
      "рязко": 8401,
      "гът": 8402,
      "жните": 8403,
      "с-": 8404,
      "уто": 8405,
      "ковете": 8406,
      "заби": 8407,
      "затру": 8408,
      "йте,": 8409,
      "пенев": 8410,
      "граници": 8411,
      "туй": 8412,
      "държави.": 8413,
      "бездар": 8414,
      "20-": 8415,
      "лъска": 8416,
      "украинци": 8417,
      "стоянка": 8418,
      "популярна": 8419,
      "капитан": 8420,
      "тасс.": 8421,
      "ic": 8422,
      "ицо": 8423,
      "лео": 8424,
      "сухо": 8425,
      "пътят": 8426,
      "фолкло": 8427,
      "опитала": 8428,
      "щял": 8429,
      "скандал!": 8430,
      "комплекс": 8431,
      "опозицията": 8432,
      "кристалина": 8433,
      "\"преди": 8434,
      "ява": 8435,
      "почувства": 8436,
      "зацията": 8437,
      "отдаде": 8438,
      "луис": 8439,
      "мум": 8440,
      "ченге": 8441,
      "гледайте": 8442,
      "тежката": 8443,
      "доверието": 8444,
      "министерски": 8445,
      "музикална": 8446,
      "дошли": 8447,
      "8-": 8448,
      "лният": 8449,
      "наясно": 8450,
      "де,": 8451,
      "ход.": 8452,
      "ждават": 8453,
      "по-често": 8454,
      "шок!": 8455,
      "екшън": 8456,
      "марков": 8457,
      "цонев": 8458,
      "група,": 8459,
      "места.": 8460,
      "основата": 8461,
      "кандидатите": 8462,
      "унищожи": 8463,
      "спортал": 8464,
      "плеймейтката": 8465,
      "индивидуал": 8466,
      "\"е": 8467,
      "5%": 8468,
      "наградата": 8469,
      "ритон": 8470,
      "сеща": 8471,
      "се).": 8472,
      "изпадна": 8473,
      "разпи": 8474,
      "получиха": 8475,
      "друг,": 8476,
      "атаката": 8477,
      "сигурност.": 8478,
      "събрание.": 8479,
      "прекрасни": 8480,
      "предаването,": 8481,
      "длъжност": 8482,
      "брекзит": 8483,
      "професионален": 8484,
      "булевар": 8485,
      "\"...": 8486,
      "6,": 8487,
      "ii": 8488,
      "отпадна": 8489,
      "предприя": 8490,
      "музика.": 8491,
      "успях": 8492,
      "открит": 8493,
      "откриването": 8494,
      "корпора": 8495,
      "приемането": 8496,
      "корем": 8497,
      "продукцията": 8498,
      "апартамента": 8499,
      "офанзи": 8500,
      "седи": 8501,
      "димо": 8502,
      "проче": 8503,
      "болен": 8504,
      "приме": 8505,
      "бъдеш": 8506,
      "тръгнал": 8507,
      "райна": 8508,
      "райони": 8509,
      "видял": 8510,
      "централната": 8511,
      "областната": 8512,
      "ликвиди": 8513,
      "откъдето": 8514,
      "морски": 8515,
      "избяг": 8516,
      "свободно": 8517,
      "страницата": 8518,
      "излизане": 8519,
      "световните": 8520,
      "загиналите": 8521,
      "теодора": 8522,
      "настроение": 8523,
      "инфлуенсър": 8524,
      "aл": 8525,
      "юлия": 8526,
      "ностите": 8527,
      "река": 8528,
      "йни": 8529,
      "вио": 8530,
      "пазят": 8531,
      "баске": 8532,
      "це,": 8533,
      "споме": 8534,
      "ско.": 8535,
      "брат,": 8536,
      "по-добър": 8537,
      "форму": 8538,
      "формат": 8539,
      "литекс": 8540,
      "успее": 8541,
      "музикален": 8542,
      "демокрация": 8543,
      "бургас,": 8544,
      "специалист": 8545,
      "конкретни": 8546,
      "тките": 8547,
      "даден": 8548,
      "вида": 8549,
      "дива": 8550,
      "щерка": 8551,
      "народна": 8552,
      "натрупани": 8553,
      "мляко": 8554,
      "пресконференция": 8555,
      "тоест": 8556,
      "социума": 8557,
      "-о": 8558,
      "cлe": 8559,
      "фте": 8560,
      "такти": 8561,
      "рал": 8562,
      "рамо": 8563,
      "става.": 8564,
      "по-цивилизовани": 8565,
      "спец": 8566,
      "телите,": 8567,
      "коментира,": 8568,
      "стъпка": 8569,
      "гърдите": 8570,
      "получили": 8571,
      "техника": 8572,
      "провока": 8573,
      "пилот": 8574,
      "апартамен": 8575,
      "наложена": 8576,
      "дьо": 8577,
      "оправя": 8578,
      "сля": 8579,
      "ювен": 8580,
      "рафи": 8581,
      "тела": 8582,
      "рева": 8583,
      "повто": 8584,
      "засил": 8585,
      "масата": 8586,
      "бокова": 8587,
      "истинската": 8588,
      "нейно": 8589,
      "народ.": 8590,
      "общото": 8591,
      "берлин": 8592,
      "предизвикател": 8593,
      "наложило": 8594,
      "ефект": 8595,
      "3000": 8596,
      "омръзна": 8597,
      "изгради": 8598,
      "бек": 8599,
      "богати": 8600,
      "пиша": 8601,
      "тус": 8602,
      "триум": 8603,
      "минават": 8604,
      "създават": 8605,
      "скандалната": 8606,
      "връщат": 8607,
      "компани": 8608,
      "оказа,": 8609,
      "родното": 8610,
      "мачът": 8611,
      "захари": 8612,
      "четвърти": 8613,
      "честито": 8614,
      "вна.": 8615,
      "кса": 8616,
      "тка,": 8617,
      "важи": 8618,
      "дата,": 8619,
      "ведом": 8620,
      "пазе": 8621,
      "дял": 8622,
      "запали": 8623,
      "състояние.": 8624,
      "натиска": 8625,
      "цялост": 8626,
      "експери": 8627,
      "com": 8628,
      "трагедията": 8629,
      "постепенно": 8630,
      "700": 8631,
      "лот": 8632,
      "сие": 8633,
      "бий": 8634,
      "най-доброто": 8635,
      "история,": 8636,
      "позната": 8637,
      "убежи": 8638,
      "изгони": 8639,
      "рейтин": 8640,
      "схема": 8641,
      "успокои": 8642,
      "\"ботев\"": 8643,
      "обор": 8644,
      "меро": 8645,
      "дото": 8646,
      "певе": 8647,
      "муста": 8648,
      "говорителят": 8649,
      "видно": 8650,
      "партии,": 8651,
      "седмица,": 8652,
      "бившите": 8653,
      "димитров.": 8654,
      "легендата": 8655,
      "сделка": 8656,
      "идиот": 8657,
      "?\",": 8658,
      "нане": 8659,
      "заря": 8660,
      "задово": 8661,
      "деса": 8662,
      "изразя": 8663,
      "обкръ": 8664,
      "ността.": 8665,
      "дадем": 8666,
      "медии.": 8667,
      "успешен": 8668,
      "гориво": 8669,
      "липсват": 8670,
      "кaтa": 8671,
      "франция,": 8672,
      "ебати": 8673,
      "френски": 8674,
      "международни": 8675,
      "фестивал": 8676,
      "ахмед": 8677,
      "аси": 8678,
      "яд": 8679,
      "„да": 8680,
      "тата,": 8681,
      "цик": 8682,
      "мощен": 8683,
      "казал,": 8684,
      "лентата": 8685,
      "мислите": 8686,
      "решиха": 8687,
      "разкрития": 8688,
      "червено": 8689,
      "руснаци": 8690,
      "магазин.": 8691,
      "преминава": 8692,
      "емоционалните": 8693,
      "анализа": 8694,
      "купон": 8695,
      ":д": 8696,
      "cтo": 8697,
      "доко": 8698,
      "прегръ": 8699,
      "сънарод": 8700,
      "царов": 8701,
      "власт.": 8702,
      "спал": 8703,
      "откриха": 8704,
      "екипът": 8705,
      "взето": 8706,
      "реакцията": 8707,
      "уникално": 8708,
      "отрича": 8709,
      "ливърпул": 8710,
      "нци": 8711,
      "„а": 8712,
      "„фермата": 8713,
      "сирия.": 8714,
      "примата": 8715,
      "правите": 8716,
      "беше,": 8717,
      "днешния": 8718,
      "правителство.": 8719,
      "човекът,": 8720,
      "2008": 8721,
      "летището": 8722,
      "помощ.": 8723,
      "мигранти,": 8724,
      "самочувствие": 8725,
      "\"армей": 8726,
      "огня": 8727,
      "укри": 8728,
      "мел": 8729,
      "рове": 8730,
      "дите,": 8731,
      "съеди": 8732,
      "люпко": 8733,
      "случват": 8734,
      "илиева": 8735,
      "национални": 8736,
      "работна": 8737,
      "интерне": 8738,
      "развити": 8739,
      "максимал": 8740,
      "0,": 8741,
      "аран": 8742,
      "преби": 8743,
      "моника": 8744,
      "прочу": 8745,
      "виждате": 8746,
      "национално": 8747,
      "националността": 8748,
      "сезон,": 8749,
      "личности": 8750,
      "занимават": 8751,
      "гръм": 8752,
      "долара.": 8753,
      "балкан": 8754,
      "шансове": 8755,
      "органите": 8756,
      "баскетбо": 8757,
      "\"пайнер": 8758,
      "52": 8759,
      "ах": 8760,
      "заряза": 8761,
      "неното": 8762,
      "нева.": 8763,
      "нетрезво": 8764,
      "мац": 8765,
      "орке": 8766,
      "армен": 8767,
      "телите.": 8768,
      "кажете": 8769,
      "телевизия,": 8770,
      "случващото": 8771,
      "програми": 8772,
      "момче,": 8773,
      "уведо": 8774,
      "модерни": 8775,
      "раши": 8776,
      "камери": 8777,
      "пова": 8778,
      "отвърна": 8779,
      "мажо": 8780,
      "луд": 8781,
      "любе": 8782,
      "конти": 8783,
      "гуша": 8784,
      "тъмно": 8785,
      "вид.": 8786,
      "лизация": 8787,
      "глоба.": 8788,
      "законите": 8789,
      "комисар": 8790,
      "гъза": 8791,
      "градина": 8792,
      "байдън": 8793,
      "централна": 8794,
      "диалог": 8795,
      "изказване": 8796,
      "\"мис": 8797,
      "аро": 8798,
      "яро": 8799,
      "поля": 8800,
      "отря": 8801,
      "маска": 8802,
      "изживя": 8803,
      "мутра": 8804,
      "люси": 8805,
      "главната": 8806,
      "дясно": 8807,
      "едновременно": 8808,
      "въпрос,": 8809,
      "книги": 8810,
      "изборния": 8811,
      "ръководство": 8812,
      "генерален": 8813,
      "ефек": 8814,
      "новяване": 8815,
      "направено": 8816,
      "нападението": 8817,
      "опъ": 8818,
      "ниe": 8819,
      "зап": 8820,
      "рис": 8821,
      "оттогава": 8822,
      "разтърси": 8823,
      "вянето": 8824,
      "бут": 8825,
      "дъното": 8826,
      "карло": 8827,
      "иванов,": 8828,
      "приет": 8829,
      "стигнат": 8830,
      "съдят": 8831,
      "терористите": 8832,
      "унифор": 8833,
      "момичетата": 8834,
      "европейското": 8835,
      "госпожа": 8836,
      "невин": 8837,
      "сипе": 8838,
      "ласки": 8839,
      "пребори": 8840,
      "лост": 8841,
      "жения.": 8842,
      "боря": 8843,
      "столична": 8844,
      "тува": 8845,
      "акция": 8846,
      "полито": 8847,
      "телно,": 8848,
      "готвят": 8849,
      "европейският": 8850,
      "мръсни": 8851,
      "чужбина,": 8852,
      "пуснали": 8853,
      "мечтае": 8854,
      "математи": 8855,
      "окупа": 8856,
      "рб": 8857,
      "уха": 8858,
      "рецеп": 8859,
      "венета": 8860,
      "главно": 8861,
      "предишните": 8862,
      "парчето": 8863,
      "редно": 8864,
      "сензация": 8865,
      "политика,": 8866,
      "хубавото": 8867,
      "купуват": 8868,
      "доклад": 8869,
      "манекен": 8870,
      "аби": 8871,
      "ниво.": 8872,
      "коха": 8873,
      "отло": 8874,
      "митро": 8875,
      "старата": 8876,
      "луна": 8877,
      "чужда": 8878,
      "шофира": 8879,
      "ьори": 8880,
      "дадени": 8881,
      "автомати": 8882,
      "хел": 8883,
      "минути.": 8884,
      "варна.": 8885,
      "злобни": 8886,
      "мрежа.": 8887,
      "районното": 8888,
      "ииии": 8889,
      "стандар": 8890,
      "нелегални": 8891,
      "кличко": 8892,
      "ur": 8893,
      "тв.": 8894,
      "тома": 8895,
      "раните": 8896,
      "роде": 8897,
      "войски": 8898,
      "моск": 8899,
      "страшна": 8900,
      "вечер,": 8901,
      "медии,": 8902,
      "точки,": 8903,
      "годишно": 8904,
      "вълну": 8905,
      "финансов": 8906,
      "данъци": 8907,
      "\"галерия": 8908,
      "ибра": 8909,
      "мбо": 8910,
      "настане": 8911,
      "ной": 8912,
      "пош": 8913,
      "лежа": 8914,
      "волно": 8915,
      "доган": 8916,
      "превра": 8917,
      "билети": 8918,
      "пиш": 8919,
      "обмисля": 8920,
      "ши,": 8921,
      "скопие": 8922,
      "клини": 8923,
      "коментари.": 8924,
      "присъда": 8925,
      "връщане": 8926,
      "море,": 8927,
      "тениси": 8928,
      "финансова": 8929,
      "бомбар": 8930,
      "население": 8931,
      "пенсионира": 8932,
      "мисис": 8933,
      "\"пенсията": 8934,
      "щур": 8935,
      "регла": 8936,
      "изписа": 8937,
      "баси": 8938,
      "стигат": 8939,
      "вяване": 8940,
      "андже": 8941,
      "безспор": 8942,
      "градски": 8943,
      "очаквано": 8944,
      "петко": 8945,
      "автомоби": 8946,
      "организации": 8947,
      "изкуси": 8948,
      "етаж": 8949,
      "актьори": 8950,
      "псува": 8951,
      "посолството": 8952,
      "оптими": 8953,
      "covid-19": 8954,
      "жор": 8955,
      "йно": 8956,
      "преследва": 8957,
      "изтича": 8958,
      "същ": 8959,
      "писто": 8960,
      "бака": 8961,
      "разходите": 8962,
      "тък.": 8963,
      "ред.": 8964,
      "играя": 8965,
      "джизъ": 8966,
      "друго.": 8967,
      "съдията": 8968,
      "изявява": 8969,
      "организаторите": 8970,
      "заведения": 8971,
      "евентуално": 8972,
      "am": 8973,
      "кс,": 8974,
      "юр": 8975,
      "отстрани": 8976,
      "чените": 8977,
      "галя": 8978,
      "жест": 8979,
      "държавните": 8980,
      "последи": 8981,
      "твори": 8982,
      "отношения.": 8983,
      "заплашени": 8984,
      "активи": 8985,
      "нормални": 8986,
      "гълъ": 8987,
      "бразил": 8988,
      "габриел": 8989,
      "мм": 8990,
      "рая": 8991,
      "чества": 8992,
      "водни": 8993,
      "хори": 8994,
      "паркира": 8995,
      "траги": 8996,
      "спазват": 8997,
      "успех.": 8998,
      "сърде": 8999,
      "завист": 9000,
      "съветник": 9001,
      "недоразуме": 9002,
      "обществена": 9003,
      "ердога": 9004,
      "естествено,": 9005,
      "водачът": 9006,
      "калоян": 9007,
      ",не": 9008,
      "aн": 9009,
      "грa": 9010,
      "канала": 9011,
      "пола": 9012,
      "мизе": 9013,
      "обжал": 9014,
      "отивам": 9015,
      "драга": 9016,
      "майки": 9017,
      "труден": 9018,
      "малко.": 9019,
      "отношения,": 9020,
      "тoвa": 9021,
      "прекрати": 9022,
      "премиерата": 9023,
      "конфликта": 9024,
      "пристигнала": 9025,
      "групировка": 9026,
      "кадъра": 9027,
      "затрудне": 9028,
      "вс": 9029,
      "южната": 9030,
      "постро": 9031,
      "отмъ": 9032,
      "меко": 9033,
      "мисъл": 9034,
      "зил": 9035,
      "бе.": 9036,
      "прочете": 9037,
      "шер": 9038,
      "подход": 9039,
      "марка": 9040,
      "бързи": 9041,
      "получих": 9042,
      "умна": 9043,
      "отговорността": 9044,
      "удовле": 9045,
      "дошъл": 9046,
      "социалисти": 9047,
      "ориентира": 9048,
      "револю": 9049,
      "мюнхен": 9050,
      "оди": 9051,
      "терен": 9052,
      "номера": 9053,
      "зараз": 9054,
      "чен.": 9055,
      "роу": 9056,
      "лах": 9057,
      "депре": 9058,
      "принад": 9059,
      "мангал": 9060,
      "спас": 9061,
      "тогава,": 9062,
      "семейства": 9063,
      "тайна,": 9064,
      "обвинение": 9065,
      "болница,": 9066,
      "готовност": 9067,
      "смяна": 9068,
      "медиите.": 9069,
      "бизнесменът": 9070,
      "\"хот": 9071,
      "блатечки": 9072,
      "вмро": 9073,
      "зне": 9074,
      "сква": 9075,
      "тви": 9076,
      "изчер": 9077,
      "балота": 9078,
      "дур": 9079,
      "ген,": 9080,
      "нямате": 9081,
      "нужни": 9082,
      "оставят": 9083,
      "джии": 9084,
      "мястото,": 9085,
      "познавали": 9086,
      "урл": 9087,
      "управляват": 9088,
      "племе": 9089,
      "шампиона": 9090,
      "световния": 9091,
      "настоява": 9092,
      "предаването.": 9093,
      "полицията,": 9094,
      "служебен": 9095,
      "щастието": 9096,
      "младото": 9097,
      "танцьор": 9098,
      "вки,": 9099,
      "погрижи": 9100,
      "нео": 9101,
      "лете": 9102,
      "дистан": 9103,
      "мите,": 9104,
      "възна": 9105,
      "цепи": 9106,
      "поддръж": 9107,
      "вечер.": 9108,
      "обявен": 9109,
      "успеш": 9110,
      "социални": 9111,
      "ландия,": 9112,
      "минута.": 9113,
      "представителите": 9114,
      "друго,": 9115,
      "германия.": 9116,
      "мечтата": 9117,
      "решават": 9118,
      "теб,": 9119,
      "районния": 9120,
      "предавания": 9121,
      "психически": 9122,
      "асеновград.": 9123,
      "отделни": 9124,
      "антонио": 9125,
      "цом/": 9126,
      "%д": 9127,
      "==": 9128,
      "тното": 9129,
      "оттук": 9130,
      "преживява": 9131,
      "става,": 9132,
      "пеят": 9133,
      "ляво": 9134,
      "гил": 9135,
      "графа": 9136,
      "славя": 9137,
      "местната": 9138,
      "действително": 9139,
      "услож": 9140,
      "официална": 9141,
      "фонд": 9142,
      "демокрацията": 9143,
      "представяне": 9144,
      "артист": 9145,
      "традиция": 9146,
      "счупи": 9147,
      "надолу": 9148,
      "вашата": 9149,
      "лапа": 9150,
      "сали": 9151,
      "бей": 9152,
      "петер": 9153,
      "пир": 9154,
      "чиво": 9155,
      "сон": 9156,
      "свеще": 9157,
      "тор,": 9158,
      "истинските": 9159,
      "почивката": 9160,
      "партиите": 9161,
      "връзка,": 9162,
      "определят": 9163,
      "американският": 9164,
      "\"левски\".": 9165,
      "носител": 9166,
      "проблемните": 9167,
      "съгласно": 9168,
      "предстоящия": 9169,
      "молба": 9170,
      "вади": 9171,
      "решат": 9172,
      "зага": 9173,
      "задни": 9174,
      "задържи": 9175,
      "митни": 9176,
      "бону": 9177,
      "пристани": 9178,
      "мул": 9179,
      "нямах": 9180,
      "стена": 9181,
      "лъж": 9182,
      "телно.": 9183,
      "следващият": 9184,
      "разбрах,": 9185,
      "съвет,": 9186,
      "джошу": 9187,
      "морската": 9188,
      "незаконно": 9189,
      "извършват": 9190,
      "сния": 9191,
      "щo": 9192,
      "порт": 9193,
      "марио": 9194,
      "вечно": 9195,
      "мисте": 9196,
      "стария": 9197,
      "животни": 9198,
      "красиво": 9199,
      "отговорът": 9200,
      "изкуство": 9201,
      "еее": 9202,
      "колеги,": 9203,
      "членки": 9204,
      "господа": 9205,
      "боклуци": 9206,
      "кристиан": 9207,
      "определяне": 9208,
      "произвежда": 9209,
      "континен": 9210,
      "\"у": 9211,
      "зал": 9212,
      "риба": 9213,
      "откъ": 9214,
      "зията": 9215,
      "разрешение": 9216,
      "плановете": 9217,
      "верни": 9218,
      "обек": 9219,
      "катерина": 9220,
      "убие": 9221,
      "противен": 9222,
      "хубавите": 9223,
      "скандали": 9224,
      "система,": 9225,
      "освобожда": 9226,
      "песни.": 9227,
      "фалшиви": 9228,
      "уууу": 9229,
      "пристигнали": 9230,
      "владислав": 9231,
      "убежище": 9232,
      "53": 9233,
      "мба": 9234,
      "шват": 9235,
      "юм": 9236,
      "татуи": 9237,
      "израз": 9238,
      "башар": 9239,
      "число": 9240,
      "предска": 9241,
      "нула": 9242,
      "лъсна": 9243,
      "власт,": 9244,
      "списък": 9245,
      "тайно": 9246,
      "музикални": 9247,
      "халф": 9248,
      "коалицията": 9249,
      "дошла": 9250,
      "нарушения": 9251,
      "амбицио": 9252,
      "красота": 9253,
      "задръжките": 9254,
      "\"ка": 9255,
      "огла": 9256,
      "науча": 9257,
      "динами": 9258,
      "дефи": 9259,
      "ръст": 9260,
      "щите,": 9261,
      "слаба": 9262,
      "хитове": 9263,
      "третата": 9264,
      "радика": 9265,
      "дейвид": 9266,
      "джип": 9267,
      "зъби": 9268,
      "марица": 9269,
      "кандидатура": 9270,
      "реакции": 9271,
      "излязоха": 9272,
      "стадиона": 9273,
      "основание": 9274,
      "лагера": 9275,
      "предсрочни": 9276,
      "1:0": 9277,
      "змът": 9278,
      "ъгъл": 9279,
      "събуди": 9280,
      "тява": 9281,
      "ването,": 9282,
      "минала": 9283,
      "красивите": 9284,
      "викат": 9285,
      "прекрасен": 9286,
      "провери": 9287,
      "компли": 9288,
      "рекламира": 9289,
      "осъден": 9290,
      "аут": 9291,
      "нормална": 9292,
      "разузнава": 9293,
      "желяз": 9294,
      "1ш": 9295,
      "нап": 9296,
      "набе": 9297,
      "оттегли": 9298,
      "мата.": 9299,
      "същият": 9300,
      "стени": 9301,
      "зоната": 9302,
      "искането": 9303,
      "връст": 9304,
      "обита": 9305,
      "живков": 9306,
      "кръст": 9307,
      "коментари,": 9308,
      "излизането": 9309,
      "парале": 9310,
      "въздух": 9311,
      "производство.": 9312,
      "съвместно": 9313,
      "худож": 9314,
      "фънки": 9315,
      ";)": 9316,
      "елиза": 9317,
      "крa": 9318,
      "седна": 9319,
      "гова": 9320,
      "съквар": 9321,
      "разхожда": 9322,
      "купе": 9323,
      "комфор": 9324,
      "грозен": 9325,
      "сраму": 9326,
      "посещението": 9327,
      "вътрешно": 9328,
      "рускиня,": 9329,
      "домакин": 9330,
      "защитникът": 9331,
      "паунда": 9332,
      "регистрирани": 9333,
      "ссср": 9334,
      "\"българия": 9335,
      ".00": 9336,
      "65": 9337,
      "fa": 9338,
      "камен": 9339,
      "мачка": 9340,
      "болка": 9341,
      "бана": 9342,
      "луда": 9343,
      "останал": 9344,
      "стреса": 9345,
      "задкули": 9346,
      "оная": 9347,
      "онази": 9348,
      "връзка.": 9349,
      "известният": 9350,
[...]
