{
  "version": "1.0",
  "truncation": null,
  "padding": null,
  "added_tokens": [
    {
      "id": 0,
      "content": "[UNK]",
      "single_word": false,
      "lstrip": false,
      "rstrip": false,
      "normalized": false,
      "special": true
    },
    {
      "id": 1,
      "content": "[PAD]",
      "single_word": false,
      "lstrip": false,
      "rstrip": false,
      "normalized": false,
      "special": true
    },
    {
      "id": 2,
      "content": "[STR]",
      "single_word": false,
      "lstrip": false,
      "rstrip": false,
      "normalized": false,
      "special": true
    },
    {
      "id": 3,
      "content": "[END]",
      "single_word": false,
      "lstrip": false,
      "rstrip": false,
      "normalized": false,
      "special": true
    }
  ],
  "normalizer": {
    "type": "Sequence",
    "normalizers": [
      {
        "type": "NFD"
      },
      {
        "type": "Lowercase"
      }
    ]
  },
  "pre_tokenizer": {
    "type": "WhitespaceSplit"
  },
  "post_processor": null,
  "decoder": null,
  "model": {
    "type": "WordPiece",
    "unk_token": "[UNK]",
    "continuing_subword_prefix": "",
    "max_input_chars_per_word": 100,
    "vocab": {
      "[UNK]": 0,
      "[PAD]": 1,
      "[STR]": 2,
      "[END]": 3,
      "\u0004": 4,
      "!": 5,
      "\"": 6,
      "#": 7,
      "$": 8,
      "%": 9,
      "&": 10,
      "'": 11,
      "(": 12,
      ")": 13,
      "*": 14,
      "+": 15,
      ",": 16,
      "-": 17,
      ".": 18,
      "/": 19,
      "0": 20,
      "1": 21,
      "2": 22,
      "3": 23,
      "4": 24,
      "5": 25,
      "6": 26,
      "7": 27,
      "8": 28,
      "9": 29,
      ":": 30,
      ";": 31,
      "<": 32,
      "=": 33,
      ">": 34,
      "?": 35,
      "@": 36,
      "[": 37,
      "\\": 38,
      "]": 39,
      "^": 40,
      "_": 41,
      "`": 42,
      "a": 43,
      "b": 44,
      "c": 45,
      "d": 46,
      "e": 47,
      "f": 48,
      "g": 49,
      "h": 50,
      "i": 51,
      "j": 52,
      "k": 53,
      "l": 54,
      "m": 55,
      "n": 56,
      "o": 57,
      "p": 58,
      "q": 59,
      "r": 60,
      "s": 61,
      "t": 62,
      "u": 63,
      "v": 64,
      "w": 65,
      "x": 66,
      "y": 67,
      "z": 68,
      "{": 69,
      "|": 70,
      "}": 71,
      "~": 72,
      "¡": 73,
      "£": 74,
      "¤": 75,
      "¥": 76,
      "§": 77,
      "«": 78,
      "­": 79,
      "®": 80,
      "°": 81,
      "±": 82,
      "¶": 83,
      "»": 84,
      "¿": 85,
      "×": 86,
      "ı": 87,
      "ĸ": 88,
      "ł": 89,
      "ə": 90,
      "̀": 91,
      "́": 92,
      "̂": 93,
      "̃": 94,
      "̆": 95,
      "̇": 96,
      "̈": 97,
      "̌": 98,
      "̦": 99,
      "̧": 100,
      "α": 101,
      "β": 102,
      "ε": 103,
      "ζ": 104,
      "θ": 105,
      "ι": 106,
      "κ": 107,
      "λ": 108,
      "μ": 109,
      "ν": 110,
      "ο": 111,
      "ς": 112,
      "σ": 113,
      "τ": 114,
      "ω": 115,
      "ϟ": 116,
      "а": 117,
      "б": 118,
      "в": 119,
      "г": 120,
      "д": 121,
      "е": 122,
      "ж": 123,
      "з": 124,
      "и": 125,
      "к": 126,
      "л": 127,
      "м": 128,
      "н": 129,
      "о": 130,
      "п": 131,
      "р": 132,
      "с": 133,
      "т": 134,
      "у": 135,
      "ф": 136,
      "х": 137,
      "ц": 138,
      "ч": 139,
      "ш": 140,
      "щ": 141,
      "ъ": 142,
      "ы": 143,
      "ь": 144,
      "э": 145,
      "ю": 146,
      "я": 147,
      "і": 148,
      "ј": 149,
      "љ": 150,
      "њ": 151,
      "ѣ": 152,
      "ѫ": 153,
      "ґ": 154,
      "ա": 155,
      "բ": 156,
      "ղ": 157,
      "ᄂ": 158,
      "ᄅ": 159,
      "ᄇ": 160,
      "ᄉ": 161,
      "ᄋ": 162,
      "ᄌ": 163,
      "ᄏ": 164,
      "ᄐ": 165,
      "ᅡ": 166,
      "ᅩ": 167,
      "ᅮ": 168,
      "ᅳ": 169,
      "ᅵ": 170,
      "ᆺ": 171,
      "‒": 172,
      "–": 173,
      "—": 174,
      "‘": 175,
      "’": 176,
      "“": 177,
      "”": 178,
      "„": 179,
      "‟": 180,
      "•": 181,
      "…": 182,
      "›": 183,
      "‽": 184,
      "⁰": 185,
      "⁸": 186,
      "⁹": 187,
      "ⁿ": 188,
      "€": 189,
      "№": 190,
      "√": 191,
      "┳": 192,
      "┻": 193,
      "┼": 194,
      "═": 195,
      "▄": 196,
      "▲": 197,
      "►": 198,
      "▼": 199,
      "☆": 200,
      "☛": 201,
      "☠": 202,
      "☢": 203,
      "☭": 204,
      "☹": 205,
      "☺": 206,
      "♡": 207,
      "♥": 208,
      "♪": 209,
      "♫": 210,
      "⚽": 211,
      "✅": 212,
      "✋": 213,
      "✌": 214,
      "✓": 215,
      "✔": 216,
      "✠": 217,
      "❤": 218,
      "➤": 219,
      "⭐": 220,
      "一": 221,
      "卐": 222,
      "️": 223,
      "︻": 224,
      "？": 225,
      "на": 226,
      "та": 227,
      "то": 228,
      "ка": 229,
      "ра": 230,
      "ва": 231,
      "те": 232,
      "да": 233,
      "ни": 234,
      "не": 235,
      "ко": 236,
      "но": 237,
      "ли": 238,
      "за": 239,
      "ма": 240,
      "по": 241,
      "се": 242,
      "ти": 243,
      "ри": 244,
      "ре": 245,
      "й": 246,
      "си": 247,
      "..": 248,
      "ви": 249,
      "че": 250,
      "го": 251,
      "ро": 252,
      "ле": 253,
      "ла": 254,
      "ме": 255,
      "ки": 256,
      "ве": 257,
      "от": 258,
      "га": 259,
      "са": 260,
      "во": 261,
      "де": 262,
      "ст": 263,
      "ми": 264,
      "ди": 265,
      "мо": 266,
      "до": 267,
      "па": 268,
      "ци": 269,
      "бе": 270,
      "ър": 271,
      "ще": 272,
      "из": 273,
      "ня": 274,
      "ло": 275,
      "же": 276,
      "би": 277,
      "зи": 278,
      "ру": 279,
      "ха": 280,
      "ста": 281,
      "про": 282,
      "ба": 283,
      "съ": 284,
      "пре": 285,
      "как": 286,
      "що": 287,
      "бо": 288,
      "пи": 289,
      "ят": 290,
      "пе": 291,
      "!!": 292,
      "пра": 293,
      "ше": 294,
      "сти": 295,
      "ъл": 296,
      "ча": 297,
      "...": 298,
      "ги": 299,
      "ски": 300,
      "като": 301,
      "това": 302,
      "ля": 303,
      "жи": 304,
      "чи": 305,
      "ска": 306,
      "жа": 307,
      "му": 308,
      "кра": 309,
      "при": 310,
      "има": 311,
      "раз": 312,
      "къ": 313,
      "лу": 314,
      "ръ": 315,
      "лко": 316,
      "ку": 317,
      "хо": 318,
      "няма": 319,
      "ря": 320,
      "кой": 321,
      "мно": 322,
      "со": 323,
      "сто": 324,
      "ните": 325,
      "ца": 326,
      "ват": 327,
      "зна": 328,
      "ние": 329,
      "ната": 330,
      "ща": 331,
      "много": 332,
      "само": 333,
      "це": 334,
      "ту": 335,
      "ния": 336,
      "ин": 337,
      "сле": 338,
      "бъл": 339,
      "пу": 340,
      "въ": 341,
      "....": 342,
      "бълга": 343,
      "мен": 344,
      "об": 345,
      "ед": 346,
      "ши": 347,
      "зе": 348,
      "ду": 349,
      "рия": 350,
      "ката": 351,
      "вече": 352,
      "сич": 353,
      "дър": 354,
      "може": 355,
      "фи": 356,
      "всич": 357,
      "тя": 358,
      "какво": 359,
      "ге": 360,
      "бра": 361,
      "прави": 362,
      "жда": 363,
      "гра": 364,
      "**": 365,
      "ша": 366,
      "пъ": 367,
      "щи": 368,
      "вър": 369,
      "гле": 370,
      "защо": 371,
      "пла": 372,
      "чо": 373,
      "сте": 374,
      "без": 375,
      "ако": 376,
      "дру": 377,
      "ята": 378,
      "рите": 379,
      "тъ": 380,
      "доб": 381,
      "им": 382,
      "ците": 383,
      "така": 384,
      "след": 385,
      "лю": 386,
      "кои": 387,
      "чу": 388,
      "годи": 389,
      "су": 390,
      "сме": 391,
      "бва": 392,
      "тря": 393,
      "тел": 394,
      "??": 395,
      "хора": 396,
      "ско": 397,
      "или": 398,
      "лъ": 399,
      "ев": 400,
      "сега": 401,
      "ство": 402,
      "все": 403,
      "фа": 404,
      "тази": 405,
      "гла": 406,
      "00": 407,
      "под": 408,
      "еди": 409,
      "ване": 410,
      "трябва": 411,
      "по-": 412,
      "мъ": 413,
      "този": 414,
      "!!!": 415,
      "стра": 416,
      "всички": 417,
      "нали": 418,
      "колко": 419,
      "иска": 420,
      "най": 421,
      "та.": 422,
      "кога": 423,
      "гу": 424,
      "вя": 425,
      "ден": 426,
      "ама": 427,
      "тия": 428,
      "та,": 429,
      "къде": 430,
      "укра": 431,
      "т.": 432,
      "един": 433,
      "тая": 434,
      "тоя": 435,
      "пред": 436,
      "ция": 437,
      "държа": 438,
      "сна": 439,
      "които": 440,
      "вре": 441,
      "бу": 442,
      "слу": 443,
      "дя": 444,
      "българия": 445,
      "лен": 446,
      "ке": 447,
      "сно": 448,
      "чно": 449,
      "май": 450,
      "ор": 451,
      "гледа": 452,
      "ето": 453,
      "те,": 454,
      "вам": 455,
      "на,": 456,
      "вен": 457,
      "лно": 458,
      "още": 459,
      "))": 460,
      "сия": 461,
      "оста": 462,
      "нищо": 463,
      "ну": 464,
      "сла": 465,
      "гово": 466,
      "беше": 467,
      "рат": 468,
      "е,": 469,
      "рабо": 470,
      "рно": 471,
      "голя": 472,
      "тези": 473,
      "спо": 474,
      "ху": 475,
      "чове": 476,
      "аз": 477,
      "хи": 478,
      "една": 479,
      "съм": 480,
      "ся": 481,
      "време": 482,
      "ва,": 483,
      "ките": 484,
      "каз": 485,
      "шо": 486,
      "сни": 487,
      "вата": 488,
      "там": 489,
      "зо": 490,
      "години": 491,
      "фе": 492,
      "пари": 493,
      "ця": 494,
      "прав": 495,
      "бъ": 496,
      "***": 497,
      "на.": 498,
      "пак": 499,
      "толко": 500,
      "ка.": 501,
      "тре": 502,
      "дра": 503,
      "нa": 504,
      "вно": 505,
      "нещо": 506,
      "н.": 507,
      "кри": 508,
      "ред": 509,
      "каза": 510,
      "инте": 511,
      "ва.": 512,
      "най-": 513,
      "едно": 514,
      "коя": 515,
      "кон": 516,
      "ка,": 517,
      "ници": 518,
      "който": 519,
      "тър": 520,
      "три": 521,
      "ник": 522,
      "той": 523,
      "добре": 524,
      "мис": 525,
      "тра": 526,
      "русия": 527,
      "бя": 528,
      "защото": 529,
      "--": 530,
      "пъл": 531,
      "със": 532,
      "знае": 533,
      "спе": 534,
      "руски": 535,
      "йте": 536,
      "ното": 537,
      "т,": 538,
      "дъ": 539,
      "н,": 540,
      "гро": 541,
      "толкова": 542,
      "въз": 543,
      "све": 544,
      "вие": 545,
      "повече": 546,
      "нти": 547,
      "пар": 548,
      "два": 549,
      "стве": 550,
      "преди": 551,
      "?!": 552,
      "ьо": 553,
      "мя": 554,
      "евро": 555,
      "лите": 556,
      "йна": 557,
      "малко": 558,
      "взе": 559,
      "аа": 560,
      "ни,": 561,
      "някой": 562,
      "!!!!": 563,
      "просто": 564,
      "рма": 565,
      "дна": 566,
      "хаха": 567,
      "него": 568,
      "ност": 569,
      "всичко": 570,
      "ква": 571,
      "пър": 572,
      "мери": 573,
      "дне": 574,
      "оби": 575,
      "наро": 576,
      "бли": 577,
      "рa": 578,
      "нски": 579,
      "дни": 580,
      "дава": 581,
      "поли": 582,
      "таки": 583,
      "българ": 584,
      "лни": 585,
      "други": 586,
      "те.": 587,
      "исти": 588,
      "здра": 589,
      "ков": 590,
      "какви": 591,
      "пък": 592,
      "ее": 593,
      "мента": 594,
      "глу": 595,
      ",че": 596,
      "каква": 597,
      "тро": 598,
      "към": 599,
      "направи": 600,
      "вa": 601,
      "когато": 602,
      "ман": 603,
      "човек": 604,
      "чета": 605,
      "ската": 606,
      "дъл": 607,
      "нима": 608,
      "вете": 609,
      "деца": 610,
      "хе": 611,
      "нови": 612,
      "кa": 613,
      "мата": 614,
      "става": 615,
      "поч": 616,
      "ни.": 617,
      "нието": 618,
      "кара": 619,
      "зъ": 620,
      "тa": 621,
      "такива": 622,
      "тях": 623,
      "украин": 624,
      "ум": 625,
      "кар": 626,
      "тен": 627,
      "с.": 628,
      "живе": 629,
      "оти": 630,
      "което": 631,
      "нал": 632,
      "гат": 633,
      "сре": 634,
      "он": 635,
      "кла": 636,
      "интере": 637,
      "бъде": 638,
      "хуба": 639,
      "жив": 640,
      "20": 641,
      "бира": 642,
      "лата": 643,
      "както": 644,
      "сигу": 645,
      "тин": 646,
      "всеки": 647,
      "чка": 648,
      "в.": 649,
      "то.": 650,
      "лек": 651,
      "зло": 652,
      "ли,": 653,
      "кур": 654,
      "която": 655,
      "дат": 656,
      "вижда": 657,
      "пише": 658,
      "вра": 659,
      "ъв": 660,
      "ите": 661,
      "нт": 662,
      "йде": 663,
      "то,": 664,
      "л.": 665,
      "тво": 666,
      "чал": 667,
      "джи": 668,
      "сва": 669,
      "лия": 670,
      "право": 671,
      "нат": 672,
      "сво": 673,
      "гъ": 674,
      "дали": 675,
      "нов": 676,
      "дa": 677,
      "е.": 678,
      "после": 679,
      "й,": 680,
      "стига": 681,
      "оо": 682,
      "какъв": 683,
      "вся": 684,
      "р.": 685,
      "хме": 686,
      "м,": 687,
      "дите": 688,
      "жена": 689,
      "през": 690,
      "л,": 691,
      "поне": 692,
      ".....": 693,
      "леми": 694,
      "сло": 695,
      "казва": 696,
      "тите": 697,
      "м.": 698,
      "нея": 699,
      "абе": 700,
      "сп": 701,
      "кре": 702,
      "софи": 703,
      "цията": 704,
      "вто": 705,
      "ства": 706,
      "ради": 707,
      "вят": 708,
      "пер": 709,
      "бил": 710,
      "доста": 711,
      "говори": 712,
      "ком": 713,
      "мер": 714,
      "стъ": 715,
      "дж": 716,
      "тата": 717,
      "ак": 718,
      "връ": 719,
      "к.": 720,
      "кси": 721,
      "вой": 722,
      "пита": 723,
      "вите": 724,
      "никой": 725,
      "фо": 726,
      "ами": 727,
      "във": 728,
      "рен": 729,
      "ар": 730,
      "сра": 731,
      "г.": 732,
      "//": 733,
      "дето": 734,
      "мла": 735,
      "чат": 736,
      "мъж": 737,
      "ските": 738,
      "чето": 739,
      "хората": 740,
      "с,": 741,
      "ур": 742,
      "мa": 743,
      "хт": 744,
      "каже": 745,
      "вате": 746,
      "тук": 747,
      "също": 748,
      "бър": 749,
      "мър": 750,
      "я,": 751,
      "нито": 752,
      "дре": 753,
      "правят": 754,
      "пен": 755,
      "дори": 756,
      "хте": 757,
      "сен": 758,
      "дете": 759,
      "живот": 760,
      "учи": 761,
      "лят": 762,
      "тка": 763,
      "чер": 764,
      "мили": 765,
      "си.": 766,
      "тп": 767,
      "си,": 768,
      "мисли": 769,
      "ан": 770,
      "еба": 771,
      "лка": 772,
      "стане": 773,
      "русна": 774,
      "мина": 775,
      "стро": 776,
      "://": 777,
      "хттп": 778,
      "стана": 779,
      "ган": 780,
      "ки,": 781,
      "ходи": 782,
      "клю": 783,
      "хва": 784,
      "чен": 785,
      "точно": 786,
      "поло": 787,
      "вла": 788,
      "пол": 789,
      "над": 790,
      "ции": 791,
      "ян": 792,
      "плаща": 793,
      "лна": 794,
      "проб": 795,
      "голям": 796,
      "харе": 797,
      "преда": 798,
      "цо": 799,
      "вна": 800,
      "кво": 801,
      "цен": 802,
      "вид": 803,
      "вина": 804,
      "види": 805,
      "браво": 806,
      "ството": 807,
      "игра": 808,
      "ваш": 809,
      "украйна": 810,
      "щата": 811,
      "мет": 812,
      "била": 813,
      "спа": 814,
      "чни": 815,
      "ос": 816,
      "тур": 817,
      "тор": 818,
      "сащ": 819,
      "гло": 820,
      "вели": 821,
      "полу": 822,
      "она": 823,
      "но,": 824,
      "колкото": 825,
      "вер": 826,
      "писа": 827,
      "нъ": 828,
      "проти": 829,
      "чалга": 830,
      "кат": 831,
      "в,": 832,
      "пръ": 833,
      "кан": 834,
      "срещ": 835,
      "сигурно": 836,
      "живо": 837,
      "гри": 838,
      "уби": 839,
      "ен": 840,
      "бла": 841,
      "фор": 842,
      "работа": 843,
      "запа": 844,
      "пости": 845,
      "българи": 846,
      "ву": 847,
      "ти.": 848,
      "проста": 849,
      "полити": 850,
      "тва": 851,
      "к,": 852,
      "я.": 853,
      "ран": 854,
      "сви": 855,
      "10": 856,
      "ница": 857,
      "друго": 858,
      "нова": 859,
      "нека": 860,
      "дже": 861,
      "сним": 862,
      "но.": 863,
      "ки.": 864,
      "меж": 865,
      "тръ": 866,
      "теле": 867,
      "гре": 868,
      "големи": 869,
      "ш,": 870,
      "зa": 871,
      "нето": 872,
      "голяма": 873,
      "мар": 874,
      "клу": 875,
      "бори": 876,
      "скоро": 877,
      "държава": 878,
      "\".": 879,
      "нала": 880,
      "ти,": 881,
      "явно": 882,
      "път": 883,
      "заради": 884,
      "живее": 885,
      "моми": 886,
      "послед": 887,
      "лото": 888,
      "ли.": 889,
      "ина": 890,
      "между": 891,
      "шите": 892,
      "лa": 893,
      "ци,": 894,
      "лиза": 895,
      "изве": 896,
      "норма": 897,
      "две": 898,
      "разбира": 899,
      "амери": 900,
      "видя": 901,
      "друга": 902,
      "докато": 903,
      "винаги": 904,
      "гер": 905,
      "пле": 906,
      "къв": 907,
      "занима": 908,
      "тога": 909,
      "запла": 910,
      "???": 911,
      "тира": 912,
      "гър": 913,
      "д.": 914,
      "коле": 915,
      "бе,": 916,
      "общо": 917,
      "мръ": 918,
      ":)": 919,
      "ването": 920,
      "зави": 921,
      "чески": 922,
      "вай": 923,
      "лича": 924,
      "срещу": 925,
      "кръ": 926,
      "комента": 927,
      "1.": 928,
      "не,": 929,
      "майка": 930,
      "100": 931,
      "шен": 932,
      "мат": 933,
      "значи": 934,
      "тно": 935,
      "хра": 936,
      "телно": 937,
      "сър": 938,
      "ано": 939,
      "изне": 940,
      "пей": 941,
      "рят": 942,
      "щите": 943,
      "краси": 944,
      "затова": 945,
      "льо": 946,
      "забра": 947,
      "коло": 948,
      "кому": 949,
      "вни": 950,
      "прости": 951,
      "имат": 952,
      ",а": 953,
      "бан": 954,
      "))))": 955,
      "бой": 956,
      "нас": 957,
      "могат": 958,
      "място": 959,
      "визи": 960,
      "български": 961,
      "жени": 962,
      "джа": 963,
      "отно": 964,
      "били": 965,
      "путин": 966,
      "........": 967,
      "спи": 968,
      "раб": 969,
      "гне": 970,
      "бяха": 971,
      "тру": 972,
      "неща": 973,
      "анони": 974,
      "вакси": 975,
      "19": 976,
      "зад": 977,
      "ван": 978,
      "въпро": 979,
      "виж": 980,
      "ра,": 981,
      "оба": 982,
      "даже": 983,
      "обя": 984,
      "ника": 985,
      "сел": 986,
      "сс": 987,
      "ии": 988,
      "кли": 989,
      "глежда": 990,
      "помо": 991,
      "почи": 992,
      "тогава": 993,
      "сред": 994,
      "даде": 995,
      "ра.": 996,
      "ек": 997,
      "наха": 998,
      "да,": 999,
      "сне": 1000,
      "ясно": 1001,
      "сa": 1002,
      "ци.": 1003,
      "дей": 1004,
      "пло": 1005,
      "рата": 1006,
      ",,": 1007,
      "вия": 1008,
      "ние.": 1009,
      "бг": 1010,
      "шка": 1011,
      "ла,": 1012,
      "гa": 1013,
      "иначе": 1014,
      "''": 1015,
      "уу": 1016,
      "х,": 1017,
      "боклу": 1018,
      "кова": 1019,
      "свобо": 1020,
      "част": 1021,
      "вица": 1022,
      "мей": 1023,
      "народ": 1024,
      "месе": 1025,
      "чки": 1026,
      "направо": 1027,
      "\",": 1028,
      "ри,": 1029,
      "р,": 1030,
      "нка": 1031,
      "кти": 1032,
      "сува": 1033,
      "----": 1034,
      "парите": 1035,
      "започ": 1036,
      "оне": 1037,
      "наци": 1038,
      "дят": 1039,
      "рко": 1040,
      "пия": 1041,
      "случа": 1042,
      "дано": 1043,
      "освен": 1044,
      "глупости": 1045,
      "анонимен": 1046,
      "пъти": 1047,
      "лки": 1048,
      "позна": 1049,
      "гани": 1050,
      "знам": 1051,
      "мисле": 1052,
      "роди": 1053,
      "ла.": 1054,
      "прия": 1055,
      "нят": 1056,
      "вяр": 1057,
      "стите": 1058,
      "жно": 1059,
      "гроз": 1060,
      "рускиня": 1061,
      "обще": 1062,
      "дата": 1063,
      "ниците": 1064,
      "плю": 1065,
      "рка": 1066,
      "дават": 1067,
      "мъже": 1068,
      "комуни": 1069,
      "щом": 1070,
      "управ": 1071,
      "ш.": 1072,
      "успе": 1073,
      "дно": 1074,
      "край": 1075,
      "пом": 1076,
      "полз": 1077,
      "ей": 1078,
      "щото": 1079,
      "тех": 1080,
      "мини": 1081,
      "лан": 1082,
      "вле": 1083,
      "мира": 1084,
      "50": 1085,
      "ал": 1086,
      "чна": 1087,
      "мия": 1088,
      "000": 1089,
      "не.": 1090,
      "кого": 1091,
      "никога": 1092,
      "тии": 1093,
      "чака": 1094,
      "шат": 1095,
      "жела": 1096,
      "меди": 1097,
      "бре": 1098,
      "жава": 1099,
      "шки": 1100,
      "теб": 1101,
      "разли": 1102,
      "работи": 1103,
      "любо": 1104,
      "мага": 1105,
      "сек": 1106,
      "име": 1107,
      "година": 1108,
      "лява": 1109,
      "зу": 1110,
      "руснаците": 1111,
      "ст.": 1112,
      "истина": 1113,
      "мом": 1114,
      "благо": 1115,
      "кро": 1116,
      "европа": 1117,
      "разбра": 1118,
      "цял": 1119,
      "затво": 1120,
      "ният": 1121,
      "мите": 1122,
      "това,": 1123,
      "свър": 1124,
      "демо": 1125,
      "ри.": 1126,
      "няколко": 1127,
      "друг": 1128,
      "лет": 1129,
      "памет": 1130,
      "семей": 1131,
      "щя": 1132,
      "изглежда": 1133,
      "вън": 1134,
      "фил": 1135,
      "рт": 1136,
      "жат": 1137,
      "такава": 1138,
      "вали": 1139,
      "тай": 1140,
      "да.": 1141,
      "ние,": 1142,
      "пя": 1143,
      "такъв": 1144,
      "бай": 1145,
      "айде": 1146,
      "ес": 1147,
      "лага": 1148,
      "края": 1149,
      "нта": 1150,
      "опи": 1151,
      "тери": 1152,
      "спре": 1153,
      "соб": 1154,
      "????": 1155,
      "работ": 1156,
      "цата": 1157,
      "пуска": 1158,
      "първо": 1159,
      "вче": 1160,
      "ст,": 1161,
      "децата": 1162,
      "бро": 1163,
      "пa": 1164,
      "стта": 1165,
      "бере": 1166,
      "съще": 1167,
      "оръ": 1168,
      "където": 1169,
      "хвър": 1170,
      "продъл": 1171,
      "аб": 1172,
      "шно": 1173,
      "баба": 1174,
      "скъ": 1175,
      "стъп": 1176,
      "веде": 1177,
      "ха,": 1178,
      "гледам": 1179,
      "ви,": 1180,
      "мога": 1181,
      "вди": 1182,
      "образ": 1183,
      "дръ": 1184,
      "ужа": 1185,
      "начи": 1186,
      "зира": 1187,
      "праз": 1188,
      "пробле": 1189,
      "тъпа": 1190,
      "гну": 1191,
      "фу": 1192,
      "опа": 1193,
      "висо": 1194,
      "сан": 1195,
      "тията": 1196,
      "изобщо": 1197,
      "исто": 1198,
      "пенси": 1199,
      "лошо": 1200,
      "нира": 1201,
      "искат": 1202,
      "стре": 1203,
      "30": 1204,
      "ли?": 1205,
      "оча": 1206,
      "хттпс": 1207,
      "кт": 1208,
      "намери": 1209,
      "около": 1210,
      "обича": 1211,
      "хттпс://": 1212,
      "ското": 1213,
      "побе": 1214,
      "гор": 1215,
      "ът": 1216,
      "тели": 1217,
      "злоба": 1218,
      "прилича": 1219,
      "смър": 1220,
      "вал": 1221,
      "хубаво": 1222,
      "кло": 1223,
      "едни": 1224,
      "украй": 1225,
      "ген": 1226,
      "ьор": 1227,
      "нато": 1228,
      "лице": 1229,
      "дай": 1230,
      "добро": 1231,
      "сту": 1232,
      "стру": 1233,
      "ней": 1234,
      "че,": 1235,
      "ския": 1236,
      "дебе": 1237,
      "ключи": 1238,
      "шко": 1239,
      "публи": 1240,
      "чели": 1241,
      "нове": 1242,
      "мята": 1243,
      "ма,": 1244,
      "предста": 1245,
      "ем": 1246,
      "следва": 1247,
      "шу": 1248,
      "отвра": 1249,
      "дари": 1250,
      "жалко": 1251,
      "кви": 1252,
      "яде": 1253,
      "авто": 1254,
      "сня": 1255,
      "вет": 1256,
      "поред": 1257,
      "логи": 1258,
      "дар": 1259,
      "телевизи": 1260,
      "горе": 1261,
      "стоя": 1262,
      "стан": 1263,
      "купи": 1264,
      "сми": 1265,
      "нари": 1266,
      "сите": 1267,
      "живота": 1268,
      "ер": 1269,
      "пусна": 1270,
      "падна": 1271,
      "свят": 1272,
      "наистина": 1273,
      "пишете": 1274,
      "бор": 1275,
      "дал": 1276,
      "ров": 1277,
      "ката.": 1278,
      "лин": 1279,
      "сам": 1280,
      "чув": 1281,
      "чете": 1282,
      "ния,": 1283,
      "вземе": 1284,
      "гли": 1285,
      "нията": 1286,
      "чуж": 1287,
      "гна": 1288,
      "лично": 1289,
      "българите": 1290,
      "......": 1291,
      "нема": 1292,
      "предаване": 1293,
      "хттп://": 1294,
      "и,": 1295,
      "жената": 1296,
      "герб": 1297,
      "искам": 1298,
      "ваме": 1299,
      "дия": 1300,
      "бен": 1301,
      "недо": 1302,
      "било": 1303,
      "вод": 1304,
      "софия": 1305,
      "мани": 1306,
      "ката,": 1307,
      "баща": 1308,
      "ват.": 1309,
      "защи": 1310,
      "ма.": 1311,
      "мозъ": 1312,
      "някои": 1313,
      "полови": 1314,
      "пси": 1315,
      "уста": 1316,
      "тат": 1317,
      "кто": 1318,
      "себе": 1319,
      "12": 1320,
      "зве": 1321,
      "лева": 1322,
      "са,": 1323,
      "връща": 1324,
      "ка!": 1325,
      "сед": 1326,
      "дядо": 1327,
      "пълно": 1328,
      "комп": 1329,
      "ули": 1330,
      "знаят": 1331,
      "ствено": 1332,
      "са.": 1333,
      "времето": 1334,
      "заслу": 1335,
      "реши": 1336,
      "сата": 1337,
      "пее": 1338,
      "еми": 1339,
      "нер": 1340,
      "джу": 1341,
      "селя": 1342,
      "твър": 1343,
      "гру": 1344,
      "очи": 1345,
      "гражда": 1346,
      "поз": 1347,
      "каквото": 1348,
      "чков": 1349,
      "нарко": 1350,
      "мири": 1351,
      "днес": 1352,
      "на!": 1353,
      "изле": 1354,
      "ват,": 1355,
      "сили": 1356,
      "съди": 1357,
      "държавата": 1358,
      "и.": 1359,
      "иде": 1360,
      "обаче": 1361,
      "вар": 1362,
      "вас": 1363,
      "се,": 1364,
      "ей,": 1365,
      "зако": 1366,
      "другите": 1367,
      "всяка": 1368,
      "харесва": 1369,
      "ния.": 1370,
      "вме": 1371,
      "подоб": 1372,
      "преде": 1373,
      "правя": 1374,
      "обе": 1375,
      "нямат": 1376,
      "аааа": 1377,
      "тъпо": 1378,
      "стри": 1379,
      "пълни": 1380,
      "щеше": 1381,
      "пет": 1382,
      "прие": 1383,
      "рията": 1384,
      "америка": 1385,
      "ис": 1386,
      "стли": 1387,
      "проте": 1388,
      "грозна": 1389,
      "глупа": 1390,
      "е!": 1391,
      "ляр": 1392,
      "стой": 1393,
      "яко": 1394,
      "жур": 1395,
      "рио": 1396,
      "госпо": 1397,
      "съз": 1398,
      "стен": 1399,
      "оръжи": 1400,
      "шата": 1401,
      "ция.": 1402,
      "хар": 1403,
      "шоу": 1404,
      "ел": 1405,
      "веро": 1406,
      "внима": 1407,
      "жен": 1408,
      "проду": 1409,
      "дро": 1410,
      "комен": 1411,
      "рази": 1412,
      "важ": 1413,
      "ствие": 1414,
      "коре": 1415,
      "света": 1416,
      "вка": 1417,
      "бизне": 1418,
      "тки": 1419,
      "ново": 1420,
      "имаш": 1421,
      "тука": 1422,
      "отда": 1423,
      "нямаше": 1424,
      "солю": 1425,
      "брат": 1426,
      "зла": 1427,
      "мисля": 1428,
      "кул": 1429,
      "момиче": 1430,
      "осо": 1431,
      "топ": 1432,
      "тер": 1433,
      "вика": 1434,
      "имаше": 1435,
      "хиля": 1436,
      "хора,": 1437,
      "мах": 1438,
      "кучета": 1439,
      "ция,": 1440,
      "тура": 1441,
      "търси": 1442,
      "лай": 1443,
      "гей": 1444,
      "сят": 1445,
      "д,": 1446,
      "слуша": 1447,
      "същ": 1448,
      "ви.": 1449,
      "нашите": 1450,
      "супер": 1451,
      "15": 1452,
      "нен": 1453,
      "ве,": 1454,
      "демокра": 1455,
      "ление": 1456,
      "!?": 1457,
      "вчера": 1458,
      ",но": 1459,
      "номи": 1460,
      "мне": 1461,
      "бъдат": 1462,
      "село": 1463,
      "страх": 1464,
      "реше": 1465,
      "терито": 1466,
      "според": 1467,
      "възра": 1468,
      "чва": 1469,
      "двамата": 1470,
      "чение": 1471,
      "нужда": 1472,
      "реа": 1473,
      "пример": 1474,
      "против": 1475,
      "иди": 1476,
      "пада": 1477,
      "ува": 1478,
      "манга": 1479,
      "форма": 1480,
      "наре": 1481,
      "тина": 1482,
      "изку": 1483,
      "ната.": 1484,
      "рта": 1485,
      "воде": 1486,
      "грам": 1487,
      "чак": 1488,
      "бри": 1489,
      "рекла": 1490,
      "бар": 1491,
      "същи": 1492,
      "свето": 1493,
      "извест": 1494,
      "дри": 1495,
      "пълен": 1496,
      "поле": 1497,
      "цялата": 1498,
      "абсолю": 1499,
      "нец": 1500,
      "любов": 1501,
      "аре": 1502,
      "собстве": 1503,
      "двете": 1504,
      "лта": 1505,
      "гот": 1506,
      "злоб": 1507,
      "бата": 1508,
      "бога": 1509,
      "връз": 1510,
      "сира": 1511,
      "губи": 1512,
      "ство.": 1513,
      "нете": 1514,
      "води": 1515,
      "имам": 1516,
      "спря": 1517,
      "тоа": 1518,
      "българия.": 1519,
      "смеш": 1520,
      "срам": 1521,
      "гръ": 1522,
      "пите": 1523,
      "възмо": 1524,
      "зле": 1525,
      "кое": 1526,
      "рни": 1527,
      "опреде": 1528,
      "!!!!!!!!": 1529,
      "накрая": 1530,
      "ристи": 1531,
      "тръг": 1532,
      "профе": 1533,
      "лкохо": 1534,
      "пан": 1535,
      "дера": 1536,
      "миляр": 1537,
      "зиден": 1538,
      "чава": 1539,
      "комплек": 1540,
      "дъще": 1541,
      "кър": 1542,
      "дойде": 1543,
      "останали": 1544,
      "бързо": 1545,
      "взи": 1546,
      "стър": 1547,
      "вместо": 1548,
      "ези": 1549,
      "бие": 1550,
      "очаква": 1551,
      "народа": 1552,
      "зависи": 1553,
      "праве": 1554,
      "живеят": 1555,
      "уж": 1556,
      "алкохо": 1557,
      "лев": 1558,
      "род": 1559,
      "вол": 1560,
      "европей": 1561,
      "зен": 1562,
      "кле": 1563,
      "здраве": 1564,
      "к!": 1565,
      "уче": 1566,
      "думи": 1567,
      "бa": 1568,
      "тв": 1569,
      "изра": 1570,
      "п.": 1571,
      "тни": 1572,
      "дан": 1573,
      "използ": 1574,
      "мин": 1575,
      "образо": 1576,
      "син": 1577,
      "ведна": 1578,
      "бих": 1579,
      "харес": 1580,
      "случай": 1581,
      "еле": 1582,
      "стви": 1583,
      "звез": 1584,
      "китай": 1585,
      "журнали": 1586,
      "такова": 1587,
      "виру": 1588,
      "ха.": 1589,
      "лига": 1590,
      "ико": 1591,
      "бойко": 1592,
      "жо": 1593,
      "мъл": 1594,
      "сил": 1595,
      "десе": 1596,
      "голямо": 1597,
      "к'": 1598,
      "ску": 1599,
      "х.": 1600,
      "герма": 1601,
      "скри": 1602,
      "чката": 1603,
      "посо": 1604,
      "уме": 1605,
      "проблеми": 1606,
      ")))": 1607,
      "президен": 1608,
      "тна": 1609,
      "веднага": 1610,
      "бло": 1611,
      "правител": 1612,
      "лип": 1613,
      "куче": 1614,
      "всякъде": 1615,
      "насе": 1616,
      "нем": 1617,
      "пара": 1618,
      "музи": 1619,
      "всичките": 1620,
      "интересува": 1621,
      "неш": 1622,
      "вода": 1623,
      "море": 1624,
      "причи": 1625,
      "същност": 1626,
      "особе": 1627,
      "ай": 1628,
      "бив": 1629,
      "сли": 1630,
      "вец": 1631,
      "боже": 1632,
      "сай": 1633,
      "държи": 1634,
      "добър": 1635,
      "война": 1636,
      "нци": 1637,
      "нася": 1638,
      "ва!": 1639,
      "йски": 1640,
      "бите": 1641,
      "фал": 1642,
      "фаши": 1643,
      "абе,": 1644,
      "кола": 1645,
      "мари": 1646,
      "прекра": 1647,
      "сов": 1648,
      "ятно": 1649,
      "ство,": 1650,
      "хa": 1651,
      "вайте": 1652,
      "мал": 1653,
      "занимавате": 1654,
      "нки": 1655,
      "лено": 1656,
      "тът": 1657,
      "хиляди": 1658,
      "оня": 1659,
      "русофи": 1660,
      "огра": 1661,
      "ните,": 1662,
      "отдавна": 1663,
      "кажа": 1664,
      "пера": 1665,
      "знаеш": 1666,
      "приятел": 1667,
      "сим": 1668,
      "получи": 1669,
      "ѝ": 1670,
      "кия": 1671,
      "цига": 1672,
      "добри": 1673,
      "отгово": 1674,
      "американ": 1675,
      "рти": 1676,
      "ле,": 1677,
      "ни!": 1678,
      "кът": 1679,
      "подкре": 1680,
      "/2": 1681,
      "шна": 1682,
      "гото": 1683,
      "излиза": 1684,
      "плати": 1685,
      "уча": 1686,
      "ч0": 1687,
      "пози": 1688,
      "ца,": 1689,
      "кни": 1690,
      "беле": 1691,
      "анти": 1692,
      "тала": 1693,
      "бит.": 1694,
      "некадър": 1695,
      "нати": 1696,
      "воен": 1697,
      "някоя": 1698,
      "остави": 1699,
      "изго": 1700,
      "истински": 1701,
      "ун": 1702,
      "потре": 1703,
      "утре": 1704,
      "изпъл": 1705,
      "ч.": 1706,
      "смет": 1707,
      "идва": 1708,
      "чко": 1709,
      "данъ": 1710,
      "дена": 1711,
      "та!": 1712,
      "почти": 1713,
      "въпрос": 1714,
      "начин": 1715,
      "ец": 1716,
      "варя": 1717,
      "дер": 1718,
      "черве": 1719,
      "отврати": 1720,
      "дъщеря": 1721,
      "есте": 1722,
      "смо": 1723,
      "пие": 1724,
      "купу": 1725,
      "страна": 1726,
      "бит.лъ": 1727,
      "казват": 1728,
      "смърт": 1729,
      "коментира": 1730,
      "бсп": 1731,
      "лв.": 1732,
      "напред": 1733,
      "съвсе": 1734,
      "всъщност": 1735,
      "режи": 1736,
      "добра": 1737,
      "българия,": 1738,
      "200": 1739,
      "е?": 1740,
      "мир": 1741,
      "свет": 1742,
      "седми": 1743,
      "написа": 1744,
      "нет": 1745,
      "аман": 1746,
      "обик": 1747,
      "бива": 1748,
      "главата": 1749,
      "нача": 1750,
      "можеш": 1751,
      "пълна": 1752,
      "пропа": 1753,
      "едва": 1754,
      "отново": 1755,
      "прода": 1756,
      "проме": 1757,
      "икономи": 1758,
      "имаме": 1759,
      "комунисти": 1760,
      "мати": 1761,
      "ната,": 1762,
      "спечели": 1763,
      "съвсем": 1764,
      "бол": 1765,
      "ееее": 1766,
      "тъп": 1767,
      "бит.лъ/2": 1768,
      "проститу": 1769,
      "съжа": 1770,
      "изма": 1771,
      "жение": 1772,
      "боле": 1773,
      "ток": 1774,
      "хахаха": 1775,
      "копей": 1776,
      "нин": 1777,
      "серио": 1778,
      "произ": 1779,
      "ми,": 1780,
      "цяла": 1781,
      "),": 1782,
      "ева": 1783,
      "щастли": 1784,
      "детето": 1785,
      "мни": 1786,
      "стa": 1787,
      "образова": 1788,
      "особено": 1789,
      "18": 1790,
      "наме": 1791,
      "нало": 1792,
      "достатъ": 1793,
      "физ": 1794,
      ").": 1795,
      "мв": 1796,
      "чев": 1797,
      "фан": 1798,
      "маха": 1799,
      "йка": 1800,
      "мент": 1801,
      "възпита": 1802,
      "ов": 1803,
      "йки": 1804,
      "чест": 1805,
      "лесно": 1806,
      "години.": 1807,
      "си!": 1808,
      "пути": 1809,
      "близ": 1810,
      "ч,": 1811,
      "дон": 1812,
      "жените": 1813,
      "съл": 1814,
      "интер": 1815,
      "мислят": 1816,
      "хайде": 1817,
      "лъже": 1818,
      "интересно": 1819,
      "лили": 1820,
      "избори": 1821,
      "погле": 1822,
      "вото": 1823,
      "посто": 1824,
      "съд": 1825,
      "нея.": 1826,
      "тан": 1827,
      "а,": 1828,
      "циган": 1829,
      "гласу": 1830,
      "заедно": 1831,
      "лира": 1832,
      "човека": 1833,
      "нормално": 1834,
      "ск": 1835,
      "они": 1836,
      "дове": 1837,
      "свърши": 1838,
      "0%": 1839,
      "сце": 1840,
      "цу": 1841,
      "имало": 1842,
      "дени": 1843,
      "моля": 1844,
      "тоз": 1845,
      "коко": 1846,
      "дума": 1847,
      "гъл": 1848,
      "поста": 1849,
      "сами": 1850,
      "ници,": 1851,
      "бяга": 1852,
      "отиде": 1853,
      "дале": 1854,
      "ческа": 1855,
      "дет": 1856,
      "лище": 1857,
      "заба": 1858,
      "нява": 1859,
      "шия": 1860,
      "ковид": 1861,
      "ад": 1862,
      "дел": 1863,
      "град": 1864,
      "момента": 1865,
      "геро": 1866,
      "човек,": 1867,
      "спя": 1868,
      "бях": 1869,
      "огро": 1870,
      "маке": 1871,
      "рез": 1872,
      "ди,": 1873,
      "разни": 1874,
      "пут": 1875,
      "така,": 1876,
      "люби": 1877,
      "вярно": 1878,
      "гледай": 1879,
      "лък": 1880,
      "фалши": 1881,
      "пост": 1882,
      "дели": 1883,
      "престъп": 1884,
      "изя": 1885,
      "акт": 1886,
      "същест": 1887,
      "еш": 1888,
      "нама": 1889,
      "кал": 1890,
      "новен": 1891,
      "родите": 1892,
      "болни": 1893,
      "фак": 1894,
      "по-добре": 1895,
      "слава": 1896,
      "войната": 1897,
      "ат": 1898,
      "обър": 1899,
      "кари": 1900,
      "ръце": 1901,
      "т.н.": 1902,
      "лв": 1903,
      "пти": 1904,
      "поръ": 1905,
      "пят": 1906,
      "тят": 1907,
      "някакви": 1908,
      "ца.": 1909,
      "говорят": 1910,
      "ива": 1911,
      "въобще": 1912,
      "сур": 1913,
      "органи": 1914,
      "хубава": 1915,
      "арти": 1916,
      "влиза": 1917,
      "бер": 1918,
      "цето": 1919,
      "осъ": 1920,
      "теж": 1921,
      "мария": 1922,
      ",не": 1923,
      "шни": 1924,
      "ваше": 1925,
      "рек": 1926,
      "систе": 1927,
      "пишат": 1928,
      "й.": 1929,
      "телна": 1930,
      "показва": 1931,
      "бе!": 1932,
      "мби": 1933,
      "нс": 1934,
      "винов": 1935,
      "лена": 1936,
      "глава": 1937,
      "глави": 1938,
      "русия.": 1939,
      "запад": 1940,
      "бог": 1941,
      "уми": 1942,
      "рад": 1943,
      "върши": 1944,
      "сложи": 1945,
      "туа": 1946,
      "тото": 1947,
      "оооо": 1948,
      "млади": 1949,
      "ключително": 1950,
      "боли": 1951,
      "гради": 1952,
      "евре": 1953,
      "руските": 1954,
      "осно": 1955,
      "ражда": 1956,
      "рачков": 1957,
      "отноше": 1958,
      "момче": 1959,
      "ана": 1960,
      "кило": 1961,
      "гати": 1962,
      "м!": 1963,
      "ло,": 1964,
      "него.": 1965,
      "рени": 1966,
      "голе": 1967,
      "пропаган": 1968,
      "ко,": 1969,
      "мало": 1970,
      "чести": 1971,
      "долу": 1972,
      "души": 1973,
      "вземат": 1974,
      "теро": 1975,
      "рът": 1976,
      "месец": 1977,
      "усло": 1978,
      "чните": 1979,
      "опит": 1980,
      "оправи": 1981,
      "пп": 1982,
      "унищо": 1983,
      "съвет": 1984,
      "пусне": 1985,
      "иван": 1986,
      "телите": 1987,
      "единстве": 1988,
      "видим": 1989,
      "красива": 1990,
      "талант": 1991,
      "малки": 1992,
      "сети": 1993,
      "вед": 1994,
      "сти,": 1995,
      "въл": 1996,
      "гос": 1997,
      "песен": 1998,
      "алек": 1999,
      "разбере": 2000,
      "соф": 2001,
      "гласува": 2002,
      "дуп": 2003,
      "дви": 2004,
      "с!": 2005,
      "рай": 2006,
      "пат": 2007,
      "ваксинира": 2008,
      "изто": 2009,
      "лети": 2010,
      "ните.": 2011,
      "вам,": 2012,
      "забрави": 2013,
      "магази": 2014,
      "ела": 2015,
      "л!": 2016,
      "нан": 2017,
      "целия": 2018,
      "жa": 2019,
      "зма": 2020,
      "вин": 2021,
      "физи": 2022,
      "жде": 2023,
      "освобо": 2024,
      "вести": 2025,
      "нските": 2026,
      "прa": 2027,
      "мате": 2028,
      "изче": 2029,
      "пиян": 2030,
      "ници.": 2031,
      "))))))))": 2032,
      "името": 2033,
      "грамот": 2034,
      "раде": 2035,
      "паза": 2036,
      "управлява": 2037,
      "вероятно": 2038,
      "дли": 2039,
      "смя": 2040,
      "парла": 2041,
      "ссс": 2042,
      "осигу": 2043,
      "газ": 2044,
      "падне": 2045,
      "избо": 2046,
      ".......": 2047,
      "искаш": 2048,
      "слави": 2049,
      "излезе": 2050,
      "мине": 2051,
      "сти.": 2052,
      "плате": 2053,
      "трябваше": 2054,
      "история": 2055,
      "нска": 2056,
      "соця": 2057,
      "пари.": 2058,
      "кю": 2059,
      "озна": 2060,
      "участ": 2061,
      "мину": 2062,
      "коли": 2063,
      "202": 2064,
      "помощ": 2065,
      "рски": 2066,
      "пор": 2067,
      "мора": 2068,
      "някаква": 2069,
      "зелен": 2070,
      "добре,": 2071,
      "оф": 2072,
      "резу": 2073,
      "отво": 2074,
      "цигани": 2075,
      "ците.": 2076,
      "изби": 2077,
      "певица": 2078,
      "крити": 2079,
      "първи": 2080,
      "убий": 2081,
      "бю": 2082,
      "вля": 2083,
      "кам": 2084,
      "лението": 2085,
      "тъй": 2086,
      "случи": 2087,
      "защита": 2088,
      "носи": 2089,
      "куро": 2090,
      "аф": 2091,
      "повечето": 2092,
      "((": 2093,
      "врат": 2094,
      "нагла": 2095,
      "задъл": 2096,
      "маз": 2097,
      "ците,": 2098,
      "държави": 2099,
      "ав": 2100,
      "уни": 2101,
      "!!!!!": 2102,
      "цъ": 2103,
      "киф": 2104,
      "йй": 2105,
      "някъде": 2106,
      "къл": 2107,
      "хем": 2108,
      "неу": 2109,
      "призна": 2110,
      "русия,": 2111,
      "полица": 2112,
      "виждам": 2113,
      "***,": 2114,
      "карат": 2115,
      "руската": 2116,
      "простотия": 2117,
      "господ": 2118,
      "мна": 2119,
      "доказа": 2120,
      "здрави": 2121,
      "г-": 2122,
      "м/": 2123,
      "вътре": 2124,
      "тъпи": 2125,
      "ход": 2126,
      "хахахаха": 2127,
      "боклук": 2128,
      "киев": 2129,
      "гледат": 2130,
      "вки": 2131,
      "рова": 2132,
      "ми.": 2133,
      "кура": 2134,
      "сметка": 2135,
      "благода": 2136,
      "слъ": 2137,
      "показа": 2138,
      "пази": 2139,
      "бед": 2140,
      "върху": 2141,
      "ори": 2142,
      "цa": 2143,
      "къщи": 2144,
      "фей": 2145,
      "парца": 2146,
      "двама": 2147,
      "двой": 2148,
      "енер": 2149,
      "пли": 2150,
      "рак": 2151,
      "бия": 2152,
      "стават": 2153,
      "това.": 2154,
      "гов": 2155,
      "дът": 2156,
      "позво": 2157,
      "бръ": 2158,
      "пожела": 2159,
      "ствен": 2160,
      "разви": 2161,
      "ник.": 2162,
      "чките": 2163,
      "тота": 2164,
      "живи": 2165,
      "ване.": 2166,
      "години,": 2167,
      "кали": 2168,
      "лени": 2169,
      "излъ": 2170,
      "педера": 2171,
      "гент": 2172,
      "ността": 2173,
      "нъж": 2174,
      "продава": 2175,
      "майката": 2176,
      "ве.": 2177,
      "шеф": 2178,
      "дърта": 2179,
      "слага": 2180,
      "понеже": 2181,
      "хора.": 2182,
      "нев": 2183,
      "циви": 2184,
      "нямам": 2185,
      "истината": 2186,
      "жни": 2187,
      "мл": 2188,
      "сеща": 2189,
      "правиш": 2190,
      "пари,": 2191,
      "зъм": 2192,
      "работят": 2193,
      "инди": 2194,
      "взема": 2195,
      "мест": 2196,
      "кин": 2197,
      "земята": 2198,
      "финан": 2199,
      "бе?": 2200,
      "избра": 2201,
      "тури": 2202,
      "украйна.": 2203,
      "лъжи": 2204,
      "ид": 2205,
      "лните": 2206,
      "живя": 2207,
      "тях.": 2208,
      "получа": 2209,
      "снимката": 2210,
      "спира": 2211,
      "достатъчно": 2212,
      "каче": 2213,
      "не!": 2214,
      "дома": 2215,
      "стара": 2216,
      "обрат": 2217,
      "власт": 2218,
      "11": 2219,
      "шката": 2220,
      "напи": 2221,
      "закон": 2222,
      "стран": 2223,
      "постоян": 2224,
      "същото": 2225,
      "зли": 2226,
      "пру": 2227,
      "фон": 2228,
      "ш0": 2229,
      "голямата": 2230,
      "научи": 2231,
      "гата": 2232,
      "изпра": 2233,
      "гала": 2234,
      "украинка": 2235,
      "жъл": 2236,
      "кс": 2237,
      "лов": 2238,
      "статия": 2239,
      "няма.": 2240,
      "работа.": 2241,
      "интели": 2242,
      "а?": 2243,
      "б.": 2244,
      "кажи": 2245,
      "спеця": 2246,
      "?!?": 2247,
      "стъпле": 2248,
      "дс": 2249,
      "тошо": 2250,
      "масо": 2251,
      "въпре": 2252,
      "снощи": 2253,
      "месеца": 2254,
      "чка.": 2255,
      "нощ": 2256,
      "сер": 2257,
      "жават": 2258,
      "остава": 2259,
      "сигурност": 2260,
      "победи": 2261,
      "пв": 2262,
      "удари": 2263,
      "юз": 2264,
      "бера": 2265,
      "ряза": 2266,
      "скан": 2267,
      "ели": 2268,
      "навсякъде": 2269,
      "маги": 2270,
      "поведе": 2271,
      "питам": 2272,
      "***.": 2273,
      "среща": 2274,
      "--------": 2275,
      "борисов": 2276,
      "поди": 2277,
      "върви": 2278,
      "новина": 2279,
      "подобни": 2280,
      "мама": 2281,
      "младо": 2282,
      "важното": 2283,
      "слън": 2284,
      "али": 2285,
      "смята": 2286,
      "пода": 2287,
      "доха": 2288,
      "ло.": 2289,
      "сът": 2290,
      "рите.": 2291,
      "сутри": 2292,
      "казал": 2293,
      "опита": 2294,
      "евти": 2295,
      "обикнове": 2296,
      "личи": 2297,
      "статията": 2298,
      "бута": 2299,
      "спокой": 2300,
      "парти": 2301,
      "откри": 2302,
      "ци!": 2303,
      "...и": 2304,
      "стои": 2305,
      "бул": 2306,
      "умре": 2307,
      "нът": 2308,
      ":)))": 2309,
      "рки": 2310,
      "ме,": 2311,
      "те!": 2312,
      "краса": 2313,
      "половината": 2314,
      "родни": 2315,
      "гар": 2316,
      "мор": 2317,
      "изкара": 2318,
      "семейство": 2319,
      "оце": 2320,
      "рани": 2321,
      "мене": 2322,
      "дово": 2323,
      "присъ": 2324,
      "ята.": 2325,
      "коментари": 2326,
      "фро": 2327,
      "деля": 2328,
      "пати": 2329,
      "жението": 2330,
      "рите,": 2331,
      "хри": 2332,
      "някога": 2333,
      "страната": 2334,
      "успех": 2335,
      "оли": 2336,
      "помага": 2337,
      "никаква": 2338,
      "виде": 2339,
      "ник,": 2340,
      "украйна,": 2341,
      "рано": 2342,
      "миси": 2343,
      "нещаст": 2344,
      "офи": 2345,
      "яя": 2346,
      "правилно": 2347,
      "здраво": 2348,
      "ети.": 2349,
      "мера": 2350,
      "дош": 2351,
      "прове": 2352,
      "фир": 2353,
      "лът": 2354,
      "курва": 2355,
      "опера": 2356,
      "успя": 2357,
      "радва": 2358,
      "събра": 2359,
      "ят.": 2360,
      "щия": 2361,
      "служ": 2362,
      "сериоз": 2363,
      "ау": 2364,
      "зер": 2365,
      "украинците": 2366,
      "фъ": 2367,
      "извън": 2368,
      "ха-": 2369,
      "хал": 2370,
      "възду": 2371,
      "играе": 2372,
      "цър": 2373,
      "често": 2374,
      "някакъв": 2375,
      "плаши": 2376,
      "национа": 2377,
      "хти": 2378,
      "поре": 2379,
      "дил": 2380,
      "съществу": 2381,
      "ети.пв": 2382,
      "лекар": 2383,
      "обла": 2384,
      "новата": 2385,
      "диa": 2386,
      "дупе": 2387,
      "гъза": 2388,
      "хттпс://бит.лъ/2": 2389,
      "к'во": 2390,
      "пс": 2391,
      "поя": 2392,
      "роб": 2393,
      "бур": 2394,
      "високо": 2395,
      "г,": 2396,
      "цве": 2397,
      "ш!": 2398,
      "права": 2399,
      "гия": 2400,
      "тък": 2401,
      "25": 2402,
      "мафи": 2403,
      "цион": 2404,
      "вечер": 2405,
      "компа": 2406,
      "жу": 2407,
      "нена": 2408,
      "мара": 2409,
      "жива": 2410,
      "държат": 2411,
      "здрав": 2412,
      "поредната": 2413,
      "израел": 2414,
      "тари": 2415,
      "кате": 2416,
      "тик": 2417,
      "гори": 2418,
      "съпру": 2419,
      "акъл": 2420,
      "кани": 2421,
      "киро": 2422,
      "13": 2423,
      "тряб": 2424,
      "последните": 2425,
      "сват": 2426,
      "йо": 2427,
      "му.": 2428,
      "анг": 2429,
      "ита": 2430,
      "каш": 2431,
      "нещата": 2432,
      "чени": 2433,
      "стар": 2434,
      "хвърля": 2435,
      "раке": 2436,
      "независи": 2437,
      "загуби": 2438,
      "реша": 2439,
      "чудо": 2440,
      "армия": 2441,
      "нагло": 2442,
      "важно": 2443,
      "ме.": 2444,
      "пача": 2445,
      "прият": 2446,
      "обръ": 2447,
      "блиц": 2448,
      "милиона": 2449,
      "мба": 2450,
      "шните": 2451,
      "кор": 2452,
      "дола": 2453,
      "ститу": 2454,
      "кува": 2455,
      "министър": 2456,
      "останалите": 2457,
      "80": 2458,
      "малка": 2459,
      "леле": 2460,
      "тхе": 2461,
      "тебе": 2462,
      "кору": 2463,
      "пала": 2464,
      "гене": 2465,
      "рката": 2466,
      "чка,": 2467,
      "шките": 2468,
      "дала": 2469,
      "значение": 2470,
      "цели": 2471,
      "пука": 2472,
      "говорим": 2473,
      "\"!": 2474,
      "вци": 2475,
      "програ": 2476,
      "приказ": 2477,
      "абсолютно": 2478,
      "ядре": 2479,
      "излага": 2480,
      "прост": 2481,
      "менно": 2482,
      "фут": 2483,
      "неграмот": 2484,
      "ясно,": 2485,
      "проблем": 2486,
      "бизнес": 2487,
      "възможно": 2488,
      "17": 2489,
      "нение": 2490,
      "сила": 2491,
      "изви": 2492,
      "струва": 2493,
      "реално": 2494,
      "н!": 2495,
      "нау": 2496,
      "пале": 2497,
      "късно": 2498,
      "знаем": 2499,
      "въпреки": 2500,
      "агре": 2501,
      "ете": 2502,
      "дин": 2503,
      "стани": 2504,
      "краката": 2505,
      "напълно": 2506,
      "ди.": 2507,
      "снимка": 2508,
      "дко": 2509,
      "таз": 2510,
      "зата": 2511,
      "мето": 2512,
      "информа": 2513,
      "човече": 2514,
      "зва": 2515,
      "член": 2516,
      "наред": 2517,
      "тори": 2518,
      "остана": 2519,
      "взима": 2520,
      "сква": 2521,
      "лета": 2522,
      "дол": 2523,
      "работата": 2524,
      "строи": 2525,
      "мля": 2526,
      "обо": 2527,
      "пата": 2528,
      "съгла": 2529,
      "глей": 2530,
      "смени": 2531,
      "там.": 2532,
      "четата": 2533,
      "заплата": 2534,
      "уууу": 2535,
      "фф": 2536,
      "телни": 2537,
      "егати": 2538,
      "увели": 2539,
      "трябвало": 2540,
      "нени": 2541,
      "измисле": 2542,
      "краде": 2543,
      "ване,": 2544,
      "вижте": 2545,
      "оръжие": 2546,
      "дво": 2547,
      "кции": 2548,
      "рана": 2549,
      "во.": 2550,
      "рял": 2551,
      "знаете": 2552,
      "1ш": 2553,
      "нд": 2554,
      "бара": 2555,
      "гите": 2556,
      "чита": 2557,
      "интересу": 2558,
      "музика": 2559,
      "екра": 2560,
      "дом": 2561,
      "рява": 2562,
      "2-": 2563,
      "вните": 2564,
      "то!": 2565,
      "се.": 2566,
      "туй": 2567,
      "върне": 2568,
      "продължава": 2569,
      "заслужава": 2570,
      "кта": 2571,
      "тко": 2572,
      "нещо,": 2573,
      "постоянно": 2574,
      "чрез": 2575,
      "произве": 2576,
      "ходя": 2577,
      "70": 2578,
      "направят": 2579,
      "типи": 2580,
      "разуме": 2581,
      "посол": 2582,
      "__": 2583,
      "ит": 2584,
      "ц.": 2585,
      "га.": 2586,
      "стари": 2587,
      "часа": 2588,
      "ски,": 2589,
      "страни": 2590,
      "актри": 2591,
      "предаването": 2592,
      "оправ": 2593,
      "меч": 2594,
      "отколкото": 2595,
      "лица": 2596,
      "рови": 2597,
      "писна": 2598,
      "ята,": 2599,
      "крайно": 2600,
      "техните": 2601,
      "протести": 2602,
      ":д": 2603,
      "ази": 2604,
      "фран": 2605,
      "рок": 2606,
      "доса": 2607,
      "бират": 2608,
      "чисто": 2609,
      "лъжа": 2610,
      "македо": 2611,
      "о,": 2612,
      "пове": 2613,
      "мени": 2614,
      "българските": 2615,
      "плащат": 2616,
      "трудно": 2617,
      "нтите": 2618,
      "простотии": 2619,
      "коментарите": 2620,
      "ииии": 2621,
      "радев": 2622,
      "зя": 2623,
      "тея": 2624,
      "виновен": 2625,
      "бият": 2626,
      "зеле": 2627,
      "ебати": 2628,
      "германия": 2629,
      "елек": 2630,
      "пля": 2631,
      "посред": 2632,
      "черно": 2633,
      "изключително": 2634,
      "работа,": 2635,
      "големите": 2636,
      "обясня": 2637,
      "кват": 2638,
      "ла!": 2639,
      "мена": 2640,
      "жена,": 2641,
      "преми": 2642,
      "ждат": 2643,
      "хваща": 2644,
      "нарича": 2645,
      "ложи": 2646,
      "рия,": 2647,
      "ствени": 2648,
      "андре": 2649,
      "мраз": 2650,
      "покаже": 2651,
      "руска": 2652,
      "зова": 2653,
      "око": 2654,
      "наши": 2655,
      "вени": 2656,
      "баби": 2657,
      "дълго": 2658,
      "възраст": 2659,
      "измисли": 2660,
      "отива": 2661,
      "кру": 2662,
      "наше": 2663,
      "за.": 2664,
      "реди": 2665,
      "места": 2666,
      "дой": 2667,
      "менти": 2668,
      "кеф": 2669,
      "елемента": 2670,
      "вната": 2671,
      "опла": 2672,
      "леко": 2673,
      "депу": 2674,
      "хората.": 2675,
      "джен": 2676,
      "2.": 2677,
      "500": 2678,
      "съюз": 2679,
      "боко": 2680,
      "украинци": 2681,
      "разлика": 2682,
      "жал": 2683,
      "хубави": 2684,
      "ницата": 2685,
      "помни": 2686,
      "пенсионе": 2687,
      "ени": 2688,
      "училище": 2689,
      "мъжете": 2690,
      "зрите": 2691,
      "чa": 2692,
      "нах": 2693,
      "наду": 2694,
      "изва": 2695,
      "минава": 2696,
      "канди": 2697,
      "президент": 2698,
      "жна": 2699,
      "р!": 2700,
      "загу": 2701,
      "во,": 2702,
      "ден.": 2703,
      "първа": 2704,
      "професи": 2705,
      "помисли": 2706,
      "ланти": 2707,
      "верно": 2708,
      "миш": 2709,
      "така.": 2710,
      "селски": 2711,
      "вну": 2712,
      "гни": 2713,
      "см": 2714,
      "откъде": 2715,
      "крава": 2716,
      "снимки": 2717,
      "емо": 2718,
      "тон": 2719,
      "никакъв": 2720,
      "зае": 2721,
      "че.": 2722,
      "ба.": 2723,
      "прите": 2724,
      "човек.": 2725,
      "устата": 2726,
      "рю": 2727,
      "кана": 2728,
      "чети": 2729,
      "интелек": 2730,
      "гъзъ": 2731,
      "нк": 2732,
      "каме": 2733,
      "мой": 2734,
      "центра": 2735,
      "пиш": 2736,
      "общи": 2737,
      "бле": 2738,
      "чудя": 2739,
      "искате": 2740,
      "урл": 2741,
      "талантли": 2742,
      "бг.": 2743,
      "ст!": 2744,
      "циите": 2745,
      "държава,": 2746,
      "контро": 2747,
      "цом/": 2748,
      "мръзна": 2749,
      "трябват": 2750,
      "300": 2751,
      "порно": 2752,
      "зин": 2753,
      "безпла": 2754,
      "остане": 2755,
      "всяко": 2756,
      "реклама": 2757,
      "далеч": 2758,
      "ебе": 2759,
      "онал": 2760,
      "тици": 2761,
      "приме": 2762,
      "цялото": 2763,
      "фин": 2764,
      "нашата": 2765,
      "рии": 2766,
      "откра": 2767,
      "дирек": 2768,
      "там,": 2769,
      "ствена": 2770,
      "храни": 2771,
      "медии": 2772,
      "използва": 2773,
      "рна": 2774,
      "ъо": 2775,
      "наи": 2776,
      "рение": 2777,
      "гол": 2778,
      "ба,": 2779,
      "майму": 2780,
      "втори": 2781,
      "американски": 2782,
      "актьор": 2783,
      "с-": 2784,
      "заха": 2785,
      "поради": 2786,
      "работе": 2787,
      "затвора": 2788,
      "пускат": 2789,
      "очите": 2790,
      "подигра": 2791,
      "никакви": 2792,
      "изпи": 2793,
      "самочув": 2794,
      "българския": 2795,
      "тне": 2796,
      "уника": 2797,
      "нару": 2798,
      "листи": 2799,
      "рира": 2800,
      "тези,": 2801,
      "комплекса": 2802,
      "веднъж": 2803,
      "ктор": 2804,
      "сезо": 2805,
      "тие": 2806,
      "гадже": 2807,
      "песни": 2808,
      "грозно": 2809,
      "помня": 2810,
      "паметник": 2811,
      "щяха": 2812,
      "внимание": 2813,
      "означава": 2814,
      "блъ": 2815,
      "гнат": 2816,
      "ох": 2817,
      "лапа": 2818,
      "кира": 2819,
      "берат": 2820,
      "зите": 2821,
      "предава": 2822,
      "ляват": 2823,
      "конце": 2824,
      "половин": 2825,
      "гно": 2826,
      "тек": 2827,
      "можем": 2828,
      "мът": 2829,
      "шенген": 2830,
      "1ч": 2831,
      "умен": 2832,
      "нета": 2833,
      "досега": 2834,
      "достой": 2835,
      "второ": 2836,
      "фашист": 2837,
      "бтв": 2838,
      "грa": 2839,
      "наказа": 2840,
      "проце": 2841,
      "кол": 2842,
      "завижда": 2843,
      "мачка": 2844,
      "повяр": 2845,
      "избира": 2846,
      "петро": 2847,
      "правим": 2848,
      "искаме": 2849,
      "случва": 2850,
      "другия": 2851,
      ";)": 2852,
      "мра": 2853,
      "п,": 2854,
      "пое": 2855,
      "митро": 2856,
      "жена.": 2857,
      "умни": 2858,
      "вта": 2859,
      "дайте": 2860,
      "фици": 2861,
      "същия": 2862,
      "ам": 2863,
      "ефе": 2864,
      "лека": 2865,
      "прека": 2866,
      "новите": 2867,
      "фору": 2868,
      "техно": 2869,
      "злобни": 2870,
      "90": 2871,
      "сму": 2872,
      "напра": 2873,
      "воля": 2874,
      "пал": 2875,
      "българин": 2876,
      "атланти": 2877,
      "&#": 2878,
      ",за": 2879,
      "наде": 2880,
      "единствено": 2881,
      "слаб": 2882,
      "другото": 2883,
      "забравя": 2884,
      "например": 2885,
      "да!": 2886,
      "чиста": 2887,
      "психо": 2888,
      "мангал": 2889,
      "печат": 2890,
      "нищо.": 2891,
      "бъдете": 2892,
      "вдига": 2893,
      "%д": 2894,
      "несе": 2895,
      "кварта": 2896,
      "бъдеще": 2897,
      "обясни": 2898,
      "секс": 2899,
      "мм": 2900,
      "пка": 2901,
      "сните": 2902,
      "кора": 2903,
      "редо": 2904,
      "си?": 2905,
      "дипло": 2906,
      "догово": 2907,
      "бе.": 2908,
      "същата": 2909,
      "ят,": 2910,
      "жалки": 2911,
      "търсят": 2912,
      "всякакви": 2913,
      "видях": 2914,
      "диaрия": 2915,
      "блу": 2916,
      "принци": 2917,
      "с.ети.пв": 2918,
      "нарече": 2919,
      "задължи": 2920,
      "ими": 2921,
      "стигне": 2922,
      "имa": 2923,
      "по-малко": 2924,
      "оная": 2925,
      "ара": 2926,
      "рил": 2927,
      "проек": 2928,
      "късме": 2929,
      "предлага": 2930,
      "момичето": 2931,
      "журналисти": 2932,
      "вкара": 2933,
      "намира": 2934,
      "вис": 2935,
      "отврат": 2936,
      "спрете": 2937,
      "създа": 2938,
      "палести": 2939,
      ",да": 2940,
      "пеев": 2941,
      "вку": 2942,
      "оказа": 2943,
      "ли!": 2944,
      "мести": 2945,
      "стие": 2946,
      "приро": 2947,
      "ръка": 2948,
      "обу": 2949,
      "чуде": 2950,
      "ките.": 2951,
      "филм": 2952,
      "аец": 2953,
      "отър": 2954,
      "т.е.": 2955,
      "еее": 2956,
      "кремъл": 2957,
      "рускиня,": 2958,
      "език": 2959,
      "вала": 2960,
      "заглави": 2961,
      "пече": 2962,
      "върти": 2963,
      "партия": 2964,
      "руснаци": 2965,
      "психи": 2966,
      "еже": 2967,
      "мпи": 2968,
      "ш?": 2969,
      "ронa": 2970,
      "върна": 2971,
      "служи": 2972,
      "представя": 2973,
      "харесвам": 2974,
      "правителство": 2975,
      "отговорно": 2976,
      "христи": 2977,
      "чите": 2978,
      "грозни": 2979,
      "копа": 2980,
      "мон": 2981,
      "няват": 2982,
      "продават": 2983,
      "педал": 2984,
      "прили": 2985,
      "мъжа": 2986,
      "ден,": 2987,
      "слав": 2988,
      "обижда": 2989,
      "срав": 2990,
      "мястото": 2991,
      "==": 2992,
      "мац": 2993,
      "мутра": 2994,
      "брат,": 2995,
      "можа": 2996,
      "докара": 2997,
      "шев": 2998,
      "ждане": 2999,
      "предни": 3000,
      "джия": 3001,
      "милионе": 3002,
      "проблема": 3003,
      "интелигент": 3004,
      "омръзна": 3005,
      "но!": 3006,
      "отзад": 3007,
      "сал": 3008,
      "стя": 3009,
      "пад": 3010,
      "знае,": 3011,
      "духа": 3012,
      "спор": 3013,
      "починали": 3014,
      "технологи": 3015,
      "оче": 3016,
      "хване": 3017,
      "колата": 3018,
      "га,": 3019,
      "баси": 3020,
      "купа": 3021,
      "простотията": 3022,
      "фотошо": 3023,
      "чужби": 3024,
      "обеща": 3025,
      "умно": 3026,
      "говаря": 3027,
      "моде": 3028,
      "станал": 3029,
      "боклуци": 3030,
      "влезе": 3031,
      "манипу": 3032,
      "\"...": 3033,
      "рчо": 3034,
      "отде": 3035,
      "ходят": 3036,
      "повече.": 3037,
      "желая": 3038,
      "сексу": 3039,
      "седмица": 3040,
      "ваня": 3041,
      "гай": 3042,
      "помогне": 3043,
      "семейството": 3044,
      "хвърли": 3045,
      "-а": 3046,
      "чната": 3047,
      "страда": 3048,
      "курве": 3049,
      "изнена": 3050,
      "красавица": 3051,
      "з.": 3052,
      "натра": 3053,
      "задни": 3054,
      "целу": 3055,
      "пъту": 3056,
      "хит": 3057,
      "цяло": 3058,
      "онзи": 3059,
      "вале": 3060,
      "контра": 3061,
      "рмата": 3062,
      "ссср": 3063,
      "обръща": 3064,
      "нците": 3065,
      "пки": 3066,
      "шната": 3067,
      "гара": 3068,
      "бал": 3069,
      "це,": 3070,
      "чуди": 3071,
      "търпи": 3072,
      "началото": 3073,
      "хля": 3074,
      "мали": 3075,
      "готи": 3076,
      "изкар": 3077,
      "къща": 3078,
      "бездар": 3079,
      "вaт": 3080,
      "украински": 3081,
      "умря": 3082,
      "лиг": 3083,
      "рей": 3084,
      "бето": 3085,
      "практи": 3086,
      "турата": 3087,
      "................": 3088,
      "кмет": 3089,
      "север": 3090,
      "ром": 3091,
      "1000": 3092,
      "ландия": 3093,
      "преднисо": 3094,
      "е...": 3095,
      "нави": 3096,
      "мизе": 3097,
      "докога": 3098,
      "цоронa": 3099,
      "видиш": 3100,
      "възмож": 3101,
      "вз": 3102,
      "фли": 3103,
      "кове": 3104,
      "нята": 3105,
      "би,": 3106,
      "заплати": 3107,
      "дка": 3108,
      "чния": 3109,
      "ваха": 3110,
      "отре": 3111,
      "имате": 3112,
      "бт": 3113,
      "номер": 3114,
      "ствата": 3115,
      "моя": 3116,
      "пробва": 3117,
      "печал": 3118,
      "пътя": 3119,
      "стер": 3120,
      "паметника": 3121,
      "алкохоли": 3122,
      "ежедне": 3123,
      "т!": 3124,
      "шве": 3125,
      "метра": 3126,
      "стати": 3127,
      "гледаме": 3128,
      "хич": 3129,
      "персо": 3130,
      "бърка": 3131,
      "лицето": 3132,
      "идиот": 3133,
      "шъ": 3134,
      "кажат": 3135,
      "радо": 3136,
      "сама": 3137,
      "хап": 3138,
      "лното": 3139,
      "рф": 3140,
      "орги": 3141,
      "казвам": 3142,
      "кaто": 3143,
      "дреме": 3144,
      "селска": 3145,
      "ужас": 3146,
      "христо": 3147,
      "цоронaвиру": 3148,
      "кото": 3149,
      "съве": 3150,
      "ност.": 3151,
      "пияна": 3152,
      "ограни": 3153,
      "2ч": 3154,
      "вв": 3155,
      "капита": 3156,
      "подо": 3157,
      "бели": 3158,
      "цел": 3159,
      "близо": 3160,
      "разбирам": 3161,
      "другата": 3162,
      "дръж": 3163,
      "парламента": 3164,
      "убе": 3165,
      "рам": 3166,
      "ниско": 3167,
      "мале": 3168,
      "поро": 3169,
      "печели": 3170,
      "ше,": 3171,
      "им.": 3172,
      "българската": 3173,
      "арми": 3174,
      "различни": 3175,
      "тоалет": 3176,
      "преднисоне": 3177,
      "наш": 3178,
      "непре": 3179,
      "копе": 3180,
      "боя": 3181,
      "хората,": 3182,
      "страхот": 3183,
      "плъ": 3184,
      "употре": 3185,
      "на?": 3186,
      "пора": 3187,
      "видите": 3188,
      "доку": 3189,
      "праща": 3190,
      "стия": 3191,
      "обви": 3192,
      "време.": 3193,
      "родителите": 3194,
      "бюдже": 3195,
      "независимо": 3196,
      "яй": 3197,
      "гове": 3198,
      "дено": 3199,
      "нали?": 3200,
      "тия,": 3201,
      "грозен": 3202,
      "разбрах": 3203,
      "нсо": 3204,
      "оно": 3205,
      "надя": 3206,
      "никъде": 3207,
      "вил": 3208,
      "нямаш": 3209,
      "можеше": 3210,
      "зни": 3211,
      "нос": 3212,
      "състоя": 3213,
      "акти": 3214,
      "ценно": 3215,
      "пожелавам": 3216,
      "реги": 3217,
      "ресур": 3218,
      "избяга": 3219,
      "жерт": 3220,
      "промя": 3221,
      "инф": 3222,
      "рия.": 3223,
      "лъж": 3224,
      "нормален": 3225,
      "занимава": 3226,
      "автомо": 3227,
      "територията": 3228,
      "резулта": 3229,
      "вдо": 3230,
      "кме": 3231,
      "обез": 3232,
      "пте": 3233,
      "качи": 3234,
      "макар": 3235,
      "стват": 3236,
      "минима": 3237,
      "изтре": 3238,
      "бала": 3239,
      "пречи": 3240,
      "много,": 3241,
      "малкото": 3242,
      "ност,": 3243,
      "гъз": 3244,
      "американците": 3245,
      "система": 3246,
      "килогра": 3247,
      "афри": 3248,
      "необ": 3249,
      "силно": 3250,
      "цар": 3251,
      "шиба": 3252,
      "вява": 3253,
      "ваксини": 3254,
      "селян": 3255,
      "зеленски": 3256,
      "пеевски": 3257,
      "кя": 3258,
      "деми": 3259,
      "пам": 3260,
      "зи,": 3261,
      "слуги": 3262,
      "деца,": 3263,
      "своя": 3264,
      "ерге": 3265,
      "милярда": 3266,
      "-19": 3267,
      "лната": 3268,
      "пома": 3269,
      "парта": 3270,
      "погледне": 3271,
      ":-": 3272,
      "бря": 3273,
      "нения": 3274,
      "хай": 3275,
      "вземи": 3276,
      "здрава": 3277,
      "миризли": 3278,
      "кучетата": 3279,
      "ата": 3280,
      "игри": 3281,
      "хх": 3282,
      "ък": 3283,
      "долно": 3284,
      "изли": 3285,
      "има.": 3286,
      "него,": 3287,
      "българска": 3288,
      "джии": 3289,
      "ври": 3290,
      "тени": 3291,
      "заведе": 3292,
      "крайна": 3293,
      "бъди": 3294,
      "дреб": 3295,
      "експе": 3296,
      "-та": 3297,
      "ало": 3298,
      "гд": 3299,
      "теа": 3300,
      "пори": 3301,
      "рете": 3302,
      "дис": 3303,
      "станат": 3304,
      "му,": 3305,
      "братя": 3306,
      "големия": 3307,
      "брой": 3308,
      "чужди": 3309,
      "позор": 3310,
      "спрямо": 3311,
      "населението": 3312,
      "магистра": 3313,
      "спра": 3314,
      "коро": 3315,
      "за,": 3316,
      "лон": 3317,
      "нещо.": 3318,
      "действа": 3319,
      "-то": 3320,
      "полага": 3321,
      "ческо": 3322,
      "де,": 3323,
      "мък": 3324,
      "\"?": 3325,
      "впечат": 3326,
      "шния": 3327,
      "ра!": 3328,
      "са!": 3329,
      "биха": 3330,
      "глад": 3331,
      "страшно": 3332,
      "пенсия": 3333,
      "уда": 3334,
      "тове": 3335,
      "пош": 3336,
      "статии": 3337,
      "съси": 3338,
      "час": 3339,
      "историята": 3340,
      "култура": 3341,
      "липсва": 3342,
      "бру": 3343,
      "малък": 3344,
      "късмет": 3345,
      "шоф": 3346,
      "нския": 3347,
      "десет": 3348,
      "голем": 3349,
      "гю": 3350,
      "окупа": 3351,
      "уро": 3352,
      "фре": 3353,
      "зараз": 3354,
      "седи": 3355,
      "тип": 3356,
      "моти": 3357,
      "балка": 3358,
      "пич": 3359,
      "фика": 3360,
      "ьори": 3361,
      "милиони": 3362,
      "съжаление": 3363,
      "сутрин": 3364,
      "дпс": 3365,
      "ц,": 3366,
      "шш": 3367,
      "реак": 3368,
      "вена": 3369,
      "сове": 3370,
      "руския": 3371,
      "хубав": 3372,
      "спаси": 3373,
      "познавам": 3374,
      "-те": 3375,
      "нско": 3376,
      "ниво": 3377,
      "деси": 3378,
      "пус": 3379,
      "чо,": 3380,
      "фар": 3381,
      "дън": 3382,
      "хей": 3383,
      "гърба": 3384,
      "кръч": 3385,
      "продължи": 3386,
      "професо": 3387,
      "участва": 3388,
      "натрап": 3389,
      "псе": 3390,
      "тю": 3391,
      "космо": 3392,
      "поколе": 3393,
      "дие": 3394,
      "беля": 3395,
      "казано": 3396,
      "направиха": 3397,
      "строе": 3398,
      "обяви": 3399,
      "пенсията": 3400,
      "представи": 3401,
      "недоразуме": 3402,
      "ира": 3403,
      "завинаги": 3404,
      "отгоре": 3405,
      "издържа": 3406,
      "глас": 3407,
      "интерес": 3408,
      "мръсни": 3409,
      "същество": 3410,
      "наркоман": 3411,
      "симпати": 3412,
      "карие": 3413,
      ",и": 3414,
      "бк": 3415,
      "так": 3416,
      "негово": 3417,
      "правите": 3418,
      "лигльо": 3419,
      "дадат": 3420,
      "бел": 3421,
      "баш": 3422,
      "жалка": 3423,
      "вката": 3424,
      "г/": 3425,
      "ващи": 3426,
      "коми": 3427,
      "лина": 3428,
      "маши": 3429,
      "би.": 3430,
      "прин": 3431,
      "факт": 3432,
      "денков": 3433,
      "курви": 3434,
      "джий": 3435,
      "кажете": 3436,
      "хареса": 3437,
      "подкрепя": 3438,
      "енти": 3439,
      "пр": 3440,
      "закъ": 3441,
      "ческата": 3442,
      "мила": 3443,
      "мило": 3444,
      "събира": 3445,
      "певец": 3446,
      "лук": 3447,
      "бут": 3448,
      "снима": 3449,
      "направил": 3450,
      "продаж": 3451,
      "освободи": 3452,
      "открадна": 3453,
      "дб": 3454,
      "зор": 3455,
      "неприят": 3456,
      "готва": 3457,
      "падат": 3458,
      "претен": 3459,
      "престъпле": 3460,
      "петър": 3461,
      "...!": 3462,
      "жан": 3463,
      "---": 3464,
      "браво,": 3465,
      "случая": 3466,
      "пря": 3467,
      "ъъ": 3468,
      "вак": 3469,
      "вашите": 3470,
      "гант": 3471,
      "града": 3472,
      "оставете": 3473,
      "примерно": 3474,
      ".а": 3475,
      "тез": 3476,
      "помия": 3477,
      "го,": 3478,
      "богат": 3479,
      "интри": 3480,
      "сменя": 3481,
      "нищо,": 3482,
      "чалгар": 3483,
      "коментар": 3484,
      "продук": 3485,
      "изди": 3486,
      "става.": 3487,
      "ският": 3488,
      "жите": 3489,
      "дур": 3490,
      "завист": 3491,
      "дебела": 3492,
      "промени": 3493,
      "гнал": 3494,
      "онова": 3495,
      "укро": 3496,
      "тора": 3497,
      "зат": 3498,
      "закри": 3499,
      "ти!": 3500,
      "лече": 3501,
      "пани": 3502,
      "процен": 3503,
      "травести": 3504,
      "ааа": 3505,
      "сценари": 3506,
      "заги": 3507,
      "лей": 3508,
      "мил": 3509,
      "изо": 3510,
      "красо": 3511,
      "младите": 3512,
      "известен": 3513,
      "демократи": 3514,
      "унга": 3515,
      "услови": 3516,
      "д-": 3517,
      "нг": 3518,
      "чват": 3519,
      "завър": 3520,
      "роля": 3521,
      "долни": 3522,
      "няк": 3523,
      "харак": 3524,
      "проче": 3525,
      "болен": 3526,
      "отивам": 3527,
      "турция": 3528,
      "случайно": 3529,
      "ъоу": 3530,
      "ук": 3531,
      "усми": 3532,
      "чки,": 3533,
      "я!": 3534,
      "кака": 3535,
      "дам": 3536,
      "маса": 3537,
      "куп": 3538,
      "майсто": 3539,
      "ното.": 3540,
      "евроатланти": 3541,
      "действи": 3542,
      "цивили": 3543,
      "aн": 3544,
      "капа": 3545,
      "зани": 3546,
      "чева": 3547,
      "вери": 3548,
      "чисти": 3549,
      "скача": 3550,
      "късна": 3551,
      "цените": 3552,
      "подгот": 3553,
      "толкоз": 3554,
      "млада": 3555,
      "клон": 3556,
      "връзка": 3557,
      "взимат": 3558,
      "пропаганда": 3559,
      "малоум": 3560,
      "терористи": 3561,
      "нас.": 3562,
      "товa": 3563,
      "ционе": 3564,
      "друса": 3565,
      "добре.": 3566,
      "англи": 3567,
      "запада": 3568,
      "въпроса": 3569,
      "производ": 3570,
      "на...": 3571,
      "носа": 3572,
      "зая": 3573,
      "рена": 3574,
      "й!": 3575,
      "лова": 3576,
      "има,": 3577,
      "българия!": 3578,
      "получава": 3579,
      "вул": 3580,
      "глупости.": 3581,
      "техни": 3582,
      "англия": 3583,
      "апарта": 3584,
      "мре": 3585,
      "оправя": 3586,
      "ри!": 3587,
      "стотин": 3588,
      "сваля": 3589,
      "млад": 3590,
      "труд": 3591,
      "самочувствие": 3592,
      "напълни": 3593,
      "гони": 3594,
      "пени": 3595,
      "георги": 3596,
      "търа": 3597,
      "положението": 3598,
      "ции.": 3599,
      "опитва": 3600,
      "решение": 3601,
      "копейки": 3602,
      "смях": 3603,
      "вю": 3604,
      "удо": 3605,
      "нар": 3606,
      "сала": 3607,
      "румъ": 3608,
      "чист": 3609,
      "гени": 3610,
      "импе": 3611,
      "пишеш": 3612,
      "нея,": 3613,
      "ша,": 3614,
      "ството,": 3615,
      "държава.": 3616,
      "цията.": 3617,
      "милио": 3618,
      "заглавието": 3619,
      "aт": 3620,
      "завърши": 3621,
      "сън": 3622,
      "мутри": 3623,
      "фили": 3624,
      "кaтa": 3625,
      "украинка.": 3626,
      "мирише": 3627,
      "водещ": 3628,
      "пожа": 3629,
      "гола": 3630,
      "дедо": 3631,
      "ня,": 3632,
      "ня.": 3633,
      "някого": 3634,
      "ги,": 3635,
      "нямате": 3636,
      "първата": 3637,
      "анге": 3638,
      "вния": 3639,
      "уба": 3640,
      "нае": 3641,
      "наслед": 3642,
      "лиз": 3643,
      "ческите": 3644,
      "дира": 3645,
      "мощ": 3646,
      "извра": 3647,
      "ха!": 3648,
      "кен": 3649,
      "гледаш": 3650,
      "пияни": 3651,
      "затвор": 3652,
      "обичам": 3653,
      "информация": 3654,
      "\"не": 3655,
      "кау": 3656,
      "кови": 3657,
      "ситуа": 3658,
      "същите": 3659,
      "българско": 3660,
      "втората": 3661,
      "джо": 3662,
      "мисля,": 3663,
      "проститут": 3664,
      "отношение": 3665,
      "коруп": 3666,
      "1-": 3667,
      "драз": 3668,
      "покрай": 3669,
      "реве": 3670,
      "сино": 3671,
      "прокура": 3672,
      "правила": 3673,
      "върнат": 3674,
      "предиз": 3675,
      "станаха": 3676,
      "политици": 3677,
      "шоуто": 3678,
      "изборите": 3679,
      "гьо": 3680,
      "крa": 3681,
      "ниска": 3682,
      "нор": 3683,
      "заблу": 3684,
      "мач": 3685,
      "ресто": 3686,
      "крад": 3687,
      "лошото": 3688,
      "телевизията": 3689,
      "хитле": 3690,
      "сю": 3691,
      "месо": 3692,
      "приключи": 3693,
      "путка": 3694,
      "?!?!": 3695,
      "чувства": 3696,
      "опитай": 3697,
      "89": 3698,
      "акъ": 3699,
      "тали": 3700,
      "ре,": 3701,
      "кинти": 3702,
      "водят": 3703,
      "мит": 3704,
      "бити": 3705,
      "бора": 3706,
      "соци": 3707,
      "цени": 3708,
      "сега,": 3709,
      "казва,": 3710,
      "каза,": 3711,
      "ници!": 3712,
      "новия": 3713,
      "стъпи": 3714,
      "глоба": 3715,
      "момчето": 3716,
      "мнение": 3717,
      "фандъ": 3718,
      "aмa": 3719,
      "мрази": 3720,
      "тират": 3721,
      "значе": 3722,
      "инвести": 3723,
      "шар": 3724,
      "украи": 3725,
      "гледайте": 3726,
      "нормални": 3727,
      "стреля": 3728,
      "мозък": 3729,
      "поведение": 3730,
      "ске": 3731,
      "смисле": 3732,
      "тн": 3733,
      "непо": 3734,
      "коман": 3735,
      "столи": 3736,
      "направила": 3737,
      "плюе": 3738,
      "истори": 3739,
      "изгони": 3740,
      "наложи": 3741,
      "резул": 3742,
      "олиго": 3743,
      "aл": 3744,
      "шиз": 3745,
      "рал": 3746,
      "ма!": 3747,
      "пешо": 3748,
      "прасе": 3749,
      "сте,": 3750,
      "по-скоро": 3751,
      "браво!": 3752,
      "последно": 3753,
      "гърция": 3754,
      "вайки": 3755,
      "започва": 3756,
      "национал": 3757,
      "хттп://цоронaвиру": 3758,
      "левски": 3759,
      "гласуват": 3760,
      "изчезна": 3761,
      "хттп://цоронaвирус.ети.пв": 3762,
      "ж.": 3763,
      "опъ": 3764,
      "чки.": 3765,
      "нав": 3766,
      "загла": 3767,
      "легло": 3768,
      "изри": 3769,
      "бащата": 3770,
      "крим": 3771,
      "фона": 3772,
      "младе": 3773,
      "нейните": 3774,
      "енерги": 3775,
      "необходи": 3776,
      "зне": 3777,
      "тату": 3778,
      "никакво": 3779,
      "зали": 3780,
      "чере": 3781,
      "гащи": 3782,
      "сашо": 3783,
      "извър": 3784,
      "изнася": 3785,
      "престане": 3786,
      "прати": 3787,
      "чар": 3788,
      "чи,": 3789,
      "мур": 3790,
      "няма,": 3791,
      "думата": 3792,
      "време,": 3793,
      "!!!!!!": 3794,
      "велик": 3795,
      "политически": 3796,
      "сериозно": 3797,
      "протестира": 3798,
      "знa": 3799,
      "трите": 3800,
      "шва": 3801,
      "ръко": 3802,
      "земе": 3803,
      "земя": 3804,
      "сума": 3805,
      "кер": 3806,
      "спорт": 3807,
      "първия": 3808,
      "връх": 3809,
      "смисъл": 3810,
      "приема": 3811,
      "белене": 3812,
      "интервю": 3813,
      "спокойно": 3814,
      "депута": 3815,
      "35": 3816,
      "коп": 3817,
      "косми": 3818,
      "чета,": 3819,
      "бого": 3820,
      "куку": 3821,
      "можете": 3822,
      "шава": 3823,
      "чука": 3824,
      "турски": 3825,
      "завистли": 3826,
      "медици": 3827,
      "поредния": 3828,
      "твърде": 3829,
      "ес,": 3830,
      "нди": 3831,
      "нация": 3832,
      "каля": 3833,
      "нямаме": 3834,
      "общ": 3835,
      "най-вече": 3836,
      "обичат": 3837,
      "полицията": 3838,
      "медиите": 3839,
      "кроко": 3840,
      "граждан": 3841,
      "харчи": 3842,
      "известна": 3843,
      "((((": 3844,
      "аде": 3845,
      "плу": 3846,
      "яд": 3847,
      "таа": 3848,
      "зада": 3849,
      "отговаря": 3850,
      "стни": 3851,
      "москва": 3852,
      "скапа": 3853,
      "фер": 3854,
      "конфли": 3855,
      "магаре": 3856,
      "мври": 3857,
      "ръцете": 3858,
      "%д0%": 3859,
      "счу": 3860,
      "гад": 3861,
      "става,": 3862,
      "подходя": 3863,
      "човешки": 3864,
      "звезди": 3865,
      "прекрасна": 3866,
      "готови": 3867,
      "алексан": 3868,
      "2-3": 3869,
      "мю": 3870,
      "онали": 3871,
      "ш5": 3872,
      "наля": 3873,
      "кафе": 3874,
      "паля": 3875,
      "бат": 3876,
      "класа": 3877,
      "20-": 3878,
      "мъж,": 3879,
      "взри": 3880,
      "ака": 3881,
      "запо": 3882,
      "посе": 3883,
      "си...": 3884,
      "минали": 3885,
      "мори": 3886,
      "паде": 3887,
      "разру": 3888,
      "пуши": 3889,
      "сащ,": 3890,
      "алкохол": 3891,
      "финансо": 3892,
      "цивилизова": 3893,
      "ония": 3894,
      "руско": 3895,
      "инже": 3896,
      "деца.": 3897,
      "втора": 3898,
      "вярва": 3899,
      "санкции": 3900,
      "редовно": 3901,
      "навремето": 3902,
      "нели": 3903,
      "копи": 3904,
      "сестра": 3905,
      "сире": 3906,
      "ките,": 3907,
      "вежда": 3908,
      "дете,": 3909,
      "стка": 3910,
      "досто": 3911,
      "жесто": 3912,
      "съот": 3913,
      "конкур": 3914,
      "каже,": 3915,
      "мързе": 3916,
      "създаде": 3917,
      "организа": 3918,
      "очевид": 3919,
      ":))": 3920,
      "вски": 3921,
      "ета": 3922,
      "ядат": 3923,
      "момент": 3924,
      "шанс": 3925,
      "щина": 3926,
      "способ": 3927,
      "спонсо": 3928,
      "държавата,": 3929,
      "готви": 3930,
      "естестве": 3931,
      "естествено": 3932,
      ":))))": 3933,
      "ала": 3934,
      "длъ": 3935,
      "ч9": 3936,
      "шля": 3937,
      "ко.": 3938,
      "замина": 3939,
      "рица": 3940,
      "републи": 3941,
      "сат": 3942,
      "лоши": 3943,
      "бах": 3944,
      "щава": 3945,
      "ката!": 3946,
      "най-много": 3947,
      "спече": 3948,
      "глупост": 3949,
      "политика": 3950,
      "група": 3951,
      "продуце": 3952,
      "демокрация": 3953,
      "герой": 3954,
      "актриса": 3955,
      "принцип": 3956,
      "северна": 3957,
      "бля": 3958,
      "чване": 3959,
      "наса": 3960,
      "насили": 3961,
      "отка": 3962,
      "бяхме": 3963,
      "врата": 3964,
      "противен": 3965,
      "започна": 3966,
      "приятели": 3967,
      "студен": 3968,
      "доказател": 3969,
      "италия": 3970,
      "спрат": 3971,
      "нашия": 3972,
      "миро": 3973,
      "цената": 3974,
      "тел.": 3975,
      "бук": 3976,
      "вам.": 3977,
      "света.": 3978,
      "гъзо": 3979,
      "перфе": 3980,
      "храна": 3981,
      "обществото": 3982,
      "скъпи": 3983,
      "отвратително": 3984,
      "ждеб": 3985,
      "ефекти": 3986,
      "22": 3987,
      "вс": 3988,
      "напъ": 3989,
      "тели,": 3990,
      "попу": 3991,
      "се!": 3992,
      "чело": 3993,
      "изпо": 3994,
      "куха": 3995,
      "фира": 3996,
      "ството.": 3997,
      "всички,": 3998,
      "гледах": 3999,
      "търсе": 4000,
      "враждеб": 4001,
      "креди": 4002,
      "хвана": 4003,
      "грижи": 4004,
      "граждани": 4005,
      "купува": 4006,
      "циганин": 4007,
      "3-": 4008,
      "бят": 4009,
      "вклю": 4010,
      "мн": 4011,
      "омра": 4012,
      "фри": 4013,
      "никого": 4014,
      "лав": 4015,
      "бедни": 4016,
      "бон": 4017,
      "бомби": 4018,
      "пис": 4019,
      "година.": 4020,
      "тран": 4021,
      "всичко.": 4022,
      "новини": 4023,
      "красиви": 4024,
      "идиоти": 4025,
      "отвори": 4026,
      "бот": 4027,
      "ес.": 4028,
      "кала": 4029,
      "поп": 4030,
      "сина": 4031,
      "бит": 4032,
      "бана": 4033,
      "ходите": 4034,
      "знам,": 4035,
      "годишна": 4036,
      "строй": 4037,
      "ции,": 4038,
      "хттп://бит.лъ/2": 4039,
      "честито": 4040,
      "идват": 4041,
      "брa": 4042,
      "жка": 4043,
      "дама": 4044,
      "показват": 4045,
      "изля": 4046,
      "изтър": 4047,
      "ска,": 4048,
      "жата": 4049,
      "предвид": 4050,
      "глупо": 4051,
      "хвърлят": 4052,
      "дроги": 4053,
      "ствието": 4054,
      "масово": 4055,
      "влю": 4056,
      "зват": 4057,
      "лош": 4058,
      "имал": 4059,
      "разпоре": 4060,
      "рядко": 4061,
      "времен": 4062,
      "говорите": 4063,
      "отиш": 4064,
      "бърза": 4065,
      "хвали": 4066,
      "тръгне": 4067,
      "визия": 4068,
      "свобода": 4069,
      "фашисти": 4070,
      "близки": 4071,
      "нагласе": 4072,
      "нската": 4073,
      "ч5": 4074,
      "вари": 4075,
      "затва": 4076,
      "момен": 4077,
      "бая": 4078,
      "премести": 4079,
      "чия": 4080,
      "народ.": 4081,
      "помощи": 4082,
      "празни": 4083,
      "територия": 4084,
      "брю": 4085,
      "лния": 4086,
      "сната": 4087,
      "тем": 4088,
      "ремо": 4089,
      "отнася": 4090,
      "мират": 4091,
      "пил": 4092,
      "ферен": 4093,
      "умна": 4094,
      "средно": 4095,
      "ужасно": 4096,
      "пуснат": 4097,
      "богати": 4098,
      "сайт": 4099,
      "съжаля": 4100,
      "оправда": 4101,
      "ввв.": 4102,
      ".не": 4103,
      "ню": 4104,
      "толе": 4105,
      "лежи": 4106,
      "бебе": 4107,
      "някое": 4108,
      "чин": 4109,
      "мислите": 4110,
      "тук,": 4111,
      "милион": 4112,
      "телевизия": 4113,
      "четете": 4114,
      "тотално": 4115,
      "получават": 4116,
      "псевдо": 4117,
      "двата": 4118,
      "зят": 4119,
      "клет": 4120,
      "ол": 4121,
      "ф.": 4122,
      "некой": 4123,
      "покри": 4124,
      "серя": 4125,
      "рели": 4126,
      "вият": 4127,
      "жени,": 4128,
      "стотици": 4129,
      "?????": 4130,
      "страхо": 4131,
      "конститу": 4132,
      "ков,": 4133,
      "бремен": 4134,
      "морето": 4135,
      "електро": 4136,
      "рр": 4137,
      "скро": 4138,
      "чч": 4139,
      "забеле": 4140,
      "мана": 4141,
      "сем": 4142,
      "вит": 4143,
      "лее": 4144,
      "леля": 4145,
      "бена": 4146,
      "бежа": 4147,
      "бун": 4148,
      "ник!": 4149,
      "всичко,": 4150,
      "мaй": 4151,
      "онази": 4152,
      "шенге": 4153,
      "сaмо": 4154,
      "дрън": 4155,
      "опасно": 4156,
      "улиците": 4157,
      "исля": 4158,
      "виновни": 4159,
      "огледа": 4160,
      "тегли": 4161,
      "сен,": 4162,
      "рече": 4163,
      "йни": 4164,
      "сашко": 4165,
      "старите": 4166,
      "ше.": 4167,
      "луд": 4168,
      "неговата": 4169,
      "виждал": 4170,
      "свали": 4171,
      "мъжът": 4172,
      "продължават": 4173,
      "скъпо": 4174,
      "закона": 4175,
      "звезда": 4176,
      "боже,": 4177,
      ".и": 4178,
      "оди": 4179,
      "слa": 4180,
      "лива": 4181,
      "викто": 4182,
      "ки!": 4183,
      "гал": 4184,
      "дикта": 4185,
      "чии": 4186,
      "зем": 4187,
      "фирма": 4188,
      "драска": 4189,
      "нов,": 4190,
      "ооо": 4191,
      "грим": 4192,
      "справе": 4193,
      "долна": 4194,
      "проми": 4195,
      "дърт": 4196,
      "100%": 4197,
      "гнусно": 4198,
      "мнението": 4199,
      "русофил": 4200,
      "комунистически": 4201,
      "г-н": 4202,
      "надежда": 4203,
      "3.": 4204,
      "ологи": 4205,
      "усеща": 4206,
      "фър": 4207,
      "френ": 4208,
      "кача": 4209,
      "повта": 4210,
      "рец": 4211,
      "бом": 4212,
      "мен,": 4213,
      "тяло": 4214,
      "кефи": 4215,
      "вното": 4216,
      "фол": 4217,
      "учили": 4218,
      "марш": 4219,
      "нормална": 4220,
      "когото": 4221,
      "адво": 4222,
      "тежко": 4223,
      "директно": 4224,
      "справедли": 4225,
      "бна": 4226,
      "иг": 4227,
      "незнам": 4228,
      "йте,": 4229,
      "сие": 4230,
      "че!": 4231,
      "жения": 4232,
      "бож": 4233,
      "купо": 4234,
      "ца!": 4235,
      ".........": 4236,
      "гранти": 4237,
      "каквато": 4238,
      "тях,": 4239,
      "кажеш": 4240,
      "дрехи": 4241,
      "вергов": 4242,
      "сърце": 4243,
      "господа": 4244,
      "злато": 4245,
      "образование": 4246,
      "прекалено": 4247,
      "процента": 4248,
      "др.": 4249,
      "сби": 4250,
      "уто": 4251,
      "лив": 4252,
      "ства,": 4253,
      "падъ": 4254,
      "старо": 4255,
      "бате": 4256,
      "...а": 4257,
      "спомена": 4258,
      "дъното": 4259,
      "сащ.": 4260,
      "последната": 4261,
      "вярвам": 4262,
      "скъса": 4263,
      "унищожи": 4264,
      "и!": 4265,
      "олига": 4266,
      "ут": 4267,
      "нико": 4268,
      "ливи": 4269,
      "димитро": 4270,
      "бе?!": 4271,
      "прай": 4272,
      "гин": 4273,
      "няма!": 4274,
      "пук": 4275,
      "мен.": 4276,
      "човек!": 4277,
      "армен": 4278,
      "велика": 4279,
      "снимките": 4280,
      "насят": 4281,
      "причина": 4282,
      "путин,": 4283,
      "офиця": 4284,
      "рд": 4285,
      "яка": 4286,
      "насил": 4287,
      "кати": 4288,
      "весе": 4289,
      "газа": 4290,
      "пали": 4291,
      "изклю": 4292,
      "хама": 4293,
      "хора!": 4294,
      "грешка": 4295,
      "умират": 4296,
      "видео": 4297,
      "нашето": 4298,
      "възможност": 4299,
      "статисти": 4300,
      "непрекъсна": 4301,
      "ах": 4302,
      "ари": 4303,
      "зв": 4304,
      "ивай": 4305,
      "телен": 4306,
      "лизира": 4307,
      "па,": 4308,
      "разде": 4309,
      "траге": 4310,
      "грозо": 4311,
      "противо": 4312,
      "защит": 4313,
      "плa": 4314,
      "умира": 4315,
      "подава": 4316,
      "продаде": 4317,
      "ска.": 4318,
      "разбера": 4319,
      "духо": 4320,
      "тия.": 4321,
      "временно": 4322,
      "нуж": 4323,
      "зови": 4324,
      "трифо": 4325,
      "мяза": 4326,
      "плащаме": 4327,
      "джудже": 4328,
      "евала": 4329,
      "бкп": 4330,
      "55": 4331,
      "б,": 4332,
      "схе": 4333,
      "шка.": 4334,
      "ява": 4335,
      "долен": 4336,
      "израз": 4337,
      "обра": 4338,
      "партии": 4339,
      "рaз": 4340,
      "глупави": 4341,
      "оръжия": 4342,
      "световна": 4343,
      "харесват": 4344,
      "смота": 4345,
      "щастливи": 4346,
      "позволи": 4347,
      "христия": 4348,
      "испа": 4349,
      "сри": 4350,
      "ях": 4351,
      "тео": 4352,
      "йските": 4353,
      "век": 4354,
      "де.": 4355,
      "зират": 4356,
      "...\"": 4357,
      "софия.": 4358,
      "живот.": 4359,
      "ница.": 4360,
      "видяхме": 4361,
      "съдията": 4362,
      "матеря": 4363,
      "оплаква": 4364,
      "\"за": 4365,
      "напъл": 4366,
      "зан": 4367,
      "поиска": 4368,
      "секси": 4369,
      "виa": 4370,
      "леле,": 4371,
      "някакво": 4372,
      "премах": 4373,
      "чакат": 4374,
      "самоле": 4375,
      "кене": 4376,
      "хахах": 4377,
      "неговите": 4378,
      "цията,": 4379,
      "щях": 4380,
      "!!!!!!!!!!!!!!!!": 4381,
      "благодарение": 4382,
      "ех": 4383,
      "иму": 4384,
      "ч-": 4385,
      "шке": 4386,
      "том": 4387,
      "неле": 4388,
      "седа": 4389,
      "рено": 4390,
      "голо": 4391,
      "девой": 4392,
      "стрия": 4393,
      "довече": 4394,
      "патри": 4395,
      "избор": 4396,
      "крака": 4397,
      "ния!": 4398,
      "дълги": 4399,
      "чакаме": 4400,
      "гнусна": 4401,
      "уважа": 4402,
      "путката": 4403,
      "благодаря": 4404,
      "извади": 4405,
      "150": 4406,
      "ш'": 4407,
      "талан": 4408,
      "отне": 4409,
      "сък": 4410,
      "шени": 4411,
      "стигна": 4412,
      "гери": 4413,
      "плани": 4414,
      "смешно": 4415,
      "пръст": 4416,
      "налага": 4417,
      "онези": 4418,
      "милярди": 4419,
      "малкия": 4420,
      "джендър": 4421,
      "звучи": 4422,
      "7г": 4423,
      "дю": 4424,
      "та?": 4425,
      "ками": 4426,
      "васи": 4427,
      "родена": 4428,
      "отслаб": 4429,
      "стно": 4430,
      "дох": 4431,
      "злобе": 4432,
      "ваксина": 4433,
      "комунистите": 4434,
      "абсур": 4435,
      "сняг": 4436,
      "осъзна": 4437,
      "радвам": 4438,
      "фейс": 4439,
      "азис": 4440,
      "влява": 4441,
      "….": 4442,
      "тар": 4443,
      "носят": 4444,
      "метро": 4445,
      "вечно": 4446,
      "някак": 4447,
      "това?": 4448,
      "обслуж": 4449,
      "оставка": 4450,
      "нува": 4451,
      "трето": 4452,
      "свети": 4453,
      "говориш": 4454,
      "властта": 4455,
      "тръгна": 4456,
      "управляват": 4457,
      "селяни": 4458,
      "натиска": 4459,
      "изпълните": 4460,
      "обикновен": 4461,
      "появи": 4462,
      "тиквата": 4463,
      "произвежда": 4464,
      "кандидат": 4465,
      "2000": 4466,
      "л?": 4467,
      "с/": 4468,
      "такси": 4469,
      "рали": 4470,
      "показ": 4471,
      "йно": 4472,
      "лагат": 4473,
      "отказа": 4474,
      "мое": 4475,
      "каквито": 4476,
      "украинските": 4477,
      "живея": 4478,
      "мъж.": 4479,
      "миналата": 4480,
      "цовид": 4481,
      "занимават": 4482,
      "ваксините": 4483,
      "родината": 4484,
      "айде,": 4485,
      "стрел": 4486,
      "улицата": 4487,
      "господин": 4488,
      "фронта": 4489,
      "хттпс://бит.лъ/2в": 4490,
      "ть": 4491,
      "каф": 4492,
      "раки": 4493,
      "тера": 4494,
      "теля": 4495,
      "рин": 4496,
      "отча": 4497,
      "катастро": 4498,
      "вече.": 4499,
      "слад": 4500,
      "славя": 4501,
      "спом": 4502,
      "търпе": 4503,
      "европейски": 4504,
      "интернет": 4505,
      "-не": 4506,
      "м?": 4507,
      "опе": 4508,
      "ш/": 4509,
      "шното": 4510,
      "самата": 4511,
      "ства.": 4512,
      "мост": 4513,
      "профи": 4514,
      "бахти": 4515,
      "педа": 4516,
      "имала": 4517,
      "мноо": 4518,
      "инста": 4519,
      "ско,": 4520,
      "мисли,": 4521,
      "възста": 4522,
      "тaкa": 4523,
      "успехи": 4524,
      "групи": 4525,
      "новото": 4526,
      "известни": 4527,
      "определено": 4528,
      "сексуа": 4529,
      "удовол": 4530,
      "престанете": 4531,
      "вкъщи": 4532,
      "спри": 4533,
      "тока": 4534,
      "кап": 4535,
      "тиите": 4536,
      "рев": 4537,
      "йор": 4538,
      "дор": 4539,
      "стигa": 4540,
      "хомо": 4541,
      "ние!": 4542,
      "много.": 4543,
      "въоръ": 4544,
      "път.": 4545,
      "смее": 4546,
      "този,": 4547,
      "нужно": 4548,
      "нaтa": 4549,
      "играят": 4550,
      "публику": 4551,
      "сезон": 4552,
      "включително": 4553,
      "ура": 4554,
      "нагоре": 4555,
      "тег": 4556,
      "нии": 4557,
      "кош": 4558,
      "семе": 4559,
      "лева.": 4560,
      "жени.": 4561,
      "прокуро": 4562,
      "пиша": 4563,
      "прибира": 4564,
      "стоят": 4565,
      "душа": 4566,
      "съм,": 4567,
      "европа,": 4568,
      "брита": 4569,
      "честно": 4570,
      "))))))))))))))))": 4571,
      "италя": 4572,
      "долара": 4573,
      "късмета": 4574,
      "99": 4575,
      "хла": 4576,
      "настъпле": 4577,
      "такъ": 4578,
      "торите": 4579,
      "баджа": 4580,
      "шефа": 4581,
      "хожда": 4582,
      "целта": 4583,
      "година,": 4584,
      "нтира": 4585,
      "истинска": 4586,
      "тaя": 4587,
      "полза": 4588,
      "плей": 4589,
      "бг/": 4590,
      "ползва": 4591,
      "руснаците.": 4592,
      "паметници": 4593,
      "жалко,": 4594,
      "урл=": 4595,
      "урлщ": 4596,
      "21": 4597,
      "пх": 4598,
      "хъ": 4599,
      "шурл=": 4600,
      "нора": 4601,
      "лето": 4602,
      "изоста": 4603,
      "изяде": 4604,
      "лоша": 4605,
      "съде": 4606,
      "щастие": 4607,
      "едната": 4608,
      "стефан": 4609,
      "лно.": 4610,
      "***!": 4611,
      "твор": 4612,
      "цензу": 4613,
      "продължа": 4614,
      "струк": 4615,
      "смешни": 4616,
      "журналист": 4617,
      "измам": 4618,
      "бурга": 4619,
      "условията": 4620,
      "23": 4621,
      "х7г": 4622,
      "голи": 4623,
      "чувал": 4624,
      "вяват": 4625,
      "предпочи": 4626,
      "взел": 4627,
      "направили": 4628,
      "отиват": 4629,
      "предавания": 4630,
      "гдх7г": 4631,
      "брюк": 4632,
      "хттпс://бит.лъ/2вгдх7г": 4633,
      "араб": 4634,
      "ума": 4635,
      "фa": 4636,
      "силна": 4637,
      "сали": 4638,
      "диско": 4639,
      "цици": 4640,
      "зия": 4641,
      "чил": 4642,
      "хода": 4643,
      "фитне": 4644,
      "прави.": 4645,
      "щият": 4646,
      "тъпите": 4647,
      "годините": 4648,
      "сул": 4649,
      "говоря": 4650,
      "е,че": 4651,
      "велики": 4652,
      "западна": 4653,
      "българи,": 4654,
      "следващия": 4655,
      "силикон": 4656,
      "вероят": 4657,
      "2023": 4658,
      "мечта": 4659,
      "задника": 4660,
      "рейтин": 4661,
      "5-": 4662,
      "aa": 4663,
      "ж,": 4664,
      "ох,": 4665,
      "наша": 4666,
      "тое": 4667,
      "невин": 4668,
      "реда": 4669,
      "йска": 4670,
      "цио": 4671,
      "луда": 4672,
      "нямало": 4673,
      "фалира": 4674,
      "най-после": 4675,
      "първите": 4676,
      "кaк": 4677,
      "гът": 4678,
      "мерят": 4679,
      "нормалните": 4680,
      "красиво": 4681,
      "пловди": 4682,
      "висока": 4683,
      "фънки": 4684,
      "компания": 4685,
      "зно": 4686,
      "зър": 4687,
      "рк": 4688,
      "нас,": 4689,
      "нено": 4690,
      "пови": 4691,
      "викат": 4692,
      "чета.": 4693,
      "мек": 4694,
      "доба": 4695,
      "пане": 4696,
      "биг": 4697,
      "пети": 4698,
      "луди": 4699,
      "суб": 4700,
      "тоя,": 4701,
      "орбан": 4702,
      "светът": 4703,
      "лите.": 4704,
      "зък": 4705,
      "телеви": 4706,
      "случаи": 4707,
      "свят.": 4708,
      "учени": 4709,
      "терори": 4710,
      "победител": 4711,
      ",като": 4712,
      "тлъ": 4713,
      "учат": 4714,
      "насо": 4715,
      "ление.": 4716,
      "минал": 4717,
      "моли": 4718,
      "бани": 4719,
      "приятно": 4720,
      "останат": 4721,
      "останаха": 4722,
      "крие": 4723,
      "противна": 4724,
      "сърби": 4725,
      "демон": 4726,
      "броя": 4727,
      "начин.": 4728,
      "силико": 4729,
      "правителството": 4730,
      "организира": 4731,
      "ани": 4732,
      "влия": 4733,
      "уру": 4734,
      "рода": 4735,
      "ким": 4736,
      "вене": 4737,
      "вере": 4738,
      "дов": 4739,
      "изказ": 4740,
      "бачка": 4741,
      "чичо": 4742,
      "им,": 4743,
      "буква": 4744,
      "слабо": 4745,
      "хуй": 4746,
      "фермата": 4747,
      "започне": 4748,
      "псих": 4749,
      "военни": 4750,
      "иванова": 4751,
      "сканда": 4752,
      "роднини": 4753,
      "задължително": 4754,
      "пхп": 4755,
      "!\"": 4756,
      "85": 4757,
      "дву": 4758,
      "свръх": 4759,
      "фти": 4760,
      "ч!": 4761,
      "ники": 4762,
      "личен": 4763,
      "реже": 4764,
      "гова": 4765,
      "дова": 4766,
      "лост": 4767,
      "провин": 4768,
      "балъ": 4769,
      "пика": 4770,
      "кравар": 4771,
      "разбират": 4772,
      "кучето": 4773,
      "соро": 4774,
      "пун": 4775,
      "партн": 4776,
      "велико": 4777,
      "живеем": 4778,
      "момичета": 4779,
      "момиче,": 4780,
      "банди": 4781,
      "европа.": 4782,
      "гнусни": 4783,
      "високи": 4784,
      "проститутка": 4785,
      "кифла": 4786,
      "ха-ха-": 4787,
      "кандида": 4788,
      "принце": 4789,
      ",ама": 4790,
      "7.": 4791,
      "гнали": 4792,
      "сма": 4793,
      "х!": 4794,
      "вади": 4795,
      "лик": 4796,
      "мами": 4797,
      "йн": 4798,
      "йне": 4799,
      "дире": 4800,
      "пласти": 4801,
      "добрите": 4802,
      "чук": 4803,
      "гуще": 4804,
      "трети": 4805,
      "тради": 4806,
      "днеска": 4807,
      "червен": 4808,
      "спася": 4809,
      "последния": 4810,
      "гнусен": 4811,
      "петков": 4812,
      "парцал": 4813,
      "палячо": 4814,
      "'а": 4815,
      "бб": 4816,
      "еки": 4817,
      "напослед": 4818,
      "силен": 4819,
      "мета": 4820,
      "диша": 4821,
      "доган": 4822,
      "лове": 4823,
      "бок": 4824,
      "разправя": 4825,
      "фанова": 4826,
      "пълните": 4827,
      "интересни": 4828,
      "политиката": 4829,
      "познава": 4830,
      "ланд": 4831,
      "злобата": 4832,
      "приемат": 4833,
      "гръц": 4834,
      "данъци": 4835,
      "начало": 4836,
      "3ш": 4837,
      "его": 4838,
      "хран": 4839,
      "як": 4840,
      "коали": 4841,
      "лист": 4842,
      "вици": 4843,
      "метър": 4844,
      "провер": 4845,
      "...,": 4846,
      "ги.": 4847,
      "мутро": 4848,
      "ходе": 4849,
      "цена": 4850,
      "земи": 4851,
      "твоя": 4852,
      "живот,": 4853,
      "влади": 4854,
      "предател": 4855,
      "турци": 4856,
      "противни": 4857,
      "филма": 4858,
      "санк": 4859,
      "корея": 4860,
      "злат": 4861,
      "купуват": 4862,
      "корона": 4863,
      "дрa": 4864,
      "зву": 4865,
      "именно": 4866,
      "япо": 4867,
      "валя": 4868,
      "носе": 4869,
      "затъ": 4870,
      "макси": 4871,
      "лайна": 4872,
      "кирчо": 4873,
      "отвсякъде": 4874,
      "вою": 4875,
      "бело": 4876,
      "изис": 4877,
      "зил": 4878,
      "бое": 4879,
      "пева": 4880,
      "крадли": 4881,
      "план": 4882,
      "искал": 4883,
      "служе": 4884,
      "дни.": 4885,
      "компе": 4886,
      "управление": 4887,
      "американските": 4888,
      "мвр": 4889,
      "изненада": 4890,
      "английски": 4891,
      "а.": 4892,
      "аро": 4893,
      "тара": 4894,
      "кач": 4895,
      "забеля": 4896,
      "повръща": 4897,
      "откакто": 4898,
      "зима": 4899,
      "бона": 4900,
      "чий": 4901,
      "образи": 4902,
      "чужда": 4903,
      "главите": 4904,
      "лно,": 4905,
      "сигурен": 4906,
      "станала": 4907,
      "видят": 4908,
      "тормо": 4909,
      "племе": 4910,
      "глупости,": 4911,
      "горката": 4912,
      "варна": 4913,
      "прекрасно": 4914,
      "циганска": 4915,
      "ориги": 4916,
      "млн.": 4917,
      "национален": 4918,
      "съществува": 4919,
      "чужбина": 4920,
      "кот": 4921,
      "коте": 4922,
      "кочи": 4923,
      "ливо": 4924,
      "резер": 4925,
      "готина": 4926,
      "самите": 4927,
      "жение,": 4928,
      "...не": 4929,
      "чие": 4930,
      "инду": 4931,
      "институ": 4932,
      "плажа": 4933,
      "тази,": 4934,
      "предполага": 4935,
      "говор": 4936,
      "фен": 4937,
      "конку": 4938,
      "четат": 4939,
      "своите": 4940,
      "черни": 4941,
      "руснаци,": 4942,
      "глория": 4943,
      "пръд": 4944,
      "ница,": 4945,
      "заплатите": 4946,
      "секса": 4947,
      "приеме": 4948,
      "култу": 4949,
      "родните": 4950,
      "десетки": 4951,
      "родители": 4952,
      "дошла": 4953,
      "пореден": 4954,
      "агреси": 4955,
      "типично": 4956,
      "посолството": 4957,
      "премие": 4958,
      "кг": 4959,
      "уе": 4960,
      "то?": 4961,
      "кай": 4962,
      "тема": 4963,
      "запозна": 4964,
      "детен": 4965,
      "дия,": 4966,
      "мол": 4967,
      "па.": 4968,
      "зимата": 4969,
      "бате,": 4970,
      "събу": 4971,
      "остав": 4972,
      "формира": 4973,
      "плюят": 4974,
      "наричат": 4975,
      "заслужа": 4976,
      "подобно": 4977,
      "водеща": 4978,
      "абсолютен": 4979,
      "отвратителна": 4980,
      "песента": 4981,
      "англича": 4982,
      "целият": 4983,
      "четири": 4984,
      "\"\"": 4985,
      "и...": 4986,
      "фра": 4987,
      "ка?": 4988,
      "раси": 4989,
      "равно": 4990,
      "те?": 4991,
      "никак": 4992,
      "невъзпита": 4993,
      "ко!": 4994,
      "сен.": 4995,
      "родо": 4996,
      "моите": 4997,
      "прово": 4998,
      "чи.": 4999,
      "имали": 5000,
      "чува": 5001,
      "повече,": 5002,
      "народен": 5003,
      "стане.": 5004,
      "центъра": 5005,
      "чалгата": 5006,
      "държавата.": 5007,
      "ууу": 5008,
      "филми": 5009,
      "победа": 5010,
      "богата": 5011,
      "население": 5012,
      "поръча": 5013,
      "операция": 5014,
      "страхотна": 5015,
      ",защото": 5016,
      "иa": 5017,
      "оре": 5018,
      "остро": 5019,
      "сь": 5020,
      "стова": 5021,
      "т'": 5022,
      "зало": 5023,
      "заряза": 5024,
      "рим": 5025,
      "мега": 5026,
      "кирил": 5027,
      "отбор": 5028,
      "съсе": 5029,
      "муцу": 5030,
      "ват!": 5031,
      "пусти": 5032,
      "....и": 5033,
      "фали": 5034,
      "бути": 5035,
      "кет": 5036,
      "гледал": 5037,
      "направим": 5038,
      "казваш": 5039,
      "учител": 5040,
      "играта": 5041,
      "писали": 5042,
      "аааааааа": 5043,
      "физио": 5044,
      "обратно": 5045,
      "недоразумение": 5046,
      "спомня": 5047,
      "2,": 5048,
      "ас": 5049,
      "ада": 5050,
      "блю": 5051,
      "сгло": 5052,
      "цт": 5053,
      "ш8": 5054,
      "маро": 5055,
      "вио": 5056,
      "бери": 5057,
      "тук.": 5058,
      "шан": 5059,
      "чора": 5060,
      "ето,": 5061,
      "сякаш": 5062,
      "фенове": 5063,
      "виждат": 5064,
      "натру": 5065,
      "също.": 5066,
      "половина": 5067,
      "министер": 5068,
      "чакам": 5069,
      "тръгнал": 5070,
      "фирми": 5071,
      "далаве": 5072,
      "достойн": 5073,
      ":-)": 5074,
      "брута": 5075,
      "апри": 5076,
      "ее,": 5077,
      "нда": 5078,
      "нче": 5079,
      "камъ": 5080,
      "катери": 5081,
      "зал": 5082,
      "заве": 5083,
      "септе": 5084,
      "ление,": 5085,
      "водите": 5086,
      "дете.": 5087,
      "довете": 5088,
      "докто": 5089,
      "жение.": 5090,
      "дъртата": 5091,
      "партията": 5092,
      "давай": 5093,
      "класи": 5094,
      "ебаси": 5095,
      "199": 5096,
      "русофилите": 5097,
      "евреите": 5098,
      "платени": 5099,
      "евтини": 5100,
      "фрон": 5101,
      "ауди": 5102,
      "интересуват": 5103,
      "сравнение": 5104,
      "африка": 5105,
      "имо": 5106,
      "оправят": 5107,
      "сля": 5108,
      "скa": 5109,
      "ьa": 5110,
      "настоя": 5111,
      "вати": 5112,
      "маски": 5113,
      "понякога": 5114,
      "секре": 5115,
      "роби": 5116,
      "леку": 5117,
      "лам": 5118,
      "мутре": 5119,
      "къщата": 5120,
      "останало": 5121,
      "давате": 5122,
      "обади": 5123,
      "екс": 5124,
      "висок": 5125,
      "стрес": 5126,
      "връщат": 5127,
      "определя": 5128,
      "малката": 5129,
      "радост": 5130,
      "виaгрa": 5131,
      "ае": 5132,
      "ште": 5133,
      "тов": 5134,
      "потен": 5135,
      "подари": 5136,
      "изце": 5137,
      "изкарат": 5138,
      "бага": 5139,
      "бавно": 5140,
      "глед": 5141,
      "държавни": 5142,
      "чно,": 5143,
      "бяхте": 5144,
      "лия,": 5145,
      "мислиш": 5146,
      "кръв": 5147,
      "влече": 5148,
      "стрира": 5149,
      "световно": 5150,
      "изпрати": 5151,
      "____": 5152,
      "повтаря": 5153,
      "олигар": 5154,
      "непрекъснато": 5155,
      "окупи": 5156,
      "увол": 5157,
      "вас.": 5158,
      "лични": 5159,
      "мак": 5160,
      "русоф": 5161,
      "хари": 5162,
      "превър": 5163,
      "тя,": 5164,
      "искаше": 5165,
      "малко.": 5166,
      "хер": 5167,
      "карти": 5168,
      "свирки": 5169,
      "клип": 5170,
      "теб,": 5171,
      "теб.": 5172,
      "уважава": 5173,
      "жоро": 5174,
      "франция": 5175,
      "унгария": 5176,
      "довечера": 5177,
      "ане": 5178,
      "упра": 5179,
      "хте,": 5180,
      "”.": 5181,
      "наг": 5182,
      "назна": 5183,
      "тако": 5184,
      "номе": 5185,
      "рита": 5186,
      "чество": 5187,
      "мона": 5188,
      "жете": 5189,
      "хан": 5190,
      "хах": 5191,
      "пере": 5192,
      "части": 5193,
      "це.": 5194,
      "финала": 5195,
      "плаче": 5196,
      "човека,": 5197,
      "народни": 5198,
      "дълбоко": 5199,
      "живота.": 5200,
      "българина": 5201,
      "задръ": 5202,
      "разликата": 5203,
      "????????": 5204,
      "следващите": 5205,
      "жената,": 5206,
      "слушам": 5207,
      "аресту": 5208,
      "чудови": 5209,
      "манипула": 5210,
      "бряг": 5211,
      "рестора": 5212,
      "физиономи": 5213,
      "асен": 5214,
      "сръ": 5215,
      "ная": 5216,
      "направя": 5217,
      "намерят": 5218,
      "забо": 5219,
      "попо": 5220,
      "повод": 5221,
      "реце": 5222,
      "кир": 5223,
      "микро": 5224,
      "румен": 5225,
      "пият": 5226,
      "прину": 5227,
      "предло": 5228,
      "малко,": 5229,
      "взеха": 5230,
      "хен": 5231,
      "карто": 5232,
      "животът": 5233,
      "предатели": 5234,
      "свик": 5235,
      "борисо": 5236,
      "липса": 5237,
      "причини": 5238,
      "забавно": 5239,
      "пазар": 5240,
      "афгани": 5241,
      "интелиген": 5242,
      "спецялно": 5243,
      "дойдат": 5244,
      "отговорност": 5245,
      "хляб": 5246,
      "изкарва": 5247,
      "компетен": 5248,
      "-о": 5249,
      "уи": 5250,
      "давам": 5251,
      "веж": 5252,
      "са?": 5253,
      "модел": 5254,
      "бита": 5255,
      "зи.": 5256,
      "преду": 5257,
      "годишен": 5258,
      "страна.": 5259,
      "бягат": 5260,
      "всичкото": 5261,
      "интересна": 5262,
      "пръсна": 5263,
      "герба": 5264,
      "нейната": 5265,
      "твърди": 5266,
      "русофили": 5267,
      "артисти": 5268,
      "подаръ": 5269,
      "корумпи": 5270,
      "ежедневно": 5271,
      "украинец": 5272,
      "телевизо": 5273,
      "ус": 5274,
      "варите": 5275,
      "нова,": 5276,
      "номера": 5277,
      "го.": 5278,
      "ла?": 5279,
      "щение": 5280,
      "съсед": 5281,
      "преца": 5282,
      "луната": 5283,
      "обща": 5284,
      "фигу": 5285,
      "тя.": 5286,
      "брадър": 5287,
      "скочи": 5288,
      "ден!": 5289,
      "ция!": 5290,
      "криза": 5291,
      "бял": 5292,
      "хеге": 5293,
      "чка!": 5294,
      "мъжки": 5295,
      "отвратител": 5296,
      "икономика": 5297,
      "копейкин": 5298,
      "близките": 5299,
      "циганка": 5300,
      "артист": 5301,
      "опитват": 5302,
      "ш/урлщ": 5303,
      "1,": 5304,
      "è": 5305,
      "аген": 5306,
      "к?": 5307,
      "км": 5308,
      "ушите": 5309,
      "цк": 5310,
      "щот": 5311,
      "вас,": 5312,
      "неза": 5313,
      "виш": 5314,
      "деса": 5315,
      "поддържа": 5316,
      "по-зле": 5317,
      "дяна": 5318,
      "рат,": 5319,
      "действие": 5320,
      "гнус": 5321,
      "свят,": 5322,
      "бивши": 5323,
      "готов": 5324,
      "админи": 5325,
      "огромни": 5326,
      "единственото": 5327,
      "алекс": 5328,
      "договор": 5329,
      "адекват": 5330,
      "очевидно": 5331,
      ",които": 5332,
      "асан": 5333,
      "еги": 5334,
      "нападна": 5335,
      "направе": 5336,
      "каби": 5337,
      "ви!": 5338,
      "отро": 5339,
      "сана": 5340,
      "руското": 5341,
      "простран": 5342,
      "божи": 5343,
      "стил": 5344,
      "ляна": 5345,
      "лудо": 5346,
      "хорa": 5347,
      "почна": 5348,
      "виждате": 5349,
      "твоята": 5350,
      "софия,": 5351,
      "убие": 5352,
      "западни": 5353,
      "видял": 5354,
      "зуе": 5355,
      "момчета": 5356,
      "очак": 5357,
      "нейния": 5358,
      "терзи": 5359,
      "седмици": 5360,
      "любим": 5361,
      "решава": 5362,
      "фандъкова": 5363,
      "ф,": 5364,
      "пот": 5365,
      "поздра": 5366,
      "чек": 5367,
      "бомба": 5368,
      "прибере": 5369,
      "холи": 5370,
      "думите": 5371,
      "дърти": 5372,
      "брато": 5373,
      "единия": 5374,
      "страшна": 5375,
      "тая,": 5376,
      "чно.": 5377,
      "обикаля": 5378,
      "полиция": 5379,
      "ганьо": 5380,
      "ходим": 5381,
      "положение": 5382,
      "празно": 5383,
      "огромна": 5384,
      "полицаите": 5385,
      "андрей": 5386,
      ".да": 5387,
      "aко": 5388,
      "ктно": 5389,
      "охра": 5390,
      "усети": 5391,
      "шч": 5392,
      "надолу": 5393,
      "васко": 5394,
      "мая": 5395,
      "вено": 5396,
      "отваря": 5397,
      "събере": 5398,
      "стигат": 5399,
      "евгени": 5400,
      "най-добре": 5401,
      "такива.": 5402,
      "зъби": 5403,
      "правосла": 5404,
      "свои": 5405,
      "война.": 5406,
      "работа!": 5407,
      "живееш": 5408,
      "площа": 5409,
      "пътища": 5410,
      "изглеждат": 5411,
      "бизнеса": 5412,
      "причината": 5413,
      "национално": 5414,
      "природата": 5415,
      "психят": 5416,
      "адре": 5417,
      "гнала": 5418,
      "ех,": 5419,
      "ине": 5420,
      "”,": 5421,
      "накара": 5422,
      "нивото": 5423,
      "черен": 5424,
      "кила": 5425,
      "изме": 5426,
      "пира": 5427,
      "пиле": 5428,
      "крату": 5429,
      "зел": 5430,
      "дърво": 5431,
      "бран": 5432,
      "човекът": 5433,
      "мян": 5434,
      "какъвто": 5435,
      "животни": 5436,
      "занимавайте": 5437,
      "започват": 5438,
      "обеди": 5439,
      "стойност": 5440,
      "професия": 5441,
      "елена": 5442,
      "хахахах": 5443,
      "дупка": 5444,
      "двига": 5445,
      "----------------": 5446,
      "ценности": 5447,
      "изврате": 5448,
      "затваря": 5449,
      "администра": 5450,
      ",ако": 5451,
      "уст": 5452,
      "удоб": 5453,
      "ям": 5454,
      "нато.": 5455,
      "кадър": 5456,
      "тели.": 5457,
      "год": 5458,
      "рон": 5459,
      "гадни": 5460,
      "дери": 5461,
      "моето": 5462,
      "бега": 5463,
      "съзна": 5464,
      "кула": 5465,
      "степен": 5466,
      "вяване": 5467,
      "слаба": 5468,
      "говоре": 5469,
      "ьора": 5470,
      "отидат": 5471,
      "виждаш": 5472,
      "жена!": 5473,
      "четох": 5474,
      "руснаци.": 5475,
      "убиват": 5476,
      "заплатата": 5477,
      "вдигне": 5478,
      "злобна": 5479,
      "състояние": 5480,
      "акъла": 5481,
      "е-": 5482,
      "оп": 5483,
      "опроста": 5484,
      "шин": 5485,
      "нагли": 5486,
      "каца": 5487,
      "расте": 5488,
      "вани": 5489,
      "вик": 5490,
      "гости": 5491,
      "изми": 5492,
      "шена": 5493,
      "ждава": 5494,
      "кел": 5495,
      "азят": 5496,
      "хил": 5497,
      "казах": 5498,
      "квали": 5499,
      "днес.": 5500,
      "украинките": 5501,
      "тителен": 5502,
      "милиционе": 5503,
      "свири": 5504,
      "-----": 5505,
      "важни": 5506,
      "територии": 5507,
      "съдбата": 5508,
      "поставя": 5509,
      "условия": 5510,
      "араби": 5511,
      "яйца": 5512,
      "%д0%б": 5513,
      "оцен": 5514,
      "ожени": 5515,
      "шки,": 5516,
      "нее": 5517,
      "коса": 5518,
      "либера": 5519,
      "поклон": 5520,
      "рит": 5521,
      "четвър": 5522,
      "год.": 5523,
      "ло!": 5524,
      "лора": 5525,
      "перу": 5526,
      "жилище": 5527,
      "хотел": 5528,
      "щасти": 5529,
      "гено": 5530,
      "щи,": 5531,
      "предложи": 5532,
      "курвен": 5533,
      "джъ": 5534,
      "относно": 5535,
      "почивка": 5536,
      "следващата": 5537,
      "създава": 5538,
      "използват": 5539,
      "голямото": 5540,
      "болница": 5541,
      "осигуря": 5542,
      "минути": 5543,
      "поведението": 5544,
      "приказки": 5545,
      "мляко": 5546,
      "премиер": 5547,
      "зрителите": 5548,
      "контранастъпле": 5549,
      "\"на": 5550,
      "в!": 5551,
      "дразни": 5552,
      "днъж": 5553,
      "каса": 5554,
      "дадоха": 5555,
      "кока": 5556,
      "тича": 5557,
      "чена": 5558,
      "кита": 5559,
      "русо": 5560,
      "крадат": 5561,
      "имах": 5562,
      "купе": 5563,
      "тука,": 5564,
      "туристи": 5565,
      "едвам": 5566,
      "така!": 5567,
      "по-голям": 5568,
      "мъка": 5569,
      "такива,": 5570,
      "българското": 5571,
      "новините": 5572,
      "клас": 5573,
      "мерки": 5574,
      "сраму": 5575,
      "хванал": 5576,
      "коментара": 5577,
      "забрани": 5578,
      "наркома": 5579,
      "малките": 5580,
      "смъртност": 5581,
      "режим": 5582,
      "жури": 5583,
      "неграмотни": 5584,
      "измислени": 5585,
      "македония": 5586,
      "тоест": 5587,
      "33": 5588,
      "нките": 5589,
      "ото": 5590,
      "уши": 5591,
      "фте": 5592,
      "хле": 5593,
      "важи": 5594,
      "мале,": 5595,
      "тиa": 5596,
      "вине": 5597,
      "мишо": 5598,
      "мото": 5599,
      "цин": 5600,
      "щен": 5601,
      "изтри": 5602,
      "жер": 5603,
      "прибра": 5604,
      "разберат": 5605,
      "вече,": 5606,
      "чудно": 5607,
      "факти": 5608,
      "аа,": 5609,
      "станеш": 5610,
      "минало": 5611,
      "средства": 5612,
      "''.": 5613,
      "управлението": 5614,
      "паднал": 5615,
      "предаване.": 5616,
      "компю": 5617,
      "дрога": 5618,
      "бившия": 5619,
      "полицаи": 5620,
      "валерия": 5621,
      "удоволствие": 5622,
      "напоследък": 5623,
      "глъ": 5624,
      "кади": 5625,
      "ности": 5626,
      "референ": 5627,
      "синът": 5628,
      "дев": 5629,
      "модер": 5630,
      "доби": 5631,
      "женица": 5632,
      "преговори": 5633,
      "шето": 5634,
      "стиска": 5635,
      "лятото": 5636,
      "душата": 5637,
      "път,": 5638,
      "ке,": 5639,
      "остават": 5640,
      "сладу": 5641,
      "федера": 5642,
      "рускините": 5643,
      "възму": 5644,
      "вятър": 5645,
      "полша": 5646,
      "писал": 5647,
      "коледа": 5648,
      "помогна": 5649,
      "руснаците,": 5650,
      "затвори": 5651,
      "паметни": 5652,
      "вдигат": 5653,
      "законите": 5654,
      "грозна,": 5655,
      "демокрацията": 5656,
      "проблемите": 5657,
      "президента": 5658,
      "подкрепа": 5659,
      "военна": 5660,
      "путин.": 5661,
      "главата.": 5662,
      "прaви": 5663,
      "обикновено": 5664,
      "яяяя": 5665,
      "2ш": 5666,
      "вот": 5667,
      "вките": 5668,
      "вкар": 5669,
      "зъл": 5670,
      "ок": 5671,
      "ч00": 5672,
      "яна": 5673,
      "ваши": 5674,
      "зар": 5675,
      "поми": 5676,
      "попита": 5677,
      "гащите": 5678,
      "дела": 5679,
      "съдържа": 5680,
      "лян": 5681,
      "разпро": 5682,
      "широ": 5683,
      "дяво": 5684,
      "направиш": 5685,
      "украинка,": 5686,
      "политик": 5687,
      "политиците": 5688,
      "изведнъж": 5689,
      "стандар": 5690,
      "тръгнала": 5691,
      "2022": 5692,
      "странно": 5693,
      "скандал": 5694,
      "сутринта": 5695,
      "виктория": 5696,
      "др": 5697,
      "ет": 5698,
      "зване": 5699,
      "ир": 5700,
      "нзо": 5701,
      "спу": 5702,
      "справя": 5703,
      "фла": 5704,
      "наси": 5705,
      "тест": 5706,
      "тесто": 5707,
      "дарт": 5708,
      "затри": 5709,
      "масти": 5710,
      "рен,": 5711,
      "йката": 5712,
      "вино": 5713,
      "отпадъ": 5714,
      "бегай": 5715,
      "щели": 5716,
      "рус": 5717,
      "станали": 5718,
      "съби": 5719,
      "ски.": 5720,
      "соцял": 5721,
      "сменят": 5722,
      "сладко": 5723,
      "еее,": 5724,
      "украинската": 5725,
      "джиите": 5726,
      "софиян": 5727,
      "място.": 5728,
      "неща,": 5729,
      "улица": 5730,
      "финансира": 5731,
      "хитлер": 5732,
      "заглавие": 5733,
      "брюксел": 5734,
      "вците": 5735,
      "з,": 5736,
      "звер": 5737,
      "лг": 5738,
      "мп": 5739,
      "ньо": 5740,
      "псу": 5741,
      "пр.": 5742,
      "учу": 5743,
      "шват": 5744,
      "мазна": 5745,
      "седне": 5746,
      "чеше": 5747,
      "вел": 5748,
      "отговори": 5749,
      "деба": 5750,
      "мигранти": 5751,
      "бет": 5752,
      "жено": 5753,
      "съста": 5754,
      "боц": 5755,
      "само,": 5756,
      "дум": 5757,
      "дърве": 5758,
      "фило": 5759,
      "въртят": 5760,
      "предварите": 5761,
      "държавна": 5762,
      "русия!": 5763,
      "нал.": 5764,
      "клати": 5765,
      "война,": 5766,
      "ченце": 5767,
      "пръв": 5768,
      "убиец": 5769,
      "чакай": 5770,
      "байдън": 5771,
      "отвратителен": 5772,
      "лайно": 5773,
      "факта,": 5774,
      "съпруга": 5775,
      "програма": 5776,
      "диплома": 5777,
      "капаците": 5778,
      "дните": 5779,
      "еб": 5780,
      "нката": 5781,
      "о.": 5782,
      "шка,": 5783,
      "щa": 5784,
      "ябъл": 5785,
      "наби": 5786,
      "неф": 5787,
      "маря": 5788,
      "масата": 5789,
      "постъп": 5790,
      "чето.": 5791,
      "мити": 5792,
      "дора": 5793,
      "домо": 5794,
      "стата": 5795,
      "бас": 5796,
      "раздава": 5797,
      "разкара": 5798,
      "бездом": 5799,
      "лъска": 5800,
      "зомби": 5801,
      "пак,": 5802,
      "неговия": 5803,
      "пръска": 5804,
      "хранят": 5805,
      "ползват": 5806,
      "разбрахте": 5807,
      "празну": 5808,
      "тъпата": 5809,
      "израе": 5810,
      "мълчи": 5811,
      "военно": 5812,
      "влизат": 5813,
      "математи": 5814,
      "ракети": 5815,
      "съсипа": 5816,
      "трифонов": 5817,
      "април": 5818,
      "опо": 5819,
      "осъди": 5820,
      "свя": 5821,
      "ъм": 5822,
      "навъ": 5823,
      "назад": 5824,
      "напом": 5825,
      "напишете": 5826,
      "напада": 5827,
      "нинова": 5828,
      "ной": 5829,
      "запи": 5830,
      "пока": 5831,
      "посла": 5832,
      "сиби": 5833,
      "ме!": 5834,
      "отсла": 5835,
      "дело": 5836,
      "моята": 5837,
      "доктор": 5838,
      "изча": 5839,
      "бону": 5840,
      "перио": 5841,
      "ляга": 5842,
      "прием": 5843,
      "мъчи": 5844,
      "всички.": 5845,
      "келе": 5846,
      "работи.": 5847,
      "света,": 5848,
      "някой,": 5849,
      "лия.": 5850,
      "станало": 5851,
      "свиня": 5852,
      "мрънка": 5853,
      "започнаха": 5854,
      "нацисти": 5855,
      "приятен": 5856,
      "благодар": 5857,
      "първото": 5858,
      "добронаме": 5859,
      "знаят,": 5860,
      "икономиката": 5861,
      "престъпници": 5862,
      "западните": 5863,
      "означа": 5864,
      "педераст": 5865,
      "резултат": 5866,
      "5%": 5867,
      "иво": 5868,
      "уреди": 5869,
      "набо": 5870,
      "точка": 5871,
      "линия": 5872,
      "постро": 5873,
      "погре": 5874,
      "понася": 5875,
      "вип": 5876,
      "лево": 5877,
      "меко": 5878,
      "кили": 5879,
      "дее": 5880,
      "ста,": 5881,
      "ста.": 5882,
      "праи": 5883,
      "щатите": 5884,
      "страху": 5885,
      "бутат": 5886,
      "руски,": 5887,
      "възхи": 5888,
      "хеки": 5889,
      "новият": 5890,
      "почва": 5891,
      "тяхната": 5892,
      "войни": 5893,
      "българи.": 5894,
      "телефо": 5895,
      "големият": 5896,
      "красива,": 5897,
      "парите,": 5898,
      "започнат": 5899,
      "ниците.": 5900,
      "пaри": 5901,
      "публично": 5902,
      "блокира": 5903,
      "истинските": 5904,
      "изпраща": 5905,
      "ядрени": 5906,
      "итн": 5907,
      "печелят": 5908,
      "театър": 5909,
      "божков": 5910,
      "ивайло": 5911,
      "дискоте": 5912,
      "29": 5913,
      "впроче": 5914,
      "к...": 5915,
      "лката": 5916,
      "омъ": 5917,
      "ш00": 5918,
      "шум": 5919,
      "яж": 5920,
      "нагъл": 5921,
      "раша": 5922,
      "васил": 5923,
      "кори": 5924,
      "кобра": 5925,
      "новете": 5926,
      "мане": 5927,
      "сей": 5928,
      "тиква": 5929,
      "риa": 5930,
      "медве": 5931,
      "ствия": 5932,
      "дим": 5933,
      "пароди": 5934,
      "нямa": 5935,
      "съвремен": 5936,
      "боте": 5937,
      "пило": 5938,
      "стин": 5939,
      "му!": 5940,
      "индия": 5941,
      "обле": 5942,
      "тъмно": 5943,
      "фай": 5944,
      "зъм.": 5945,
      "картин": 5946,
      "народ,": 5947,
      "комунист": 5948,
      "дрънка": 5949,
      "пенсии": 5950,
      "автобу": 5951,
      "водка": 5952,
      "сайта": 5953,
      "книж": 5954,
      "факт.": 5955,
      "главата,": 5956,
      "слънце": 5957,
      "дошли": 5958,
      "футболи": 5959,
      "документи": 5960,
      "пуснали": 5961,
      "укрите": 5962,
      "прокуратурата": 5963,
      "анали": 5964,
      "мбе": 5965,
      "мрежи": 5966,
      "опор": 5967,
      "уд": 5968,
      "уре": 5969,
      "хър": 5970,
      "лине": 5971,
      "зана": 5972,
      "седна": 5973,
      "виктор": 5974,
      "лега": 5975,
      "меня": 5976,
      "вест": 5977,
      "детел": 5978,
      "може.": 5979,
      "фики": 5980,
      "сухо": 5981,
      "ев,": 5982,
      "българия?": 5983,
      "толкова.": 5984,
      "средата": 5985,
      "казваше": 5986,
      "войници": 5987,
      "ваш,": 5988,
      "простаци": 5989,
      "10-": 5990,
      "лицемер": 5991,
      "стандарт": 5992,
      "уважение": 5993,
      "сайтове": 5994,
      "самият": 5995,
      "фалшиви": 5996,
      "основа": 5997,
      "неутра": 5998,
      "тъкмо": 5999,
      "агресо": 6000,
      "бюджета": 6001,
      "шофьор": 6002,
      "необходимо": 6003,
      "холиву": 6004,
      ",ще": 6005,
      "глa": 6006,
      "гнаха": 6007,
      "ема": 6008,
      "хльо": 6009,
      "набе": 6010,
      "току": 6011,
      "камо": 6012,
      "кару": 6013,
      "ва...": 6014,
      "неве": 6015,
      "некви": 6016,
      "зала": 6017,
      "покрити": 6018,
      "тихо": 6019,
      "сикти": 6020,
      "вили": 6021,
      "верен": 6022,
      "гаран": 6023,
      "няци": 6024,
      "рур": 6025,
      "събират": 6026,
      "хор": 6027,
      "хотели": 6028,
      "вървят": 6029,
      "бездо": 6030,
      "годиш": 6031,
      "годишно": 6032,
      "требе": 6033,
      "!!!!!!!": 6034,
      "виждали": 6035,
      "комши": 6036,
      "фото": 6037,
      "сърбия": 6038,
      "българският": 6039,
      "комунизма": 6040,
      "желае": 6041,
      "доброто": 6042,
      "червените": 6043,
      "соцяли": 6044,
      "дупето": 6045,
      "приличат": 6046,
      "паднали": 6047,
      "д-р": 6048,
      "лавров": 6049,
      "изисква": 6050,
      "?\"": 6051,
      "ато": 6052,
      "дни,": 6053,
      "юм": 6054,
      "нато,": 6055,
      "тен,": 6056,
      "небе": 6057,
      "мамин": 6058,
      "мастия": 6059,
      "пото": 6060,
      "почер": 6061,
      "серти": 6062,
      "йе": 6063,
      "моше": 6064,
      "доведе": 6065,
      "лови": 6066,
      "стади": 6067,
      "баре": 6068,
      "правете": 6069,
      "ряла": 6070,
      "стоп": 6071,
      "инг": 6072,
      "обсъ": 6073,
      "плане": 6074,
      "чор": 6075,
      "сега.": 6076,
      "фашиз": 6077,
      "подра": 6078,
      "буъ": 6079,
      "третия": 6080,
      "народна": 6081,
      "българка": 6082,
      "новина,": 6083,
      "новина.": 6084,
      "ходиш": 6085,
      "нормал": 6086,
      "място,": 6087,
      "неща.": 6088,
      "иии": 6089,
      "нацистите": 6090,
      "рускиня.": 6091,
      "момче,": 6092,
      "световен": 6093,
      "комплекси": 6094,
      "индивиди": 6095,
      "двор": 6096,
      "цивилизовани": 6097,
      "враждебност": 6098,
      "3ч": 6099,
      "нчо": 6100,
      "урод": 6101,
      "нар.": 6102,
      "сере": 6103,
      "рий": 6104,
      "вир": 6105,
      "чел": 6106,
      "горко": 6107,
      "рове": 6108,
      "мед": 6109,
      "кисело": 6110,
      "волю": 6111,
      "минат": 6112,
      "щето": 6113,
      "чинов": 6114,
      "грамо": 6115,
      "дъж": 6116,
      "кaкво": 6117,
      "нието.": 6118,
      "украинска": 6119,
      "мръсна": 6120,
      "рускинята": 6121,
      "проблемът": 6122,
      "бензи": 6123,
      "искa": 6124,
      "излизат": 6125,
      "македон": 6126,
      "единствената": 6127,
      "австрия": 6128,
      "универ": 6129,
      "футбо": 6130,
      "славчо": 6131,
      "хамас": 6132,
      "сръб": 6133,
      "разпростра": 6134,
      "агент": 6135,
      "дд": 6136,
      "опози": 6137,
      "услу": 6138,
      "чна,": 6139,
      "ял": 6140,
      "награ": 6141,
      "тация": 6142,
      "тед": 6143,
      "мам": 6144,
      "..и": 6145,
      "вие,": 6146,
      "вор": 6147,
      "диви": 6148,
      "паци": 6149,
      "парата": 6150,
      "изказва": 6151,
      "библи": 6152,
      "пребива": 6153,
      "препоръ": 6154,
      "пищо": 6155,
      "краж": 6156,
      "хонора": 6157,
      "гладни": 6158,
      "подло": 6159,
      "по-големи": 6160,
      "по-добър": 6161,
      "страшен": 6162,
      "оставя": 6163,
      "хия": 6164,
      "търса": 6165,
      "взела": 6166,
      "блит": 6167,
      "хме,": 6168,
      "чалгаро": 6169,
      "селско": 6170,
      "същества": 6171,
      "известно": 6172,
      "участници": 6173,
      "енергия": 6174,
      "църву": 6175,
      "програми": 6176,
      "директор": 6177,
      "долнопроб": 6178,
      "1-2": 6179,
      "фолк": 6180,
      "отслабва": 6181,
      "%ц": 6182,
      "(за": 6183,
      "80%": 6184,
      "зра": 6185,
      "оси": 6186,
      "пна": 6187,
      "товете": 6188,
      "забре": 6189,
      "тика": 6190,
      "йт": 6191,
      "гошо": 6192,
      "лекува": 6193,
      "кири": 6194,
      "дива": 6195,
      "прова": 6196,
      "ба!": 6197,
      "баце": 6198,
      "съда": 6199,
      "педе": 6200,
      "...това": 6201,
      "муста": 6202,
      "ната!": 6203,
      "самолет": 6204,
      "граф": 6205,
      "тъгу": 6206,
      "чудят": 6207,
      "евтина": 6208,
      "тая.": 6209,
      "държави,": 6210,
      "чност": 6211,
      "гледате": 6212,
      "оставят": 6213,
      "ферма": 6214,
      "даваш": 6215,
      "ставаш": 6216,
      "черта": 6217,
      "ебахти": 6218,
      "противно": 6219,
      "плевен": 6220,
      "клиенти": 6221,
      "пияните": 6222,
      "управля": 6223,
      "щял": 6224,
      "мозъка": 6225,
      "тъпото": 6226,
      "участи": 6227,
      "проститутки": 6228,
      "детски": 6229,
      "умиш": 6230,
      "защитава": 6231,
      "обратното": 6232,
      "роднините": 6233,
      "вкус": 6234,
      "неговото": 6235,
      "цовид-19": 6236,
      ",с": 6237,
      "-да": 6238,
      "90%": 6239,
      "кция": 6240,
      "мр": 6241,
      "напроти": 6242,
      "нейна": 6243,
      "нон": 6244,
      "пола": 6245,
      "потъ": 6246,
      "цирка": 6247,
      "рубли": 6248,
      "пуше": 6249,
      "майки": 6250,
      "хирур": 6251,
      "пари!": 6252,
      "мандръ": 6253,
      "григо": 6254,
      "българин.": 6255,
      "март": 6256,
      "обясне": 6257,
      "ясно.": 6258,
      "мислете": 6259,
      "лицемери": 6260,
      "дебел": 6261,
      "дебели": 6262,
      "дебело": 6263,
      "вземете": 6264,
      "закони": 6265,
      "гейо": 6266,
      "матерял": 6267,
      "агресия": 6268,
      "депутат": 6269,
      "практика": 6270,
      "погледнете": 6271,
      "дисци": 6272,
      "пожарни": 6273,
      "сглоб": 6274,
      "геноци": 6275,
      "27": 6276,
      "28": 6277,
      "гя": 6278,
      "кльо": 6279,
      "цвет": 6280,
      "ье": 6281,
      "нара": 6282,
      "набута": 6283,
      "дани": 6284,
      "ниa": 6285,
      "незакон": 6286,
      "лих": 6287,
      "маа": 6288,
      "поря": 6289,
      "подай": 6290,
      "построи": 6291,
      "сии": 6292,
      "вое": 6293,
      "мота": 6294,
      "паси": 6295,
      "сталин": 6296,
      "събо": 6297,
      "пери": 6298,
      "ча,": 6299,
      "прави,": 6300,
      "лъжат": 6301,
      "вампи": 6302,
      "най-накрая": 6303,
      "сперма": 6304,
      "гроб": 6305,
      "интереси": 6306,
      "виждаме": 6307,
      "твой": 6308,
      "гъби": 6309,
      "джоба": 6310,
      "вният": 6311,
      "техника": 6312,
      "ужас!": 6313,
      "дрис": 6314,
      "пандеми": 6315,
      "дъщерята": 6316,
      "овце": 6317,
      "основно": 6318,
      "парламен": 6319,
      "енерге": 6320,
      "жълти": 6321,
      "извиня": 6322,
      "елементарно": 6323,
      "камелия": 6324,
      "предлагам": 6325,
      "синопти": 6326,
      "арогант": 6327,
      "упраж": 6328,
      "-20-": 6329,
      "ò": 6330,
      "ално": 6331,
      "ващо": 6332,
      "нечисто": 6333,
      "мазо": 6334,
      "повър": 6335,
      "помежду": 6336,
      "гора": 6337,
      "лете": 6338,
      "галя": 6339,
      "дили": 6340,
      "доле": 6341,
      "избе": 6342,
      "проя": 6343,
      "боза": 6344,
      "петя": 6345,
      "чичко": 6346,
      "разходи": 6347,
      "различа": 6348,
      "дух": 6349,
      "безда": 6350,
      "тън": 6351,
      "сков": 6352,
      "фата": 6353,
      "негова": 6354,
      "лни.": 6355,
      "злобен": 6356,
      "твоите": 6357,
      "спло": 6358,
      "крепост": 6359,
      "положи": 6360,
      "простаке": 6361,
      "смисъ": 6362,
      "барне": 6363,
      "комплексира": 6364,
      "десети": 6365,
      "кажа,": 6366,
      "икономически": 6367,
      "боледу": 6368,
      "обърка": 6369,
      "оооооооо": 6370,
      "голема": 6371,
      "притесня": 6372,
      "безплатно": 6373,
      "копеле": 6374,
      "завистливи": 6375,
      "достоен": 6376,
      "пловдив": 6377,
      "дисципли": 6378,
      "\"-": 6379,
      ".\"": 6380,
      "еп": 6381,
      "евен": 6382,
      "кян": 6383,
      "огъ": 6384,
      "напише": 6385,
      "намират": 6386,
      "тор.": 6387,
      "неделя": 6388,
      "отглежда": 6389,
      "водата": 6390,
      "стна": 6391,
      "мос": 6392,
      "бела": 6393,
      "прет": 6394,
      "боби": 6395,
      "мус": 6396,
      "сте?": 6397,
      "криво": 6398,
      "тaзи": 6399,
      "хванат": 6400,
      "свир": 6401,
      "щяхме": 6402,
      "нейното": 6403,
      "глупаво": 6404,
      "водещи": 6405,
      "данни": 6406,
      "цигански": 6407,
      "сериозна": 6408,
      "платена": 6409,
      "морал": 6410,
      "съгласен": 6411,
      "емоци": 6412,
      "интелект": 6413,
      "милионер": 6414,
      "дребни": 6415,
      "луксо": 6416,
      "румъния": 6417,
      "столицата": 6418,
      "конституцията": 6419,
      "офицялно": 6420,
      "служеб": 6421,
      "120": 6422,
      "7ш8": 6423,
      "уха": 6424,
      "увре": 6425,
      "навън": 6426,
      "тана": 6427,
      "вашата": 6428,
      "лити": 6429,
      "засе": 6430,
      "заста": 6431,
      "мака": 6432,
      "гали": 6433,
      "цитира": 6434,
      "състе": 6435,
      "педо": 6436,
      "соли": 6437,
      "царе": 6438,
      "пласт": 6439,
      "безсмисле": 6440,
      "гледам,": 6441,
      "още.": 6442,
      "човешко": 6443,
      "вност": 6444,
      "питай": 6445,
      "мaн": 6446,
      "простак": 6447,
      "ровки": 6448,
      "момиче.": 6449,
      "миндил": 6450,
      "книга": 6451,
      "движи": 6452,
      "евтино": 6453,
      "контрол": 6454,
      "финландия": 6455,
      "счупи": 6456,
      "чиито": 6457,
      "справедливо": 6458,
      "дния": 6459,
      "зз": 6460,
      "и&#": 6461,
      "сро": 6462,
      "упори": 6463,
      "чката.": 6464,
      "ш-": 6465,
      "натря": 6466,
      "раш": 6467,
      "ракия": 6468,
      "тит": 6469,
      "лежа": 6470,
      "папа": 6471,
      "циa": 6472,
      "басту": 6473,
      "пеят": 6474,
      "шефо": 6475,
      "скал": 6476,
      "жалък": 6477,
      "краста": 6478,
      "стеф": 6479,
      "слаби": 6480,
      "беше,": 6481,
      "ферови": 6482,
      "търгов": 6483,
      "ьорите": 6484,
      "мерце": 6485,
      "197": 6486,
      "родител": 6487,
      "скъп": 6488,
      "селянка": 6489,
      "решението": 6490,
      "възраждане": 6491,
      "биеш": 6492,
      "очакваме": 6493,
      "евреи": 6494,
      "бедните": 6495,
      "бръм": 6496,
      "лъжите": 6497,
      "пачавра": 6498,
      "интересува.": 6499,
      "захарова": 6500,
      "жертви": 6501,
      "сюл": 6502,
      "леглото": 6503,
      "аудито": 6504,
      "7ш8;": 6505,
      "и&#7ш8;": 6506,
      "aпи": 6507,
      "вза": 6508,
      "зми": 6509,
      "лгa": 6510,
      "нге": 6511,
      "справи": 6512,
      "напусна": 6513,
      "тена": 6514,
      "тече": 6515,
      "не?": 6516,
      "поля": 6517,
      "секу": 6518,
      "тите.": 6519,
      "реч": 6520,
      "реал": 6521,
      "вито": 6522,
      "чето,": 6523,
      "розо": 6524,
      "старата": 6525,
      "инфар": 6526,
      "грани": 6527,
      "върже": 6528,
      "вършат": 6529,
      "плат": 6530,
      "добрия": 6531,
      "хуя": 6532,
      "взели": 6533,
      "умните": 6534,
      "политическа": 6535,
      "колеж": 6536,
      "1989": 6537,
      "герб,": 6538,
      "идея": 6539,
      "връзки": 6540,
      "тръгнали": 6541,
      "скрий": 6542,
      "кучета,": 6543,
      "написал": 6544,
      "вярно,": 6545,
      "район": 6546,
      "първият": 6547,
      "рокля": 6548,
      "краварите": 6549,
      "промяната": 6550,
      "минимален": 6551,
      "уточ": 6552,
      "т'ва": 6553,
      "контранастъплението": 6554,
      "жертва": 6555,
      "чалгаропите": 6556,
      "/.": 6557,
      "асе": 6558,
      "и?": 6559,
      "наблю": 6560,
      "тата.": 6561,
      "кава": 6562,
      "не...": 6563,
      "чев,": 6564,
      "готин": 6565,
      "лева,": 6566,
      "газо": 6567,
      "мома": 6568,
      "избу": 6569,
      "женски": 6570,
      "прогно": 6571,
      "мул": 6572,
      "тупа": 6573,
      "дърпа": 6574,
      "брак": 6575,
      "платят": 6576,
      "друг.": 6577,
      "годишни": 6578,
      "страна,": 6579,
      "иска.": 6580,
      "орг/": 6581,
      "тресе": 6582,
      "търго": 6583,
      "ааа,": 6584,
      "народът": 6585,
      "джоб": 6586,
      "форми": 6587,
      "друго.": 6588,
      "въпросът": 6589,
      ",,,,": 6590,
      "вдигна": 6591,
      "зирани": 6592,
      "представлява": 6593,
      "вземеш": 6594,
      "европейска": 6595,
      "смъртта": 6596,
      "тежки": 6597,
      "увелича": 6598,
      "професионали": 6599,
      "наруше": 6600,
      "&#12": 6601,
      "манипулира": 6602,
      "загинали": 6603,
      "империя": 6604,
      "татуи": 6605,
      "откачал": 6606,
      "добронамерени": 6607,
      "!а": 6608,
      ",на": 6609,
      "1%": 6610,
      "9.": 6611,
      "включи": 6612,
      "ил": 6613,
      "л...": 6614,
      "мг/": 6615,
      "чни.": 6616,
      "яват": 6617,
      "таша": 6618,
      "ниски": 6619,
      "неможе": 6620,
      "недей": 6621,
      "негати": 6622,
      "кожа": 6623,
      "нова.": 6624,
      "лите,": 6625,
      "мазен": 6626,
      "риба": 6627,
      "мете": 6628,
      "стъл": 6629,
      "пав": 6630,
      "боб": 6631,
      "чики": 6632,
      "облек": 6633,
      "дъртия": 6634,
      "ците!": 6635,
      "по-цивилизовани": 6636,
      "снат": 6637,
      "работи,": 6638,
      "руски.": 6639,
      "своето": 6640,
      "г.цом/": 6641,
      "убива": 6642,
      "колегите": 6643,
      "родила": 6644,
      "плюс": 6645,
      "хубавото": 6646,
      "отврат.": 6647,
      "ерген": 6648,
      "хттп://тхе": 6649,
      "жената.": 6650,
      "наркотици": 6651,
      "култур": 6652,
      "махнат": 6653,
      "същият": 6654,
      "любовта": 6655,
      "мълча": 6656,
      "бивш": 6657,
      "некадърни": 6658,
      "променя": 6659,
      "мислят,": 6660,
      "кокорчо": 6661,
      "далече": 6662,
      "ваксинирани": 6663,
      "позволява": 6664,
      "национални": 6665,
      "професиона": 6666,
      "преднисоне-20-": 6667,
      "социума": 6668,
      "забележи": 6669,
      "инеaпи": 6670,
      "тъгуинеaпи": 6671,
      "преттъгуинеaпи": 6672,
      "състеза": 6673,
      "г.цом/преднисоне-20-": 6674,
      "хттп://тхепреттъгуинеaпи": 6675,
      "г.цом/преднисоне-20-мг/": 6676,
      "хттп://тхепреттъгуинеaпиг.цом/преднисоне-20-мг/": 6677,
      "38": 6678,
      "оплю": 6679,
      "пва": 6680,
      "тката": 6681,
      "трa": 6682,
      "ф-": 6683,
      "канала": 6684,
      "калин": 6685,
      "дара": 6686,
      "кораб": 6687,
      "лиси": 6688,
      "зале": 6689,
      "села": 6690,
      "..а": 6691,
      "готова": 6692,
      "рож": 6693,
      "гав": 6694,
      "ци?": 6695,
      "сънарод": 6696,
      "бос": 6697,
      "пий": 6698,
      "луен": 6699,
      "кух": 6700,
      "самолета": 6701,
      "обли": 6702,
      "гешев": 6703,
      "по-голяма": 6704,
      "председа": 6705,
      "майта": 6706,
      "най-вероятно": 6707,
      "конвен": 6708,
      "йте.": 6709,
      "дърен": 6710,
      "манта": 6711,
      "ооо,": 6712,
      "власти": 6713,
      "поредното": 6714,
      "паднат": 6715,
      "вирус": 6716,
      "антивак": 6717,
      "защитават": 6718,
      "цъф": 6719,
      "двойно": 6720,
      "строител": 6721,
      "фотошоп": 6722,
      "отделно": 6723,
      "персонал": 6724,
      "пампер": 6725,
      "неприятна": 6726,
      "претенции": 6727,
      "омраза": 6728,
      "-и": 6729,
      "ефир": 6730,
      "ом": 6731,
      "топло": 6732,
      "ваги": 6733,
      "ни\"": 6734,
      "нението": 6735,
      "нето,": 6736,
      "кози": 6737,
      "нов.": 6738,
      "махва": 6739,
      "тий": 6740,
      "виза": 6741,
      "роден": 6742,
      "га!": 6743,
      "измисля": 6744,
      "...да": 6745,
      "приклю": 6746,
      "разкри": 6747,
      "мнооо": 6748,
      "тунин": 6749,
      "инстру": 6750,
      "стери": 6751,
      "телност": 6752,
      "исках": 6753,
      "представа": 6754,
      "нула": 6755,
      "дъх": 6756,
      "глут": 6757,
      "почне": 6758,
      "аргу": 6759,
      "мъже,": 6760,
      "вление": 6761,
      "брои": 6762,
      "публиката": 6763,
      "автомати": 6764,
      "джуки": 6765,
      "рекламира": 6766,
      "учеб": 6767,
      "прекрасен": 6768,
      "книги": 6769,
      "огромен": 6770,
      "мафията": 6771,
      "блъска": 6772,
      "космоса": 6773,
      "травестит": 6774,
      "русофоби": 6775,
      "гря": 6776,
      "кв.": 6777,
      "од": 6778,
      "уви": 6779,
      "флек": 6780,
      "чле": 6781,
      "начело": 6782,
      "кос": 6783,
      "покани": 6784,
      "гадна": 6785,
      "моск": 6786,
      "лог": 6787,
      "пичове": 6788,
      "пич,": 6789,
      "педали": 6790,
      "правата": 6791,
      "това!": 6792,
      "мум": 6793,
      "разсъ": 6794,
      "разоча": 6795,
      "къса": 6796,
      "натали": 6797,
      "ща,": 6798,
      "самолети": 6799,
      "правил": 6800,
      "границите": 6801,
      "ша.": 6802,
      "фарма": 6803,
      "снаря": 6804,
      "чното": 6805,
      "пак.": 6806,
      "най-голямата": 6807,
      "знаем,": 6808,
      "парче": 6809,
      "него!": 6810,
      "хели": 6811,
      "хубавите": 6812,
      "2020": 6813,
      "дaр": 6814,
      "сложат": 6815,
      "черна": 6816,
      "ходил": 6817,
      "свирка": 6818,
      "борис": 6819,
      "въпроси": 6820,
      "представите": 6821,
      "вземем": 6822,
      "заслужи": 6823,
      "наркоти": 6824,
      "тъпотии": 6825,
      "петко": 6826,
      "коментират": 6827,
      "бившата": 6828,
      "отговор": 6829,
      "пазара": 6830,
      "мисир": 6831,
      "интелектуа": 6832,
      "пишман": 6833,
      "страхотен": 6834,
      "септември": 6835,
      "афганистан": 6836,
      "университе": 6837,
      ",няма": 6838,
      "aтa": 6839,
      "етно": 6840,
      "удар": 6841,
      "кало": 6842,
      "тегло": 6843,
      "нео": 6844,
      "зад.": 6845,
      "тието": 6846,
      "виц": 6847,
      "чеп": 6848,
      "стки": 6849,
      "белите": 6850,
      "изда": 6851,
      "изхвърля": 6852,
      "измиш": 6853,
      "проу": 6854,
      "пиши": 6855,
      "късо": 6856,
      "султа": 6857,
      "ство!": 6858,
      "фами": 6859,
      "слагат": 6860,
      "бяла": 6861,
      "простотиите": 6862,
      "дължи": 6863,
      "карам": 6864,
      "тях!": 6865,
      "нея!": 6866,
      "минават": 6867,
      "миналото": 6868,
      "владо": 6869,
      "турско": 6870,
      "последното": 6871,
      "свободно": 6872,
      "бабата": 6873,
      "продукти": 6874,
      "изкустве": 6875,
      "език.": 6876,
      "нет/": 6877,
      "оцеля": 6878,
      "тарикат": 6879,
      "гориво": 6880,
      "комплексар": 6881,
      "инфла": 6882,
      "инфлуен": 6883,
      "характер": 6884,
      "бездомни": 6885,
      "7-": 6886,
      "ия": 6887,
      "к-": 6888,
      "успо": 6889,
      "яки": 6890,
      "невероят": 6891,
      "ли...": 6892,
      "заприлича": 6893,
      "задово": 6894,
      "йната": 6895,
      "роми": 6896,
      "мизер": 6897,
      "преслава": 6898,
      "писва": 6899,
      "имаха": 6900,
      "купя": 6901,
      "лен,": 6902,
      "те,че": 6903,
      "нужни": 6904,
      "вaм": 6905,
      "вaтa": 6906,
      "комби": 6907,
      "ченге": 6908,
      "получат": 6909,
      "разбира,": 6910,
      "..........": 6911,
      "техния": 6912,
      "алтер": 6913,
      "скъсам": 6914,
      "паднала": 6915,
      "предаването.": 6916,
      "здравето": 6917,
      "ствие,": 6918,
      "хaхa": 6919,
      "данъко": 6920,
      "червени": 6921,
      "червената": 6922,
      "раждат": 6923,
      "изчез": 6924,
      "двойка": 6925,
      "присъеди": 6926,
      "ииииииии": 6927,
      "ресурси": 6928,
      "хейтъ": 6929,
      "характе": 6930,
      "мюсюл": 6931,
      "съответ": 6932,
      "игрите": 6933,
      "бездомните": 6934,
      "алтернати": 6935,
      "\"от": 6936,
      "ега": 6937,
      "кна": 6938,
      "скла": 6939,
      "ул": 6940,
      "яла": 6941,
      "наясно": 6942,
      "напомня": 6943,
      "ва?": 6944,
      "вана": 6945,
      "тела": 6946,
      "коня": 6947,
      "лицата": 6948,
      "заре": 6949,
      "заминава": 6950,
      "маща": 6951,
      "рина": 6952,
      "силни": 6953,
      "рожде": 6954,
      "леги": 6955,
      "отстъп": 6956,
      "отблъ": 6957,
      "вода.": 6958,
      "бени": 6959,
      "био": 6960,
      "развали": 6961,
      "кучка": 6962,
      "дубай": 6963,
      "иска,": 6964,
      "работо": 6965,
      "споразуме": 6966,
      "другият": 6967,
      "манджа": 6968,
      "карта": 6969,
      "втория": 6970,
      "сенза": 6971,
      "ваш.": 6972,
      "торба": 6973,
      "простащи": 6974,
      "свободата": 6975,
      "вица,": 6976,
      "национали": 6977,
      "глупости!": 6978,
      "затвора.": 6979,
      "ха,ха,": 6980,
      "абсолютна": 6981,
      "добрата": 6982,
      "поглед": 6983,
      "ковид-19": 6984,
      "живяла": 6985,
      "халва": 6986,
      "генера": 6987,
      "екран": 6988,
      "бъдещето": 6989,
      "гаранти": 6990,
      "предизвика": 6991,
      "((((((((": 6992,
      "бежанци": 6993,
      "патриоти": 6994,
      "баджана": 6995,
      "ликвиди": 6996,
      "предупре": 6997,
      "терзиев": 6998,
      "аку": 6999,
      "ент": 7000,
      "пь": 7001,
      "уй": 7002,
      "цвят": 7003,
      "накъде": 7004,
      "ни...": 7005,
      "лична": 7006,
      "поте": 7007,
      "тивно": 7008,
      "чен,": 7009,
      "ров,": 7010,
      "лелка": 7011,
      "отбра": 7012,
      "дея": 7013,
      "доне": 7014,
      "изре": 7015,
      "преси": 7016,
      "превзе": 7017,
      "чица": 7018,
      "разслед": 7019,
      "стол": 7020,
      "рното": 7021,
      "спорти": 7022,
      "години!": 7023,
      "нaй": 7024,
      "криви": 7025,
      "нти,": 7026,
      "лника": 7027,
      "ков.": 7028,
      "дълбо": 7029,
      "правото": 7030,
      "животно": 7031,
      "формата": 7032,
      "международ": 7033,
      "плеши": 7034,
      "значи,": 7035,
      "работя": 7036,
      "чувство": 7037,
      "татко": 7038,
      "решил": 7039,
      "мириса": 7040,
      "братле,": 7041,
      "собствените": 7042,
      "собствената": 7043,
      "германия,": 7044,
      "светли": 7045,
      "тежка": 7046,
      "физически": 7047,
      "избират": 7048,
      "йййй": 7049,
      "станишев": 7050,
      "елементарни": 7051,
      "исторически": 7052,
      "александра": 7053,
      "продуцентите": 7054,
      "перфект": 7055,
      "шенген,": 7056,
      "димитров": 7057,
      "манталите": 7058,
      "мнооого": 7059,
      "измишльо": 7060,
      "\"да": 7061,
      "1:": 7062,
      "дп": 7063,
      "нското": 7064,
      "усе": 7065,
      "напре": 7066,
      "тен.": 7067,
      "заме": 7068,
      "заеми": 7069,
      "порт": 7070,
      "симе": 7071,
      "демек": 7072,
      "миха": 7073,
      "изцяло": 7074,
      "желя": 7075,
      "бак": 7076,
      "пето": 7077,
      "пее,": 7078,
      "песните": 7079,
      "зен,": 7080,
      "тялото": 7081,
      "безполе": 7082,
      "евтин": 7083,
      "фана": 7084,
      "денти": 7085,
      "споме": 7086,
      "хими": 7087,
      "конфи": 7088,
      "трима": 7089,
      "той,": 7090,
      "знаеш,": 7091,
      "нарочно": 7092,
      "ебал": 7093,
      "живота,": 7094,
      "кръсти": 7095,
      "сървай": 7096,
      "парите.": 7097,
      "медия": 7098,
      "ядеш": 7099,
      "телевизии": 7100,
      "хттп://ввв.": 7101,
      "глупав": 7102,
      "господи": 7103,
      "готвят": 7104,
      "спряха": 7105,
      "гръм": 7106,
      "делян": 7107,
      "мразят": 7108,
      "християн": 7109,
      "подобен": 7110,
      "армията": 7111,
      "надявам": 7112,
      "промяна": 7113,
      "селянду": 7114,
      "продукцията": 7115,
      "капките": 7116,
      "aз": 7117,
      "аве": 7118,
      "вна.": 7119,
      "м0": 7120,
      "окрайна": 7121,
      "т-": 7122,
      "тере": 7123,
      "ним": 7124,
      "козло": 7125,
      "подаде": 7126,
      "йните": 7127,
      "митко": 7128,
      "бей": 7129,
      "изнасил": 7130,
      "лошите": 7131,
      "чата": 7132,
      "крал": 7133,
      "крачу": 7134,
      "тут": 7135,
      "облече": 7136,
      "така?": 7137,
      "ване!": 7138,
      "лен.": 7139,
      "редно": 7140,
      "тяхното": 7141,
      "онлай": 7142,
      "мъжка": 7143,
      "кажем": 7144,
      "успешно": 7145,
      "победите": 7146,
      "протест": 7147,
      "госпожа": 7148,
      "продукт": 7149,
      "богатите": 7150,
      "кърти": 7151,
      "болше": 7152,
      "огром": 7153,
      "магазина": 7154,
      "мразя": 7155,
      "пенсионери": 7156,
      "ергенът": 7157,
      "усмих": 7158,
      "златотърса": 7159,
      "очаквам": 7160,
      "нойзи": 7161,
      "означава,": 7162,
      "/3": 7163,
      "вка.": 7164,
      "ети": 7165,
      "ефи": 7166,
      "оказва": 7167,
      "рс": 7168,
      "тъл": 7169,
      "ш9": 7170,
      "юр": 7171,
      "“.": 7172,
      "наем": 7173,
      "тони": 7174,
      "раха": 7175,
      "тите,": 7176,
      "чене": 7177,
      "мевки": 7178,
      "киня": 7179,
      "отва": 7180,
      "сади": 7181,
      "диса": 7182,
      "допълните": 7183,
      "патка": 7184,
      "стан,": 7185,
      "проща": 7186,
      "праска": 7187,
      "ляк": 7188,
      "прикри": 7189,
      "ръга": 7190,
      "вече!": 7191,
      "брату": 7192,
      "тия!": 7193,
      "трета": 7194,
      "евро!": 7195,
      "истина.": 7196,
      "дълъ": 7197,
      "кaз": 7198,
      "оо,": 7199,
      "слово": 7200,
      "джон": 7201,
      "мъжко": 7202,
      "друго,": 7203,
      "д.нет/": 7204,
      ":):)": 7205,
      "забравят": 7206,
      "спират": 7207,
      "действат": 7208,
      "свършат": 7209,
      "празник": 7210,
      "пуснал": 7211,
      "хттп://мевки": 7212,
      "реклами": 7213,
      "проблеми.": 7214,
      "блоки": 7215,
      "варянт": 7216,
      "виновна": 7217,
      "анар": 7218,
      "излъга": 7219,
      "провери": 7220,
      "мафия": 7221,
      "оборо": 7222,
      "джендъ": 7223,
      "концерт": 7224,
      "петрол": 7225,
      "чудесно": 7226,
      "печалби": 7227,
      "производство": 7228,
      "талиба": 7229,
      "резултата": 7230,
      "бургас": 7231,
      "традицион": 7232,
      "конкурен": 7233,
      "козлоду": 7234,
      "хттп://мевкид.нет/": 7235,
      "амби": 7236,
      "иба": 7237,
      "нр": 7238,
      "ора": 7239,
      "оке": 7240,
      "уве": 7241,
      "цла": 7242,
      "чвам": 7243,
      "нап": 7244,
      "награда": 7245,
      "ваща": 7246,
      "отряза": 7247,
      "гадно": 7248,
      "дем": 7249,
      "дееба": 7250,
      "изроди": 7251,
      "прочетох": 7252,
      "прекара": 7253,
      "пи,": 7254,
      "пи.": 7255,
      "разчита": 7256,
      "кън": 7257,
      "самото": 7258,
      "шават": 7259,
      "фащ": 7260,
      "страте": 7261,
      "нужен": 7262,
      "аз,": 7263,
      "казаха": 7264,
      "конста": 7265,
      "българка.": 7266,
      "мъже.": 7267,
      "благосло": 7268,
      "байдъ": 7269,
      "опатра": 7270,
      "авторите": 7271,
      "четеш": 7272,
      "чуждо": 7273,
      "страхотно": 7274,
      "гръб": 7275,
      "китайците": 7276,
      "сливен": 7277,
      "данък": 7278,
      "червено": 7279,
      "магазин": 7280,
      "въздух": 7281,
      "нашият": 7282,
      "концер": 7283,
      "мацка": 7284,
      "мизерия": 7285,
      "пошло": 7286,
      "конфликт": 7287,
      "падение": 7288,
      "3-ч": 7289,
      "трагедия": 7290,
      "фейсбук": 7291,
      "катастрофа": 7292,
      "субси": 7293,
      "умишлено": 7294,
      "!и": 7295,
      "/,": 7296,
      "влича": 7297,
      "тр": 7298,
      "чна.": 7299,
      "напусне": 7300,
      "тои": 7301,
      "кова,": 7302,
      "кофти": 7303,
      "лират": 7304,
      "зара": 7305,
      "мача": 7306,
      "ти?": 7307,
      "лец": 7308,
      "летя": 7309,
      "мел": 7310,
      "вее": 7311,
      "вето": 7312,
      "отпред": 7313,
      "гада": 7314,
      "гари": 7315,
      "денаци": 7316,
      "изключи": 7317,
      "изток": 7318,
      "пила": 7319,
      "товари": 7320,
      "мутрите": 7321,
      "къф": 7322,
      "кухи": 7323,
      "ряват": 7324,
      "соца": 7325,
      "пъте": 7326,
      "чо.": 7327,
      "такава.": 7328,
      "искали": 7329,
      "т.н": 7330,
      "фера": 7331,
      "ковци": 7332,
      "манчев": 7333,
      "децата,": 7334,
      "твоето": 7335,
      "джър": 7336,
      "ами,": 7337,
      "г.,": 7338,
      "турците": 7339,
      "великата": 7340,
      "свидетел": 7341,
      "видяхте": 7342,
      "сърцето": 7343,
      "изнер": 7344,
      "средната": 7345,
      "вярват": 7346,
      "благодари": 7347,
      "хттпс://ввв.": 7348,
      "махнете": 7349,
      "мангали": 7350,
      "кърва": 7351,
      "блока": 7352,
      "километра": 7353,
      "физионо": 7354,
      "участниците": 7355,
      "бизнесмен": 7356,
      "екрана": 7357,
      "общината": 7358,
      "капитали": 7359,
      "лондон": 7360,
      "кариера": 7361,
      "съжалявам": 7362,
      "физиономия": 7363,
      "0.": 7364,
      "32": 7365,
      "a.": 7366,
      "аха": 7367,
      "анал": 7368,
      "зма.": 7369,
      "онира": 7370,
      "шпи": 7371,
      "напа": 7372,
      "канали": 7373,
      "ни?": 7374,
      "незабавно": 7375,
      "кост": 7376,
      "засра": 7377,
      "завла": 7378,
      "маска": 7379,
      "респе": 7380,
      "рони": 7381,
      "лер": 7382,
      "ветно": 7383,
      "оттам": 7384,
      "де!": 7385,
      "мода": 7386,
      "изрод": 7387,
      "няване": 7388,
      "съба": 7389,
      "лято": 7390,
      "гран": 7391,
      "графи": 7392,
      "град.": 7393,
      "чували": 7394,
      "годината": 7395,
      "ско.": 7396,
      "гласът": 7397,
      "губе": 7398,
      "дязе": 7399,
      "пълне": 7400,
      "знаеше": 7401,
      "нието,": 7402,
      "тaй": 7403,
      "интересите": 7404,
      "бъдеш": 7405,
      "твори": 7406,
      "вятъ": 7407,
      "срамно": 7408,
      "власт.": 7409,
      "украйна!": 7410,
      "държава!": 7411,
      "гърди": 7412,
      "колеги": 7413,
      "мръсен": 7414,
      "начина": 7415,
      "логика": 7416,
      "искре": 7417,
      "клеопатра": 7418,
      "к'ъв": 7419,
      "отвратителни": 7420,
      "болести": 7421,
      "щастлива": 7422,
      "погледна": 7423,
      "намаля": 7424,
      "пропаганда.": 7425,
      "излъч": 7426,
      "земята.": 7427,
      "жълто": 7428,
      "уникално": 7429,
      "заповя": 7430,
      "република": 7431,
      "бомбар": 7432,
      "картофи": 7433,
      "предварително": 7434,
      ":(": 7435,
      "д!": 7436,
      "жор": 7437,
      "сния": 7438,
      "сдс": 7439,
      "сбърка": 7440,
      "ч7": 7441,
      "чни,": 7442,
      "насра": 7443,
      "тошко": 7444,
      "капи": 7445,
      "комиси": 7446,
      "зай": 7447,
      "заку": 7448,
      "маза": 7449,
      "серял": 7450,
      "вила": 7451,
      "вики": 7452,
      "милен": 7453,
      "доко": 7454,
      "пана": 7455,
      "изну": 7456,
      "изпита": 7457,
      "избере": 7458,
      "преце": 7459,
      "чина": 7460,
      "разговор": 7461,
      "лудни": 7462,
      "хол": 7463,
      "инсул": 7464,
      "пуд": 7465,
      "****": 7466,
      "върхо": 7467,
      "фамили": 7468,
      "единият": 7469,
      "мън": 7470,
      "нищоже": 7471,
      "рност": 7472,
      "времена": 7473,
      "казал,": 7474,
      "руският": 7475,
      "ното,": 7476,
      "направих": 7477,
      "онлине": 7478,
      "своята": 7479,
      ".....и": 7480,
      "говори,": 7481,
      "спал": 7482,
      "телефон": 7483,
      "нахал": 7484,
      "мислех": 7485,
      "желание": 7486,
      "публика": 7487,
      "лигав": 7488,
      "липсата": 7489,
      "сливата": 7490,
      "овча": 7491,
      "сълзи": 7492,
      "хайде,": 7493,
      "гълъ": 7494,
      "момче.": 7495,
      "мазни": 7496,
      "наглост": 7497,
      "швей": 7498,
      "ограниче": 7499,
      "ъоуту": 7500,
      "възстано": 7501,
      "зуека": 7502,
      "братовче": 7503,
      "членове": 7504,
      "измишльоти": 7505,
      "сървайвър": 7506,
      "0,": 7507,
      "39": 7508,
      "пват": 7509,
      "у,": 7510,
      "фле": 7511,
      "щра": 7512,
      "нагле": 7513,
      "тей": 7514,
      "даска": 7515,
      "незна": 7516,
      "нето.": 7517,
      "лидер": 7518,
      "поня": 7519,
      "сиган": 7520,
      "ромите": 7521,
      "леви": 7522,
      "кичка": 7523,
      "сака": 7524,
      "самия": 7525,
      "минет": 7526,
      "дистан": 7527,
      "пазят": 7528,
      "изчер": 7529,
      "пролет": 7530,
      "бати": 7531,
      "болна": 7532,
      "муску": 7533,
      "има!": 7534,
      "раздели": 7535,
      "тяга": 7536,
      "градове": 7537,
      "върха": 7538,
      "чух": 7539,
      "чули": 7540,
      "илиев": 7541,
      "споко": 7542,
      "предим": 7543,
      "близна": 7544,
      "глупак": 7545,
      "става!": 7546,
      "украинци,": 7547,
      "тук!": 7548,
      "лят.": 7549,
      "строят": 7550,
      "кат'": 7551,
      "разбираш": 7552,
      "занимавали": 7553,
      "забранено": 7554,
      "почита": 7555,
      "експло": 7556,
      "пaр": 7557,
      "чужден": 7558,
      "мозъци": 7559,
      "десетина": 7560,
      "позит": 7561,
      "произход": 7562,
      "намали": 7563,
      "източна": 7564,
      "ссср,": 7565,
      "ориенти": 7566,
      "двамата.": 7567,
      "обяснява": 7568,
      "красота": 7569,
      "академи": 7570,
      "василев": 7571,
      "съдеб": 7572,
      "фитнес": 7573,
      "мерцеде": 7574,
      "\"а": 7575,
      "/ш5": 7576,
      "37": 7577,
      "800": 7578,
      "aр": 7579,
      "дната": 7580,
      "крите": 7581,
      "ч8": 7582,
      "лигла": 7583,
      "заби": 7584,
      "зарази": 7585,
      "рие": 7586,
      "ве!": 7587,
      "век.": 7588,
      "габри": 7589,
      "галена": 7590,
      "ми!": 7591,
      "мо,": 7592,
      "беден": 7593,
      "стадо": 7594,
      "съща": 7595,
      "съну": 7596,
      "пича": 7597,
      "жи,": 7598,
      "прию": 7599,
      "щат": 7600,
      "ши,": 7601,
      "какво?": 7602,
      "ждават": 7603,
      "тъжно": 7604,
      "любе": 7605,
      "факто": 7606,
      "гласо": 7607,
      "буда": 7608,
      "кета": 7609,
      "гледам.": 7610,
      "споделя": 7611,
      "трибу": 7612,
      "тримата": 7613,
      "днешно": 7614,
      "децата.": 7615,
      "стига,": 7616,
      "хвани": 7617,
      "внася": 7618,
      "телефона": 7619,
      "мартин": 7620,
      "скорост": 7621,
      "живеещи": 7622,
      "ческия": 7623,
      "труда": 7624,
      "боклук,": 7625,
      "различно": 7626,
      "имена": 7627,
      "щяла": 7628,
      "собствен": 7629,
      "лошо,": 7630,
      "телевизията.": 7631,
      "българите.": 7632,
      "защити": 7633,
      "създават": 7634,
      "златка": 7635,
      "добрият": 7636,
      "подкрепят": 7637,
      "сметката": 7638,
      "гълта": 7639,
      "отношения": 7640,
      "управляващите": 7641,
      "соцялни": 7642,
      "млн": 7643,
      "мисирки": 7644,
      "събрание": 7645,
      "медиите,": 7646,
      "фашистка": 7647,
      "задължител": 7648,
      "ценности.": 7649,
      "съответно": 7650,
      "търпение": 7651,
      "санкциите": 7652,
      "!хттпс://бит.лъ/2вгдх7г": 7653,
      "(и": 7654,
      "вп": 7655,
      "двам": 7656,
      "еко": 7657,
      "ль": 7658,
      "окаже,": 7659,
      "укри": 7660,
      "язови": 7661,
      "дат,": 7662,
      "леген": 7663,
      "лап": 7664,
      "гади": 7665,
      "сар": 7666,
      "вода,": 7667,
      "деня": 7668,
      "депозит": 7669,
      "моят": 7670,
      "доходи": 7671,
      "допуска": 7672,
      "парази": 7673,
      "цини": 7674,
      "изложи": 7675,
      "изхвърли": 7676,
      "желе": 7677,
      "биологи": 7678,
      "съдят": 7679,
      "превърна": 7680,
      "певи": 7681,
      "стигнат": 7682,
      "...за": 7683,
      "кратко": 7684,
      "луна": 7685,
      "информира": 7686,
      "фире": 7687,
      "град,": 7688,
      "шама": 7689,
      "щи.": 7690,
      "смешен": 7691,
      "трябва.": 7692,
      "кеба": 7693,
      "търсите": 7694,
      "знае.": 7695,
      "бъдем": 7696,
      "курво": 7697,
      "пише,": 7698,
      "джор": 7699,
      "правят.": 7700,
      "спазва": 7701,
      "работата.": 7702,
      "грешки": 7703,
      "льо,": 7704,
      "простите": 7705,
      "банда": 7706,
      "глупостите": 7707,
      "семейства": 7708,
      "намериха": 7709,
      "гордо": 7710,
      "заслужават": 7711,
      "приели": 7712,
      "продуцт": 7713,
      "смешна": 7714,
      "определени": 7715,
      "кучета.": 7716,
      "морето.": 7717,
      "участие": 7718,
      "режис": 7719,
      "режима": 7720,
      "ваксинираните": 7721,
      "излъчва": 7722,
      "навсякъде.": 7723,
      "присъда": 7724,
      "блиц,": 7725,
      "футбол": 7726,
      "увеличи": 7727,
      "поема": 7728,
      "шизоф": 7729,
      "общин": 7730,
      "египет": 7731,
      "ботев": 7732,
      "3,": 7733,
      "3000": 7734,
      "aм": 7735,
      "aвa": 7736,
      "aнд": 7737,
      "бнт": 7738,
      "ена": 7739,
      "епи": 7740,
      "зур": 7741,
      "нки,": 7742,
      "тв.": 7743,
      "уя": 7744,
      "уси": 7745,
      "услуги": 7746,
      "настрое": 7747,
      "тати": 7748,
      "кадри": 7749,
      "качест": 7750,
      "касети": 7751,
      "раните": 7752,
      "раши": 7753,
      "нисти": 7754,
      "лица,": 7755,
      "маже": 7756,
      "леп": 7757,
      "метри": 7758,
      "отбо": 7759,
      "откло": 7760,
      "отбора": 7761,
      "дия.": 7762,
      "моро": 7763,
      "цирк": 7764,
      "измислят": 7765,
      "провали": 7766,
      "пин": 7767,
      "пена": 7768,
      "чиш": 7769,
      "зната": 7770,
      "инфа": 7771,
      "щите.": 7772,
      "защо?": 7773,
      "чул": 7774,
      "сега?": 7775,
      "правка": 7776,
      "търка": 7777,
      "пълнят": 7778,
      "истина,": 7779,
      "правосъди": 7780,
      "стане,": 7781,
      "хванала": 7782,
      "спаз": 7783,
      "лизация": 7784,
      "плев": 7785,
      "трудни": 7786,
      "??????": 7787,
      "проблем.": 7788,
      "победата": 7789,
      "горки": 7790,
      "четем": 7791,
      "твърдо": 7792,
      "подобна": 7793,
      "нареди": 7794,
      "собственост": 7795,
      "слива": 7796,
      "прекрасни": 7797,
      "некадърници": 7798,
      "ееееееее": 7799,
      "погледни": 7800,
      "моля,": 7801,
      "герои": 7802,
      "огромно": 7803,
      "вашето": 7804,
      "софка": 7805,
      "кифли": 7806,
      "останалото": 7807,
      "комплексари": 7808,
      "гаджето": 7809,
      "отърва": 7810,
      "====": 7811,
      "професор": 7812,
      "поколения": 7813,
      "крокоди": 7814,
      "александър": 7815,
      "шурл=хттпс://": 7816,
      "интелигентен": 7817,
      "лгбт": 7818,
      "омъжи": 7819,
      "пребивава": 7820,
      ",който": 7821,
      "-ти": 7822,
      "11.": 7823,
      "вна,": 7824,
      "вци,": 7825,
      "окон": 7826,
      "смачка": 7827,
      "ясна": 7828,
      "тата,": 7829,
      "тодор": 7830,
      "кази": 7831,
      "рафи": 7832,
      "вален": 7833,
      "дат.": 7834,
      "неадекват": 7835,
      "колите": 7836,
      "мада": 7837,
      "реза": 7838,
      "йско": 7839,
      "силата": 7840,
      "виси": 7841,
      "честен": 7842,
      "лечение": 7843,
      "лана": 7844,
      "лати": 7845,
      "сашка": 7846,
      "декла": 7847,
      "стрa": 7848,
      "дията": 7849,
      "пазе": 7850,
      "издръж": 7851,
      "бива,": 7852,
      "стаж": 7853,
      "прочети": 7854,
      "база": 7855,
      "съвме": 7856,
      "прес": 7857,
      "що.": 7858,
      "бой,": 7859,
      "пипа": 7860,
      "чай": 7861,
      "разби": 7862,
      "разчи": 7863,
      "лука": 7864,
      "зная": 7865,
      "граду": 7866,
      "плаше": 7867,
      "по-бързо": 7868,
      "човека.": 7869,
      "драги": 7870,
      "спер": 7871,
      "мяна": 7872,
      "днешните": 7873,
      "другите.": 7874,
      "истинско": 7875,
      "почнат": 7876,
      "зъм,": 7877,
      "мърт": 7878,
      "глоби": 7879,
      "чалгари": 7880,
      "просташки": 7881,
      "живеете": 7882,
      "ваксината": 7883,
      "действия": 7884,
      "плюска": 7885,
      "дръп": 7886,
      "пенсионира": 7887,
      "внимание.": 7888,
      "търсиш": 7889,
      "барда": 7890,
      "правеше": 7891,
      "европейските": 7892,
      "к'ва": 7893,
      "махат": 7894,
      "фалшива": 7895,
      "разберете": 7896,
      "източ": 7897,
      "булгa": 7898,
      "сериозни": 7899,
      "генерал": 7900,
      "типичен": 7901,
      "бг.орг/": 7902,
      "обиждате": 7903,
      "технологии": 7904,
      "изчезнаха": 7905,
      "с/шч": 7906,
      "бг/продуцт": 7907,
      "рецеп": 7908,
      "сиктир": 7909,
      "работода": 7910,
      "хттп://ввв.фире": 7911,
      "константи": 7912,
      "/ш5/": 7913,
      "инфанти": 7914,
      "бг.орг/бг/продуцт": 7915,
      "с/шч/ш5/": 7916,
      "хттп://ввв.фиребг.орг/бг/продуцт": 7917,
      "хттп://ввв.фиребг.орг/бг/продуцтс/шч/ш5/": 7918,
      ".това": 7919,
      "и'": 7920,
      "юго": 7921,
      "язък": 7922,
      "нава": 7923,
      "начал": 7924,
      "насила": 7925,
      "ващ": 7926,
      "тества": 7927,
      "личния": 7928,
      "забър": 7929,
      "мано": 7930,
      "пося": 7931,
      "поздрави": 7932,
      "рето": 7933,
      "йската": 7934,
      "деров": 7935,
      "мисъл": 7936,
      "доц": 7937,
      "доно": 7938,
      "паради": 7939,
      "изгуби": 7940,
      "женията": 7941,
      "прево": 7942,
      "пиро": 7943,
      "чан": 7944,
      "жали": 7945,
      "кратно": 7946,
      "ряз": 7947,
      "мнозин": 7948,
      "следи": 7949,
      "граница": 7950,
      "върза": 7951,
      "въртя": 7952,
      "сурови": 7953,
      "искаха": 7954,
      "кере": 7955,
      "транс": 7956,
      "дълга": 7957,
      "умрял": 7958,
      "хубава,": 7959,
      "джиев": 7960,
      "войната.": 7961,
      "питат": 7962,
      "арме": 7963,
      "учин": 7964,
      "ебане": 7965,
      "клюкар": 7966,
      "осман": 7967,
      "чалгаджи": 7968,
      "10.": 7969,
      "марс": 7970,
      "обажда": 7971,
      "общество": 7972,
      "помните": 7973,
      "семейство.": 7974,
      "хубаво,": 7975,
      "студе": 7976,
      "публикува": 7977,
      "шут": 7978,
      "купил": 7979,
      "гражданин": 7980,
      "важна": 7981,
      "реаги": 7982,
      "собствения": 7983,
      "зле.": 7984,
      "харесва,": 7985,
      "симпа": 7986,
      "измама": 7987,
      "болест": 7988,
      "детска": 7989,
      "престъпник": 7990,
      "съветската": 7991,
      "случило": 7992,
      "простотия.": 7993,
      "обикновените": 7994,
      "цвета": 7995,
      "помним": 7996,
      "загуба": 7997,
      "уникален": 7998,
      "уникална": 7999,
      "регистри": 8000,
      "прокуратура": 8001,
      "гражданство": 8002,
      "испания": 8003,
      "оконча": 8004,
      "\"пенсията": 8005,
      "аге": 8006,
      "имоти": 8007,
      "оте": 8008,
      "оздра": 8009,
      "ч?": 8010,
      "ън": 8011,
      "юли": 8012,
      "тона": 8013,
      "канал": 8014,
      "равни": 8015,
      "никои": 8016,
      "нети": 8017,
      "необразова": 8018,
      "неприятен": 8019,
      "заплаща": 8020,
      "потвър": 8021,
      "се/": 8022,
      "сетне": 8023,
      "револю": 8024,
      "лев.": 8025,
      "отдолу": 8026,
      "водни": 8027,
      "патра": 8028,
      "циците": 8029,
      "биле": 8030,
      "русе": 8031,
      "хата": 8032,
      "пробу": 8033,
      "пробут": 8034,
      "чието": 8035,
      "кури": 8036,
      "ща.": 8037,
      "гладу": 8038,
      "гледали": 8039,
      "говореше": 8040,
      "хубо": 8041,
      "съмня": 8042,
      "снимат": 8043,
      "бяло": 8044,
      "виетна": 8045,
      "хахахахаха": 8046,
      "рaт": 8047,
      "полице": 8048,
      "тинг": 8049,
      "курвата": 8050,
      "пишете,": 8051,
      "свалят": 8052,
      "великия": 8053,
      "пръчка": 8054,
      "запази": 8055,
      "гърците": 8056,
      "боклук!": 8057,
      "горките": 8058,
      "злоба,": 8059,
      "личност": 8060,
      "наркомани": 8061,
      "особен": 8062,
      "гласувам": 8063,
      "ссср.": 8064,
      "полицай": 8065,
      "бедния": 8066,
      "текста": 8067,
      "колхо": 8068,
      "митрофанова": 8069,
      "форум": 8070,
      "служители": 8071,
      "навира": 8072,
      "пращат": 8073,
      "ролята": 8074,
      "олигофрен": 8075,
      "сирене": 8076,
      "конкурс": 8077,
      "хомосексу": 8078,
      "поздравле": 8079,
      "соцялните": 8080,
      "удря": 8081,
      "нечистоплъ": 8082,
      "онлайн": 8083,
      "(в": 8084,
      ":))))))))))))))))": 8085,
      "а!": 8086,
      "дьо": 8087,
      "кьо": 8088,
      "нчето": 8089,
      "оле": 8090,
      "окто": 8091,
      "што": 8092,
      "калъ": 8093,
      "камери": 8094,
      "задържа": 8095,
      "попитам": 8096,
      "сеше": 8097,
      "рези": 8098,
      "леят": 8099,
      "откро": 8100,
      "диво": 8101,
      "щеш": 8102,
      "щерка": 8103,
      "изпусна": 8104,
      "хааааа": 8105,
      "боток": 8106,
      "...на": 8107,
      "...но": 8108,
      "гимна": 8109,
      "жин": 8110,
      "стока": 8111,
      "стоки": 8112,
      "нататък": 8113,
      "тура,": 8114,
      "правили": 8115,
      "друж": 8116,
      "глас,": 8117,
      "майкъл": 8118,
      "ето.": 8119,
      "останал": 8120,
      "обиди": 8121,
      "нският": 8122,
      "даваме": 8123,
      "среда": 8124,
      "всеки,": 8125,
      "също,": 8126,
      "мърша": 8127,
      "правят,": 8128,
      "мръсно": 8129,
      "джан": 8130,
      "джаферови": 8131,
      "свободни": 8132,
      "обществе": 8133,
      "влека": 8134,
      "50%": 8135,
      "алчни": 8136,
      "работил": 8137,
      "ужас.": 8138,
      "шкото": 8139,
      "поредният": 8140,
      "герб.": 8141,
      "1200": 8142,
      "гражданите": 8143,
      "грозната": 8144,
      "харчат": 8145,
      "смешници": 8146,
      "родната": 8147,
      "скум": 8148,
      "подкрепи": 8149,
      "щастлив": 8150,
      "забавля": 8151,
      "фалшиво": 8152,
      "карика": 8153,
      "смях.": 8154,
      "обикновена": 8155,
      "нещастни": 8156,
      "правилно.": 8157,
      "посолство": 8158,
      "гъзъ!": 8159,
      "ъоур": 8160,
      "нарушава": 8161,
      "волята": 8162,
      "помагат": 8163,
      "апартамент": 8164,
      "митьо": 8165,
      "крокодил": 8166,
      "прокурор": 8167,
      "детенце": 8168,
      "лудогоре": 8169,
      "възхища": 8170,
      "планетата": 8171,
      "десетиле": 8172,
      "разочарова": 8173,
      "дълъг": 8174,
      "!хттп://бит.лъ/2": 8175,
      "8ш": 8176,
      "жъ": 8177,
      "тц": 8178,
      "кане": 8179,
      "тец": 8180,
      "зака": 8181,
      "меси": 8182,
      "меки": 8183,
      "отнема": 8184,
      "гаден": 8185,
      "див": 8186,
      "цигa": 8187,
      "циони": 8188,
      "щете": 8189,
      "простова": 8190,
      "съх": 8191,
      "съю": 8192,
      "съд.": 8193,
      "преби": 8194,
      "лукой": 8195,
      "знай": 8196,
      "менте": 8197,
      "зелени": 8198,
      "вечеря": 8199,
      "дърто": 8200,
      "може,": 8201,
      "границата": 8202,
      "безуми": 8203,
      "по-късно": 8204,
      "нали,": 8205,
      "орга": 8206,
      "нищо!": 8207,
      "азбу": 8208,
      "казали": 8209,
      "казала": 8210,
      "евро,": 8211,
      "народи": 8212,
      "караш": 8213,
      "зъб": 8214,
      "джип": 8215,
      "слова": 8216,
      "войски": 8217,
      "спазват": 8218,
      "красив": 8219,
      "почива": 8220,
      "лансира": 8221,
      "външен": 8222,
      "опасни": 8223,
      "лошо.": 8224,
      "намерила": 8225,
      "клоу": 8226,
      "предаване,": 8227,
      "решили": 8228,
      "системата": 8229,
      "разбереш": 8230,
      "прaд": 8231,
      "избиват": 8232,
      "здравосло": 8233,
      "въздуха": 8234,
      "подиграват": 8235,
      "процент": 8236,
      "природа": 8237,
      "копеле,": 8238,
      "слугина": 8239,
      "виолета": 8240,
      "националността": 8241,
      "горкото": 8242,
      "1)": 8243,
      "вка,": 8244,
      "еу": 8245,
      "е....": 8246,
      "здрa": 8247,
      "кр": 8248,
      "оде": 8249,
      "фло": 8250,
      "чш": 8251,
      "нага": 8252,
      "нацията": 8253,
      "точки": 8254,
      "рая": 8255,
      "неде": 8256,
      "ковете": 8257,
      "кожата": 8258,
      "повете": 8259,
      "сегa": 8260,
      "лесби": 8261,
      "отнесе": 8262,
      "деке": 8263,
      "демия": 8264,
      "мишки": 8265,
      "изигра": 8266,
      "стария": 8267,
      "борят": 8268,
      "чари": 8269,
      "скала": 8270,
      "муш": 8271,
      "приго": 8272,
      "разши": 8273,
      "хори": 8274,
      "шил": 8275,
      "фите": 8276,
      "граници": 8277,
      "шамар": 8278,
      "върнаха": 8279,
      "смело": 8280,
      "телната": 8281,
      "снал": 8282,
      "вен,": 8283,
      "хис": 8284,
      "толкова,": 8285,
      "пърдя": 8286,
      "давайте": 8287,
      "врагове": 8288,
      "архи": 8289,
      "урсу": 8290,
      "положение,": 8291,
      "видимо": 8292,
      "път!": 8293,
      "кръсто": 8294,
      "сърди": 8295,
      "обяд": 8296,
      "сaм": 8297,
      "боклука": 8298,
      "плюете": 8299,
      "щяхте": 8300,
      "спрет": 8301,
      "глупава": 8302,
      "мнение.": 8303,
      "блок": 8304,
      "циганите": 8305,
      "излиза,": 8306,
      "изпълнява": 8307,
      "бсп,": 8308,
      "туално": 8309,
      "опитвам": 8310,
      "местните": 8311,
      "скандали": 8312,
      "дошъл": 8313,
      "халтура": 8314,
      "ционна": 8315,
      "катето": 8316,
      "ракета": 8317,
      "квартал": 8318,
      "психически": 8319,
      "тоалетна": 8320,
      "укропите": 8321,
      "корупцията": 8322,
      "младеж": 8323,
      "профила": 8324,
      "такъв.": 8325,
      "партньор": 8326,
      "великобрита": 8327,
      "директо": 8328,
      "холивуд": 8329,
      "обсъжда": 8330,
      "блитз.": 8331,
      "мулти": 8332,
      "!?!": 8333,
      "aбе": 8334,
      "с'": 8335,
      "св": 8336,
      "ури": 8337,
      "цка": 8338,
      "цон": 8339,
      "шки.": 8340,
      "южен": 8341,
      "ядете": 8342,
      "“,": 8343,
      "тори,": 8344,
      "тене": 8345,
      "никоя": 8346,
      "нидер": 8347,
      "лис": 8348,
      "лита": 8349,
      "пов": 8350,
      "потърси": 8351,
      "поток": 8352,
      "резна": 8353,
      "чеки": 8354,
      "гоце": 8355,
      "саме": 8356,
      "вож": 8357,
      "мите,": 8358,
      "мои": 8359,
      "бек": 8360,
      "бебето": 8361,
      "изпер": 8362,
      "зиран": 8363,
      "стаби": 8364,
      "прогре": 8365,
      "съв": 8366,
      "прекали": 8367,
      "чанта": 8368,
      "жа,": 8369,
      "къци": 8370,
      "ръси": 8371,
      "инци": 8372,
      "въве": 8373,
      "едните": 8374,
      "шампи": 8375,
      "чуе": 8376,
      "телство": 8377,
      "страдат": 8378,
      "страница": 8379,
      "феновете": 8380,
      "прав.": 8381,
      "добре,че": 8382,
      "предимно": 8383,
      "негов": 8384,
      "здравно": 8385,
      "вaр": 8386,
      "кaмери": 8387,
      "карал": 8388,
      "интересен": 8389,
      "сигур": 8390,
      "радио": 8391,
      "постигне": 8392,
      "некадърен": 8393,
      "колега": 8394,
      "храните": 8395,
      "клипа": 8396,
      "нахални": 8397,
      "боклук.": 8398,
      "стресира": 8399,
      "шута": 8400,
      "внимавай": 8401,
      "света!": 8402,
      "комунистическа": 8403,
      "образованието": 8404,
      "радват": 8405,
      "влязат": 8406,
      "кинг": 8407,
      "слънцето": 8408,
      "талантлива": 8409,
      "пътува": 8410,
      "употребя": 8411,
      "автомоби": 8412,
      "братята": 8413,
      "интригант": 8414,
      "крадци": 8415,
      "разпоретина": 8416,
      "религи": 8417,
      "такъв,": 8418,
      "индуст": 8419,
      "федерация": 8420,
      "хекимян": 8421,
      "-мa": 8422,
      "кня": 8423,
      "тните": 8424,
      "ь.": 8425,
      "юри": 8426,
      "ядох": 8427,
      "напускат": 8428,
      "вашия": 8429,
      "никому": 8430,
      "нените": 8431,
      "неграмо": 8432,
      "колек": 8433,
      "коцето": 8434,
      "северно": 8435,
      "ческото": 8436,
      "го!": 8437,
      "рос": 8438,
      "ме?": 8439,
      "отри": 8440,
      "санти": 8441,
      "деби": 8442,
      "деев": 8443,
      "моно": 8444,
      "моби": 8445,
      "дон,": 8446,
      "донесе": 8447,
      "паспор": 8448,
      "изпробва": 8449,
      "рут": 8450,
      "проси": 8451,
      "пит": 8452,
      "писме": 8453,
      "чаро": 8454,
      "...?": 8455,
      "това,че": 8456,
      "крак": 8457,
      "приви": 8458,
      "размно": 8459,
      "цепи": 8460,
      "въгли": 8461,
      "финал": 8462,
      "тъз": 8463,
      "подписа": 8464,
      "държави.": 8465,
      "гледа.": 8466,
      "оставката": 8467,
      "времето.": 8468,
      "зона": 8469,
      "крият": 8470,
      "най-големите": 8471,
      "истината.": 8472,
      "тяхна": 8473,
      "первер": 8474,
      "стът": 8475,
      "питайте": 8476,
      "плащам": 8477,
      "убити": 8478,
      "формат": 8479,
      "бойни": 8480,
      "трудов": 8481,
      "обаче,": 8482,
      "средна": 8483,
      "екстра": 8484,
      "бг,": 8485,
      "свободна": 8486,
      "познати": 8487,
      "гроздето": 8488,
      "ниците,": 8489,
      "друг,": 8490,
      "семейство,": 8491,
      "скъпа": 8492,
      "злобари": 8493,
      "клоун": 8494,
      "натов": 8495,
      "доброво": 8496,
      "нейни": 8497,
      "културата": 8498,
      "бaлгa": 8499,
      "симво": 8500,
      "готово": 8501,
      "червена": 8502,
      "напред.": 8503,
      "иванов": 8504,
      "вълнува": 8505,
      "пиянде": 8506,
      "парламент": 8507,
      "успех!": 8508,
      "тарика": 8509,
      "барабар": 8510,
      "оправдава": 8511,
      "талантлив": 8512,
      "лекарите": 8513,
      "алкохолици": 8514,
      "говедо": 8515,
      "килограма,": 8516,
      "поколение": 8517,
      "престъпление": 8518,
      "ситуацията": 8519,
      "заглавия": 8520,
      "взриви": 8521,
      "ефективно": 8522,
      "популя": 8523,
      "бременна": 8524,
      "5-ш": 8525,
      "максима": 8526,
      "задръж": 8527,
      "прецака": 8528,
      "доцтор": 8529,
      "72": 8530,
      "вник": 8531,
      "вки.": 8532,
      "ефира": 8533,
      "звъ": 8534,
      "лл": 8535,
      "мпа": 8536,
      "усти": 8537,
      "утро": 8538,
      "уплаши": 8539,
      "хили": 8540,
      "ц!": 8541,
      "шa": 8542,
      "ядо": 8543,
      "наскоро": 8544,
      "напротив": 8545,
      "тоол": 8546,
      "райна": 8547,
      "тепърва": 8548,
      "ненормал": 8549,
      "седят": 8550,
      "рева": 8551,
      "рения": 8552,
      "вида": 8553,
      "лабора": 8554,
      "отмъ": 8555,
      "мисти": 8556,
      "мо.": 8557,
      "догодина": 8558,
      "паве": 8559,
      "изси": 8560,
      "изпълни": 8561,
      "изживя": 8562,
      "няка": 8563,
      "провал": 8564,
      "пречат": 8565,
      "преживя": 8566,
      "певци": 8567,
      "часо": 8568,
      "мухльо": 8569,
      "пристра": 8570,
      "ход.": 8571,
      "туал": 8572,
      "ши.": 8573,
      "грама": 8574,
      "чупи": 8575,
      "супе": 8576,
      "фаш": 8577,
      "всички!": 8578,
      "бура": 8579,
      "парички": 8580,
      "нещо?": 8581,
      "търпят": 8582,
      "новината": 8583,
      "тях?": 8584,
      "перни": 8585,
      "говори.": 8586,
      "станем": 8587,
      "хвале": 8588,
      "ента": 8589,
      "нещата.": 8590,
      "19чч": 8591,
      "дейба": 8592,
      "имената": 8593,
      "спреш": 8594,
      "пенсиите": 8595,
      "ердоган": 8596,
      "групата": 8597,
      "село,": 8598,
      "село.": 8599,
      "възрастта": 8600,
      "алкохол,": 8601,
      "скрие": 8602,
      "военните": 8603,
      "данъците": 8604,
      "соцялисти": 8605,
      "австри": 8606,
      "авдеев": 8607,
      "неудоб": 8608,
      "излъчване": 8609,
      "слънчев": 8610,
      "извънзе": 8611,
      "лекарства": 8612,
      "катего": 8613,
      "ядрена": 8614,
      "оплак": 8615,
      "нахлу": 8616,
      "изпит": 8617,
      "швеция": 8618,
      "експерт": 8619,
      "милионите": 8620,
      "насилие": 8621,
      "перфектно": 8622,
      "грозотия": 8623,
      "отчая": 8624,
      "буквално": 8625,
      "кадиев": 8626,
      "пародия": 8627,
      "окаже": 8628,
      "описа": 8629,
      "сбър": 8630,
      "фоста": 8631,
      "хъл": 8632,
      "топла": 8633,
      "кад": 8634,
      "кац": 8635,
      "темата": 8636,
      "коза": 8637,
      "ково": 8638,
      "косата": 8639,
      "нож": 8640,
      "но...": 8641,
      "нокти": 8642,
      "завали": 8643,
      "маи": 8644,
      "седя": 8645,
      "тир": 8646,
      "лев,": 8647,
      "откога": 8648,
      "гава": 8649,
      "дева": 8650,
      "дените": 8651,
      "ствам": 8652,
      "дими": 8653,
      "съчи": 8654,
      "бои": 8655,
      "права.": 8656,
      "ча.": 8657,
      "чиев": 8658,
      "мут": 8659,
      "мута": 8660,
      "прилага": 8661,
      "нямах": 8662,
      "инвали": 8663,
      "въд": 8664,
      "....!": 8665,
      "дуз": 8666,
      "хора?": 8667,
      "евге": 8668,
      "худо": 8669,
      "казват,": 8670,
      "казвам,": 8671,
      "пари?": 8672,
      "требва": 8673,
      "конта": 8674,
      "вие.": 8675,
      "свой": 8676,
      "животните": 8677,
      "анга": 8678,
      "чалгарка": 8679,
      "грижа": 8680,
      "изневе": 8681,
      "алба": 8682,
      "разбраха": 8683,
      "броят": 8684,
      "ужасна": 8685,
      "проблем,": 8686,
      "тъпана": 8687,
      "купих": 8688,
      "пуснаха": 8689,
      "викам": 8690,
      "изкуство": 8691,
      "нец,": 8692,
      "к'ви": 8693,
      "посока": 8694,
      "приятелка": 8695,
      "американска": 8696,
      "американската": 8697,
      "интересно,": 8698,
      "гласуване": 8699,
      "честита": 8700,
      "певица,": 8701,
      "б.цом/": 8702,
      "област": 8703,
      "решават": 8704,
      "човечеството": 8705,
      "помислих": 8706,
      "притежава": 8707,
      "община": 8708,
      "фашистки": 8709,
      "направете": 8710,
      "печалба": 8711,
      "тоалетната": 8712,
      "активи": 8713,
      "заразе": 8714,
      "такса": 8715,
      "закъсня": 8716,
      "майстор": 8717,
      "значение.": 8718,
      "космически": 8719,
      "миналия": 8720,
      "жестоко": 8721,
      "студент": 8722,
      "клетки": 8723,
      "адвока": 8724,
      "йорда": 8725,
      "невинни": 8726,
      "екскур": 8727,
      "чудовище": 8728,
      "напротив,": 8729,
      "\"е": 8730,
      "(а": 8731,
      "всу": 8732,
      "г!": 8733,
      "еуро": 8734,
      "спъ": 8735,
      "цки": 8736,
      "цвете": 8737,
      "насам": 8738,
      "вай,": 8739,
      "тете": 8740,
      "теми": 8741,
      "дана": 8742,
      "неца": 8743,
      "лиго": 8744,
      "ли?!": 8745,
      "постоя": 8746,
      "рома": 8747,
      "лекари": 8748,
      "от.": 8749,
      "мира,": 8750,
      "дина": 8751,
      "мобили": 8752,
      "доколкото": 8753,
      "ци...": 8754,
      "измъ": 8755,
      "изгу": 8756,
      "изкри": 8757,
      "избива": 8758,
      "хаза": 8759,
      "прощава": 8760,
      "баху": 8761,
      "пел": 8762,
      "час.": 8763,
      "примити": 8764,
      "знаме": 8765,
      "туне": 8766,
      "въже": 8767,
      "обре": 8768,
      "еднa": 8769,
      "ката?": 8770,
      "шат,": 8771,
      "безмозъ": 8772,
      "чукам": 8773,
      "подчи": 8774,
      "гугъл": 8775,
      "зон": 8776,
      "трез": 8777,
      "ставате": 8778,
      "украинския": 8779,
      "гъзи": 8780,
      "спару": 8781,
      "чният": 8782,
      "починал": 8783,
      "помнете": 8784,
      "минимум": 8785,
      "разбрах,": 8786,
      "емилия": 8787,
      "емигри": 8788,
      "вниманието": 8789,
      "световната": 8790,
      "европейския": 8791,
      "некадърник": 8792,
      "адски": 8793,
      "ръце,": 8794,
      "пп-": 8795,
      "единственият": 8796,
      "история.": 8797,
      "кампа": 8798,
      "цивилни": 8799,
      "умрели": 8800,
      "посредстве": 8801,
      "смрад": 8802,
      "стотинки": 8803,
      "разпорети": 8804,
      "нагласено": 8805,
      "схема": 8806,
      "кенефа": 8807,
      "предпочита": 8808,
      "празнуват": 8809,
      "събаря": 8810,
      "тоолс.ети.пв": 8811,
      "!”": 8812,
      ",какво": 8813,
      "700": 8814,
      "ану": 8815,
      "вли": 8816,
      "вси": 8817,
      "имен": 8818,
      "истан": 8819,
      "скра": 8820,
      "тхис": 8821,
      "умо": 8822,
      "юна": 8823,
      "техен": 8824,
      "кове,": 8825,
      "нощи": 8826,
      "сет": 8827,
      "сели": 8828,
      "чела": 8829,
      "мире": 8830,
      "цити": 8831,
      "изхвър": 8832,
      "лор": 8833,
      "бий": 8834,
      "билет": 8835,
      "руд": 8836,
      "ха...": 8837,
      "стали": 8838,
      "прочете": 8839,
      "съобраз": 8840,
      "превръща": 8841,
      "пип": 8842,
      "пичка": 8843,
      "пеше": 8844,
      "петка": 8845,
      "прах": 8846,
      "жалост": 8847,
      "мун": 8848,
      "музе": 8849,
      "общата": 8850,
      "облича": 8851,
      "шиш": 8852,
      "сте.": 8853,
      "рите!": 8854,
      "люб": 8855,
      "подроб": 8856,
      "държавен": 8857,
      "кери": 8858,
      "остаря": 8859,
      "слави,": 8860,
      "работен": 8861,
      "еднакви": 8862,
      "траги": 8863,
      "нти.": 8864,
      "почнаха": 8865,
      "отида": 8866,
      "хубавица": 8867,
      "всякаква": 8868,
      "детето.": 8869,
      "цом": 8870,
      "билалов": 8871,
      "мартина": 8872,
      "въпрос.": 8873,
      "успее": 8874,
      "нирани": 8875,
      "хттп://тоолс.ети.пв": 8876,
      "твърди,": 8877,
      "очите.": 8878,
      "глупавите": 8879,
      "водител": 8880,
      "грък": 8881,
      "вируса": 8882,
      "естествен": 8883,
      "светлин": 8884,
      "избори,": 8885,
      "сцената": 8886,
      "обърна": 8887,
      "единствения": 8888,
      "убийство": 8889,
      "серви": 8890,
      "уууууууу": 8891,
      "безплат": 8892,
      "безплатен": 8893,
      "процеду": 8894,
      "армия,": 8895,
      "килограма": 8896,
      "машини": 8897,
      "милф": 8898,
      "ангел": 8899,
      "корупция": 8900,
      "шарлата": 8901,
      "депутати": 8902,
      "естествено,": 8903,
      "длъжни": 8904,
      "ислям": 8905,
      "изключение": 8906,
      "тегля": 8907,
      "оригина": 8908,
      "православни": 8909,
      "гъбички": 8910,
      "рожден": 8911,
      "председател": 8912,
      "хомосексуали": 8913,
      ");": 8914,
      "250": 8915,
      "5.": 8916,
      "агне": 8917,
      "днали": 8918,
      "мг": 8919,
      "мят": 8920,
      "чъ": 8921,
      "южна": 8922,
      "набу": 8923,
      "нападне": 8924,
      "ра?": 8925,
      "засега": 8926,
      "северо": 8927,
      "рират": 8928,
      "рога": 8929,
      "кинта": 8930,
      "вещи": 8931,
      "сак": 8932,
      "стят": 8933,
      "москов": 8934,
      "домус": 8935,
      "няците": 8936,
      "лопа": 8937,
      "прокле": 8938,
      "бало": 8939,
      "писто": 8940,
      "куби": 8941,
      "самостоя": 8942,
      "путе": 8943,
      "менти.": 8944,
      "правилата": 8945,
      "пъти.": 8946,
      "щите,": 8947,
      "върнете": 8948,
      "платен": 8949,
      "страш": 8950,
      "държавните": 8951,
      "сия.": 8952,
      "шов.": 8953,
      "шокола": 8954,
      "там!": 8955,
      "внове": 8956,
      "най-важното": 8957,
      "трае": 8958,
      "лният": 8959,
      "други.": 8960,
      "направи,": 8961,
      "направи.": 8962,
      "хубавата": 8963,
      "вратата": 8964,
      "джията": 8965,
      "последен": 8966,
      "детето,": 8967,
      "център": 8968,
      "спасе": 8969,
      "тор,": 8970,
      "убиха": 8971,
      "тръмп": 8972,
      "прости,": 8973,
      "нахална": 8974,
      "родина": 8975,
      "минист": 8976,
      "бре,": 8977,
      "стрелят": 8978,
      "30%": 8979,
      "предаването,": 8980,
      "идеята": 8981,
      "абсолютни": 8982,
      "милярд": 8983,
      "здравеопа": 8984,
      "данчо": 8985,
      "лигави": 8986,
      "хaт": 8987,
      "написали": 8988,
      "променят": 8989,
      "производите": 8990,
      "овца": 8991,
      "градина": 8992,
      "убийци": 8993,
      "бюро": 8994,
      "развива": 8995,
      "местя": 8996,
      "навсякъде,": 8997,
      "доволни": 8998,
      "нещастник": 8999,
      "ядрено": 9000,
      "поеме": 9001,
      "ангелов": 9002,
      "огледало": 9003,
      "имуните": 9004,
      "изказване": 9005,
      "коалиция": 9006,
      "владимир": 9007,
      "ресторант": 9008,
      "заболя": 9009,
      "григорова": 9010,
      "&#1285": 9011,
      "(+": 9012,
      "дно,": 9013,
      "еь": 9014,
      "е..": 9015,
      "мда": 9016,
      "ны": 9017,
      "олеле": 9018,
      "снали": 9019,
      "фта": 9020,
      "ш7": 9021,
      "шкова": 9022,
      "нада": 9023,
      "качва": 9024,
      "неин": 9025,
      "коз": 9026,
      "забога": 9027,
      "закача": 9028,
      "сига": 9029,
      "мено": 9030,
      "сани": 9031,
      "миря": 9032,
      "дио": 9033,
      "пай": 9034,
      "нят.": 9035,
      "руса": 9036,
      "хара": 9037,
      "просло": 9038,
      "пропусна": 9039,
      "бабо": 9040,
      "предоста": 9041,
      "преподава": 9042,
      "премахва": 9043,
      "пес": 9044,
      "шепа": 9045,
      "...ама": 9046,
      "гил": 9047,
      "хове": 9048,
      "въведе": 9049,
      "стена": 9050,
      "безкрай": 9051,
      "сегашните": 9052,
      "беше.": 9053,
      "шофира": 9054,
      "трепе": 9055,
      "най-големия": 9056,
      "едното": 9057,
      "днес,": 9058,
      "рaбот": 9059,
      "полит": 9060,
      "хел": 9061,
      "нея?": 9062,
      "връст": 9063,
      "учил": 9064,
      "лка!": 9065,
      "украйна?": 9066,
      "верни": 9067,
      "държава?": 9068,
      "коментари.": 9069,
      "храната": 9070,
      "нещастен": 9071,
      "частни": 9072,
      "работила": 9073,
      "зирана": 9074,
      "жалко.": 9075,
      "чужде": 9076,
      "личности": 9077,
      "българите,": 9078,
      "журналя": 9079,
      "момиче!": 9080,
      "махне": 9081,
      "лайня": 9082,
      "липсват": 9083,
      "символ": 9084,
      "платил": 9085,
      "сметките": 9086,
      "денис": 9087,
      "кокошка": 9088,
      "бягай": 9089,
      "берг": 9090,
      "съветски": 9091,
      "забравил": 9092,
      "певица.": 9093,
      "млр": 9094,
      "цървул": 9095,
      "робство": 9096,
      "електри": 9097,
      "заема": 9098,
      "ееее,": 9099,
      "модерни": 9100,
      "автомобил": 9101,
      "експери": 9102,
      "впечатление": 9103,
      "олигофре": 9104,
      "заповед": 9105,
      "популяр": 9106,
      "тръгнеш": 9107,
      "адвокат": 9108,
      "достойнство": 9109,
      "медвеб.цом/": 9110,
      "геноцид": 9111,
      "упражнения": 9112,
      "братушките": 9113,
      "стратеги": 9114,
      "доцтормедвеб.цом/": 9115,
      "ангажи": 9116,
      "\"в": 9117,
      "-у": 9118,
      "аги": 9119,
      "аван": 9120,
      "бвa": 9121,
      "елен": 9122,
      "лв,": 9123,
      "устрой": 9124,
      "х...": 9125,
      "насла": 9126,
      "то...": 9127,
      "ка...": 9128,
      "рачко": 9129,
      "никол": 9130,
      "нес": 9131,
      "неприятно": 9132,
      "косто": 9133,
      "лицен": 9134,
      "покло": 9135,
      "сите.": 9136,
      "симона": 9137,
      "чен.": 9138,
      "лел": 9139,
      "кино": 9140,
      "саше": 9141,
      "вози": 9142,
      "дека": 9143,
      "дик": 9144,
      "бедна": 9145,
      "изплю": 9146,
      "ня!": 9147,
      "бител": 9148,
      "руси": 9149,
      "съкра": 9150,
      "пее.": 9151,
      "шест": 9152,
      "скачат": 9153,
      "разврат": 9154,
      "разваля": 9155,
      "хоро": 9156,
      "цари": 9157,
      "инфо": 9158,
      "можеха": 9159,
      "грабе": 9160,
      "чуя": 9161,
      "телните": 9162,
      "фабри": 9163,
      "подмаз": 9164,
      "майна": 9165,
      "майка,": 9166,
      "сия,": 9167,
      "слани": 9168,
      "съмните": 9169,
      "нà": 9170,
      "нaли": 9171,
      "конкре": 9172,
      "търново": 9173,
      "повече!": 9174,
      "пардон": 9175,
      "вaте": 9176,
      "тaтa": 9177,
      "живков": 9178,
      "мaр": 9179,
      "браво.": 9180,
      "марти": 9181,
      "заплаш": 9182,
      "кръг": 9183,
      "красивата": 9184,
      "пътищата": 9185,
      "чакаш": 9186,
      "щяло": 9187,
      "същество.": 9188,
      "вдигнат": 9189,
      "тъпанар": 9190,
      "селянин": 9191,
      "бойко,": 9192,
      "проблеми,": 9193,
      "спечелих": 9194,
      "адмира": 9195,
      "артиле": 9196,
      "платените": 9197,
      "нещастници": 9198,
      "измислена": 9199,
      "кравари": 9200,
      "канада": 9201,
      "централи": 9202,
      "наказание": 9203,
      "късмет,": 9204,
      "психично": 9205,
      "обръщай": 9206,
      "употреба": 9207,
      "минималната": 9208,
      "диети": 9209,
      "продажници": 9210,
      "заяви": 9211,
      "вулга": 9212,
      "фриз": 9213,
      "отишъл": 9214,
      "шкембе": 9215,
      "демонстрира": 9216,
      "адрес": 9217,
      "услуга": 9218,
      "енергети": 9219,
      "фамилия": 9220,
      "отблъсква": 9221,
      "конфиску": 9222,
      "козлодуй": 9223,
      "светлинни": 9224,
      "шов.блитз.": 9225,
      "\"и": 9226,
      "\"....": 9227,
      "%),": 9228,
      "вхо": 9229,
      "дот": 9230,
      "ибе": 9231,
      "кля": 9232,
      "м...": 9233,
      "п!": 9234,
      "пф": 9235,
      "уго": 9236,
      "щят": 9237,
      "назначе": 9238,
      "тани": 9239,
      "та...": 9240,
      "капки": 9241,
      "вачи": 9242,
      "важен": 9243,
      "козя": 9244,
      "лиде": 9245,
      "селото": 9246,
      "репти": 9247,
      "че?": 9248,
      "чения": 9249,
      "вей": 9250,
      "волни": 9251,
      "дони": 9252,
      "извърши": 9253,
      "проспе": 9254,
      "прочетете": 9255,
      "бащи": 9256,
      "богу": 9257,
      "къси": 9258,
      "куч": 9259,
      "куват": 9260,
      "купят": 9261,
      "соц": 9262,
      "знам.": 9263,
      "цев": 9264,
      "вът": 9265,
      "сте!": 9266,
      "чувам": 9267,
      "гласа": 9268,
      "главен": 9269,
      "дягно": 9270,
      "хумор": 9271,
      "там?": 9272,
      "крив": 9273,
      "ьори,": 9274,
      "народа,": 9275,
      "украинци.": 9276,
      "курвите": 9277,
      "ебах": 9278,
      "банкя": 9279,
      "...........": 9280,
      "влезна": 9281,
      "секс.": 9282,
      "летят": 9283,
      "опити": 9284,
      "харвар": 9285,
      "момичето,": 9286,
      "изкуствени": 9287,
      "собствени": 9288,
      "смешник": 9289,
      "език,": 9290,
      "родния": 9291,
      "минди": 9292,
      "позиция": 9293,
      "книгата": 9294,
      "написаното": 9295,
      "измами": 9296,
      "фалшивите": 9297,
      "рачков,": 9298,
      "съветските": 9299,
      "пуснете": 9300,
      "движение": 9301,
      "елате": 9302,
      "соцялна": 9303,
      "фейк": 9304,
      "доволна": 9305,
      "операции": 9306,
      "цвети": 9307,
      "ционни": 9308,
      "научат": 9309,
      "простотии.": 9310,
      "зеления": 9311,
      "работещи": 9312,
      "достойно": 9313,
      "мммм": 9314,
      "отврат!": 9315,
      "палестинците": 9316,
      "електрон": 9317,
      "огледалото": 9318,
      "уруспи": 9319,
      "мутрофанова": 9320,
      "боепри": 9321,
      "предполагам": 9322,
      "залож": 9323,
      "спомням": 9324,
      "брутално": 9325,
      "квалифици": 9326,
      "шов.блитз.бг.": 9327,
      "-много": 9328,
      "78": 9329,
      "aс": 9330,
      "еи": 9331,
      "етни": 9332,
      "ини": 9333,
      "мс": 9334,
      "мрa": 9335,
      "н?": 9336,
      "окра": 9337,
      "опу": 9338,
      "остa": 9339,
      "шмай": 9340,
      "шният": 9341,
      "я?": 9342,
      "тайна": 9343,
      "канят": 9344,
      "каске": 9345,
      "ний": 9346,
      "негър": 9347,
      "лиже": 9348,
      "заси": 9349,
      "зася": 9350,
      "заклю": 9351,
      "погово": 9352,
      "порта": 9353,
      "селата": 9354,
      "тим": 9355,
      "репли": 9356,
      "рекор": 9357,
      "йския": 9358,
      "сини": 9359,
      "сигнал": 9360,
      "ления": 9361,
      "мег": 9362,
      "стване": 9363,
      "дии": 9364,
      "циф": 9365,
      "ще.": 9366,
      "издържи": 9367,
      "изостави": 9368,
      "няква": 9369,
      "просте": 9370,
      "шега": 9371,
      "скивай": 9372,
      "присъди": 9373,
      "прибират": 9374,
      "разбо": 9375,
      "разпла": 9376,
      "разхожда": 9377,
      "шап": 9378,
      "телно,": 9379,
      "вядва": 9380,
      "буди": 9381,
      "фек": 9382,
      "едновременно": 9383,
      "конспира": 9384,
      "истинската": 9385,
      "тaл": 9386,
      "тaм": 9387,
      "хората!": 9388,
      "мислиш,": 9389,
      "плащат,": 9390,
      "играч": 9391,
      "чалгаджий": 9392,
      "пръстите": 9393,
      "българин,": 9394,
      "джек": 9395,
      "марчето": 9396,
      "последстви": 9397,
      "разбирам,": 9398,
      "вайте,": 9399,
      "хране": 9400,
      "банк": 9401,
      "задник": 9402,
      "еййй": 9403,
      "пaк": 9404,
      "начин,": 9405,
      "логично": 9406,
      "телевизион": 9407,
      "чужд": 9408,
      "устата,": 9409,
      "идеа": 9410,
      "коментa": 9411,
      "лигава": 9412,
      "музиката": 9413,
      "бившите": 9414,
      "марионе": 9415,
      "ограбва": 9416,
      "въпросната": 9417,
      "осигурява": 9418,
      "избрали": 9419,
      "качеството": 9420,
      "събрали": 9421,
      "съпруг": 9422,
      "наред.": 9423,
      "фффф": 9424,
      "електо": 9425,
      "дойдоха": 9426,
      "пенсионерите": 9427,
      "отърве": 9428,
      "африкан": 9429,
      "ваксинират": 9430,
      "заразени": 9431,
      "татуира": 9432,
      "скромно": 9433,
      "шенген.": 9434,
      "отслабнеш": 9435,
      "принцеса": 9436,
      "събуди": 9437,
      "борисов,": 9438,
      "израел.": 9439,
      "сертифи": 9440,
      "тaйa": 9441,
      "окончателно": 9442,
      "постоянен": 9443,
      "\"по": 9444,
      "\"про": 9445,
      "93": 9446,
      "врa": 9447,
      "еф": 9448,
      "справка": 9449,
      "у.": 9450,
      "фур": 9451,
      "хю": 9452,
      "хлен": 9453,
      "ч3": 9454,
      "накра": 9455,
      "наоколо": 9456,
      "награди": 9457,
      "то-": 9458,
      "тол": 9459,
      "камен": 9460,
      "николе": 9461,
      "кожи": 9462,
      "лил": 9463,
      "задна": 9464,
      "седем": 9465,
      "йка.": 9466,
      "годе": 9467,
      "родом": 9468,
      "лейка": 9469,
      "отра": 9470,
      "сапу": 9471,
      "дебил": 9472,
      "моме": 9473,
      "доказва": 9474,
      "достъп": 9475,
      "бе...": 9476,
      "хам": 9477,
      "прозо": 9478,
      "що,": 9479,
      "петер": 9480,
      "песен,": 9481,
      "чат.": 9482,
      "муа": 9483,
      "мула": 9484,
      "прио": 9485,
      "приказва": 9486,
      "лупа": 9487,
      "ку.": 9488,
      "тука.": 9489,
      "вечер,": 9490,
      "брада": 9491,
      "стен,": 9492,
      "имот": 9493,
      "следват": 9494,
      "смеше": 9495,
      "фара": 9496,
      "вяра": 9497,
      "т.нар.": 9498,
      "случ": 9499,
      "сното": 9500,
      "майките": 9501,
      "времето,": 9502,
      "париж": 9503,
      "драго": 9504,
      "редже": 9505,
      "трай": 9506,
      "близа": 9507,
      "деца!": 9508,
[...]
