{
  "version": "1.0",
  "truncation": null,
  "padding": null,
  "added_tokens": [
    {
      "id": 0,
      "content": "[unk]",
      "single_word": false,
      "lstrip": false,
      "rstrip": false,
      "normalized": false,
      "special": true
    },
    {
      "id": 1,
      "content": "[pad]",
      "single_word": false,
      "lstrip": false,
      "rstrip": false,
      "normalized": false,
      "special": true
    },
    {
      "id": 2,
      "content": "[str]",
      "single_word": false,
      "lstrip": false,
      "rstrip": false,
      "normalized": false,
      "special": true
    },
    {
      "id": 3,
      "content": "[end]",
      "single_word": false,
      "lstrip": false,
      "rstrip": false,
      "normalized": false,
      "special": true
    }
  ],
  "normalizer": {
    "type": "Sequence",
    "normalizers": [
      {
        "type": "NFD"
      },
      {
        "type": "Lowercase"
      }
    ]
  },
  "pre_tokenizer": {
    "type": "WhitespaceSplit"
  },
  "post_processor": {
    "type": "TemplateProcessing",
    "single": [
      {
        "SpecialToken": {
          "id": "[str]",
          "type_id": 0
        }
      },
      {
        "Sequence": {
          "id": "A",
          "type_id": 0
        }
      },
      {
        "SpecialToken": {
          "id": "[end]",
          "type_id": 0
        }
      }
    ],
    "pair": [
      {
        "Sequence": {
          "id": "A",
          "type_id": 0
        }
      },
      {
        "Sequence": {
          "id": "B",
          "type_id": 1
        }
      }
    ],
    "special_tokens": {
      "[end]": {
        "id": "[end]",
        "ids": [
          3
        ],
        "tokens": [
          "[end]"
        ]
      },
      "[str]": {
        "id": "[str]",
        "ids": [
          2
        ],
        "tokens": [
          "[str]"
        ]
      }
    }
  },
  "decoder": null,
  "model": {
    "type": "WordPiece",
    "unk_token": "[unk]",
    "continuing_subword_prefix": "",
    "max_input_chars_per_word": 100,
    "vocab": {
      "[unk]": 0,
      "[pad]": 1,
      "[str]": 2,
      "[end]": 3,
      "\u0004": 4,
      "!": 5,
      "\"": 6,
      "#": 7,
      "$": 8,
      "%": 9,
      "&": 10,
      "'": 11,
      "(": 12,
      ")": 13,
      "*": 14,
      "+": 15,
      ",": 16,
      "-": 17,
      ".": 18,
      "/": 19,
      "0": 20,
      "1": 21,
      "2": 22,
      "3": 23,
      "5": 24,
      "7": 25,
      "8": 26,
      "9": 27,
      ":": 28,
      ";": 29,
      "=": 30,
      ">": 31,
      "?": 32,
      "\\": 33,
      "^": 34,
      "_": 35,
      "a": 36,
      "c": 37,
      "e": 38,
      "i": 39,
      "n": 40,
      "o": 41,
      "s": 42,
      "t": 43,
      "u": 44,
      "z": 45,
      "{": 46,
      "|": 47,
      "}": 48,
      "~": 49,
      "¡": 50,
      "£": 51,
      "¤": 52,
      "¥": 53,
      "§": 54,
      "«": 55,
      "®": 56,
      "°": 57,
      "±": 58,
      "¶": 59,
      "»": 60,
      "¿": 61,
      "×": 62,
      "ı": 63,
      "ĸ": 64,
      "ł": 65,
      "̀": 66,
      "́": 67,
      "̂": 68,
      "̃": 69,
      "̆": 70,
      "̇": 71,
      "̈": 72,
      "̌": 73,
      "̦": 74,
      "̧": 75,
      "α": 76,
      "β": 77,
      "ε": 78,
      "ζ": 79,
      "θ": 80,
      "ι": 81,
      "κ": 82,
      "λ": 83,
      "μ": 84,
      "ν": 85,
      "ο": 86,
      "ς": 87,
      "σ": 88,
      "τ": 89,
      "ω": 90,
      "ϟ": 91,
      "а": 92,
      "б": 93,
      "в": 94,
      "г": 95,
      "д": 96,
      "е": 97,
      "ж": 98,
      "з": 99,
      "и": 100,
      "к": 101,
      "л": 102,
      "м": 103,
      "н": 104,
      "о": 105,
      "п": 106,
      "р": 107,
      "с": 108,
      "т": 109,
      "у": 110,
      "ф": 111,
      "х": 112,
      "ц": 113,
      "ч": 114,
      "ш": 115,
      "щ": 116,
      "ъ": 117,
      "ы": 118,
      "ь": 119,
      "э": 120,
      "ю": 121,
      "я": 122,
      "і": 123,
      "ґ": 124,
      "ա": 125,
      "բ": 126,
      "ղ": 127,
      "ᄂ": 128,
      "ᄅ": 129,
      "ᄇ": 130,
      "ᄉ": 131,
      "ᄋ": 132,
      "ᄌ": 133,
      "ᄏ": 134,
      "ᄐ": 135,
      "ᅡ": 136,
      "ᅩ": 137,
      "ᅳ": 138,
      "ᅵ": 139,
      "–": 140,
      "—": 141,
      "‘": 142,
      "’": 143,
      "“": 144,
      "”": 145,
      "„": 146,
      "…": 147,
      "›": 148,
      "‽": 149,
      "⁰": 150,
      "⁸": 151,
      "⁹": 152,
      "ⁿ": 153,
      "€": 154,
      "№": 155,
      "√": 156,
      "┳": 157,
      "┻": 158,
      "═": 159,
      "▄": 160,
      "▲": 161,
      "►": 162,
      "▼": 163,
      "☆": 164,
      "☠": 165,
      "☢": 166,
      "☭": 167,
      "☹": 168,
      "☺": 169,
      "♡": 170,
      "♥": 171,
      "✅": 172,
      "✋": 173,
      "✌": 174,
      "✓": 175,
      "✔": 176,
      "✠": 177,
      "❤": 178,
      "➤": 179,
      "⭐": 180,
      "一": 181,
      "卐": 182,
      "️": 183,
      "︻": 184,
      "？": 185,
      "на": 186,
      "та": 187,
      "то": 188,
      "ка": 189,
      "ва": 190,
      "ра": 191,
      "да": 192,
      "те": 193,
      "не": 194,
      "ни": 195,
      "ко": 196,
      "но": 197,
      "..": 198,
      "ма": 199,
      "ли": 200,
      "за": 201,
      "се": 202,
      "по": 203,
      "ти": 204,
      "й": 205,
      "си": 206,
      "ре": 207,
      "ри": 208,
      "го": 209,
      "ви": 210,
      "ла": 211,
      "че": 212,
      "ро": 213,
      "ле": 214,
      "ве": 215,
      "га": 216,
      "от": 217,
      "ме": 218,
      "ки": 219,
      "са": 220,
      "во": 221,
      "ми": 222,
      "де": 223,
      "мо": 224,
      "ст": 225,
      "ди": 226,
      "до": 227,
      "па": 228,
      "бе": 229,
      "же": 230,
      "зи": 231,
      "ър": 232,
      "!!": 233,
      "ще": 234,
      "ня": 235,
      "ло": 236,
      "из": 237,
      "ба": 238,
      "би": 239,
      "ци": 240,
      "ста": 241,
      "про": 242,
      "как": 243,
      "що": 244,
      "пе": 245,
      "пи": 246,
      "бо": 247,
      "пре": 248,
      "ха": 249,
      "ча": 250,
      "съ": 251,
      "...": 252,
      "сти": 253,
      "ше": 254,
      "му": 255,
      "ля": 256,
      "като": 257,
      "пра": 258,
      "мно": 259,
      "това": 260,
      "жи": 261,
      "ги": 262,
      "много": 263,
      "лу": 264,
      "жа": 265,
      "ъл": 266,
      "ру": 267,
      "чи": 268,
      "лко": 269,
      "ку": 270,
      "ят": 271,
      "кой": 272,
      "ръ": 273,
      "....": 274,
      "ска": 275,
      "ца": 276,
      "има": 277,
      "къ": 278,
      "при": 279,
      "раз": 280,
      "няма": 281,
      "хо": 282,
      "ря": 283,
      "зна": 284,
      "ща": 285,
      "сто": 286,
      "кра": 287,
      "само": 288,
      "тя": 289,
      "це": 290,
      "ние": 291,
      "ната": 292,
      "ката": 293,
      "ски": 294,
      "ду": 295,
      "бра": 296,
      "ед": 297,
      "гле": 298,
      "мен": 299,
      "со": 300,
      "ту": 301,
      "ват": 302,
      "тъ": 303,
      "ните": 304,
      "??": 305,
      "ния": 306,
      "може": 307,
      "жда": 308,
      "какво": 309,
      "въ": 310,
      "сте": 311,
      "ин": 312,
      "тази": 313,
      "пу": 314,
      "прави": 315,
      "чо": 316,
      "сич": 317,
      "ши": 318,
      "сле": 319,
      "лю": 320,
      "зе": 321,
      "вече": 322,
      "пъ": 323,
      "всич": 324,
      "защо": 325,
      "об": 326,
      "!!!": 327,
      "мъ": 328,
      "доб": 329,
      "дър": 330,
      "този": 331,
      "ша": 332,
      "без": 333,
      "дру": 334,
      "чу": 335,
      "фи": 336,
      "тая": 337,
      "гра": 338,
      "лъ": 339,
      "ге": 340,
      "хора": 341,
      "рия": 342,
      "така": 343,
      "тия": 344,
      "вър": 345,
      "бъл": 346,
      "май": 347,
      "гледа": 348,
      "ако": 349,
      "рите": 350,
      "су": 351,
      "нa": 352,
      "щи": 353,
      "ху": 354,
      "пла": 355,
      "лно": 356,
      "бълга": 357,
      "бва": 358,
      "ама": 359,
      "дра": 360,
      "все": 361,
      "та.": 362,
      "сме": 363,
      "ване": 364,
      "гла": 365,
      "гро": 366,
      "тря": 367,
      "сни": 368,
      "дя": 369,
      "най": 370,
      "т.": 371,
      "или": 372,
      "та,": 373,
      "сла": 374,
      "колко": 375,
      "кои": 376,
      "ну": 377,
      "шо": 378,
      "дин": 379,
      "вам": 380,
      "под": 381,
      "им": 382,
      "трябва": 383,
      "голя": 384,
      "ско": 385,
      "сега": 386,
      "на,": 387,
      "ор": 388,
      "иска": 389,
      "годи": 390,
      "вя": 391,
      "гу": 392,
      "тоя": 393,
      "всички": 394,
      "беше": 395,
      "толко": 396,
      "ство": 397,
      "къде": 398,
      "кога": 399,
      "лен": 400,
      "инте": 401,
      "вен": 402,
      ",че": 403,
      "чно": 404,
      "бу": 405,
      "!!!!": 406,
      "чове": 407,
      "по-": 408,
      "тези": 409,
      "рa": 410,
      "пари": 411,
      "един": 412,
      "вие": 413,
      "нищо": 414,
      "стра": 415,
      "два": 416,
      "сно": 417,
      "ке": 418,
      "нали": 419,
      "на.": 420,
      "вре": 421,
      "толкова": 422,
      "пред": 423,
      "кa": 424,
      "ките": 425,
      "ва,": 426,
      "здра": 427,
      "слу": 428,
      "ва.": 429,
      "ка.": 430,
      "аз": 431,
      "зло": 432,
      "рно": 433,
      "добре": 434,
      "ман": 435,
      "вa": 436,
      "фе": 437,
      "хт": 438,
      "хуба": 439,
      "кур": 440,
      "оста": 441,
      "каз": 442,
      "съм": 443,
      "една": 444,
      "коя": 445,
      "ся": 446,
      "той": 447,
      "хи": 448,
      "още": 449,
      "нт": 450,
      "//": 451,
      "чал": 452,
      "йте": 453,
      "ция": 454,
      "нима": 455,
      "пъл": 456,
      "тп": 457,
      "хттп": 458,
      "://": 459,
      "след": 460,
      "тър": 461,
      "вра": 462,
      "рабо": 463,
      "е,": 464,
      "просто": 465,
      "спе": 466,
      "него": 467,
      "нещо": 468,
      "тa": 469,
      "фа": 470,
      "вате": 471,
      "едно": 472,
      "ка,": 473,
      "сна": 474,
      "оби": 475,
      "ьо": 476,
      "мис": 477,
      "които": 478,
      "мата": 479,
      "спо": 480,
      "дете": 481,
      "н.": 482,
      "бли": 483,
      "жена": 484,
      "ето": 485,
      "три": 486,
      "глу": 487,
      "бъ": 488,
      "мя": 489,
      "зо": 490,
      "чето": 491,
      "нея": 492,
      "лни": 493,
      "кри": 494,
      "дъ": 495,
      "знае": 496,
      "време": 497,
      "вата": 498,
      "вно": 499,
      "00": 500,
      "каза": 501,
      "дa": 502,
      "който": 503,
      "ред": 504,
      ".....": 505,
      "някой": 506,
      "мъж": 507,
      "комен": 508,
      "със": 509,
      "ден": 510,
      "тите": 511,
      "пак": 512,
      "мa": 513,
      "ници": 514,
      "?!": 515,
      "преда": 516,
      "чалга": 517,
      "аа": 518,
      "тре": 519,
      "ев": 520,
      "там": 521,
      "пък": 522,
      "въз": 523,
      "исти": 524,
      "таки": 525,
      "човек": 526,
      "най-": 527,
      "години": 528,
      "тра": 529,
      "ник": 530,
      "интере": 531,
      "взе": 532,
      "гъ": 533,
      "чка": 534,
      "ков": 535,
      "ното": 536,
      "всичко": 537,
      "цига": 538,
      "зъ": 539,
      "проста": 540,
      "гово": 541,
      "ця": 542,
      "каква": 543,
      "стве": 544,
      "оо": 545,
      "лек": 546,
      "ум": 547,
      "мла": 548,
      "бок": 549,
      "кла": 550,
      "лите": 551,
      "зави": 552,
      "такива": 553,
      "н,": 554,
      "повече": 555,
      "стига": 556,
      "защото": 557,
      "вят": 558,
      "малко": 559,
      "жив": 560,
      "браво": 561,
      "вете": 562,
      "жени": 563,
      "пише": 564,
      "деца": 565,
      "ее": 566,
      "краси": 567,
      "бя": 568,
      "цо": 569,
      "боклу": 570,
      "лна": 571,
      "моми": 572,
      "други": 573,
      ",а": 574,
      "дна": 575,
      "л.": 576,
      "харе": 577,
      "хе": 578,
      "ур": 579,
      "в.": 580,
      "направи": 581,
      "става": 582,
      "дите": 583,
      "сва": 584,
      "фо": 585,
      "какви": 586,
      "пар": 587,
      "пър": 588,
      "занима": 589,
      "ак": 590,
      "държа": 591,
      "българия": 592,
      "предаване": 593,
      "све": 594,
      "джи": 595,
      "кара": 596,
      "тен": 597,
      "то.": 598,
      "лича": 599,
      "т,": 600,
      "е.": 601,
      "пер": 602,
      "лa": 603,
      "сра": 604,
      "тка": 605,
      "с.": 606,
      "вите": 607,
      "майка": 608,
      "ците": 609,
      "гроз": 610,
      "хаха": 611,
      "преди": 612,
      "си.": 613,
      "рма": 614,
      "нала": 615,
      "лия": 616,
      "нски": 617,
      "прости": 618,
      "дни": 619,
      "дали": 620,
      "сним": 621,
      "сен": 622,
      "ъв": 623,
      "рти": 624,
      "вица": 625,
      "лка": 626,
      "всеки": 627,
      "зa": 628,
      "вся": 629,
      "кон": 630,
      "отвра": 631,
      "какъв": 632,
      "връ": 633,
      "мери": 634,
      "''": 635,
      "нка": 636,
      "пръ": 637,
      "пита": 638,
      "нови": 639,
      ",,": 640,
      "голе": 641,
      "ком": 642,
      "живо": 643,
      "което": 644,
      "нито": 645,
      "сигу": 646,
      "бира": 647,
      "нти": 648,
      "дъл": 649,
      "чета": 650,
      "никой": 651,
      "българ": 652,
      "хората": 653,
      "която": 654,
      "ни,": 655,
      "ност": 656,
      "мисли": 657,
      "сви": 658,
      "вижда": 659,
      "комента": 660,
      "казва": 661,
      "нека": 662,
      "дре": 663,
      "мога": 664,
      "л,": 665,
      "живе": 666,
      "те,": 667,
      "ква": 668,
      "дж": 669,
      "то,": 670,
      "живот": 671,
      "глежда": 672,
      "ни.": 673,
      "визи": 674,
      "тъпа": 675,
      "хттп://": 676,
      "поне": 677,
      "оти": 678,
      "дава": 679,
      "после": 680,
      "ята": 681,
      "когато": 682,
      "гa": 683,
      "гри": 684,
      "както": 685,
      "чки": 686,
      "еба": 687,
      "глупо": 688,
      "хттпс": 689,
      "нов": 690,
      "хттпс://": 691,
      "ами": 692,
      "мер": 693,
      "теле": 694,
      "лки": 695,
      "мръ": 696,
      "???": 697,
      "сa": 698,
      "злоба": 699,
      "тор": 700,
      "прилича": 701,
      "к.": 702,
      "кар": 703,
      "тях": 704,
      "любо": 705,
      "дано": 706,
      "голям": 707,
      "гну": 708,
      "си,": 709,
      "ите": 710,
      "г.": 711,
      "проти": 712,
      "тво": 713,
      "рен": 714,
      "хва": 715,
      "мира": 716,
      "голяма": 717,
      "дне": 718,
      "дето": 719,
      "каже": 720,
      "била": 721,
      "неща": 722,
      "явно": 723,
      "тира": 724,
      "мъже": 725,
      "изглежда": 726,
      "поч": 727,
      "доста": 728,
      "пя": 729,
      "семе": 730,
      "лата": 731,
      "ан": 732,
      "игра": 733,
      "работа": 734,
      "--": 735,
      "клю": 736,
      "льо": 737,
      "чен": 738,
      "сек": 739,
      "ли,": 740,
      "ву": 741,
      "право": 742,
      "м.": 743,
      "изве": 744,
      "бър": 745,
      "ради": 746,
      "йде": 747,
      "ти.": 748,
      "ства": 749,
      "лото": 750,
      "абе": 751,
      "друго": 752,
      "ужа": 753,
      "ян": 754,
      "бъде": 755,
      "вна": 756,
      "сел": 757,
      "обича": 758,
      "ос": 759,
      "нова": 760,
      "писа": 761,
      "жела": 762,
      "ии": 763,
      "стане": 764,
      "баща": 765,
      "към": 766,
      "наги": 767,
      "фор": 768,
      "те.": 769,
      "вай": 770,
      "м,": 771,
      "бла": 772,
      "уча": 773,
      "мом": 774,
      "във": 775,
      "грозна": 776,
      "чков": 777,
      "))": 778,
      "он": 779,
      "говори": 780,
      "бил": 781,
      "зад": 782,
      "стана": 783,
      ",но": 784,
      "р.": 785,
      "дже": 786,
      "наче": 787,
      "рка": 788,
      "успе": 789,
      "големи": 790,
      "тала": 791,
      "пее": 792,
      "общо": 793,
      "колкото": 794,
      "нието": 795,
      "сигурно": 796,
      "сло": 797,
      "глупости": 798,
      "интересу": 799,
      "в,": 800,
      "рко": 801,
      "уу": 802,
      "ла.": 803,
      "роди": 804,
      "норма": 805,
      "стли": 806,
      "семей": 807,
      "дебе": 808,
      "също": 809,
      "кво": 810,
      "я.": 811,
      "род": 812,
      "манга": 813,
      "????": 814,
      "шоу": 815,
      "мър": 816,
      "плю": 817,
      "тро": 818,
      "но.": 819,
      "сър": 820,
      "хте": 821,
      "тъпо": 822,
      "дори": 823,
      "две": 824,
      "бле": 825,
      "ла,": 826,
      "......": 827,
      "чите": 828,
      "момиче": 829,
      "шко": 830,
      "кли": 831,
      "но,": 832,
      "злоб": 833,
      "кат": 834,
      "ница": 835,
      "20": 836,
      "кре": 837,
      "гледам": 838,
      "ската": 839,
      "тук": 840,
      "тва": 841,
      "хубаво": 842,
      "нал": 843,
      "видя": 844,
      "тата": 845,
      "ней": 846,
      "жалко": 847,
      "чни": 848,
      "види": 849,
      "нки": 850,
      "шка": 851,
      "вид": 852,
      "точно": 853,
      "вер": 854,
      "пишете": 855,
      "не,": 856,
      "нъ": 857,
      "иначе": 858,
      "селя": 859,
      "чер": 860,
      "знам": 861,
      "сре": 862,
      "телевизи": 863,
      "ьор": 864,
      "пa": 865,
      "парите": 866,
      "гре": 867,
      "разбира": 868,
      "занимавате": 869,
      "коле": 870,
      "правят": 871,
      "вто": 872,
      "бит.": 873,
      "лъ/": 874,
      "заради": 875,
      "я,": 876,
      "й,": 877,
      "бит.лъ/": 878,
      "гне": 879,
      "джа": 880,
      "ли.": 881,
      "баба": 882,
      "евро": 883,
      "тур": 884,
      "жава": 885,
      "плаща": 886,
      "с,": 887,
      "пен": 888,
      "освен": 889,
      "бре": 890,
      "истина": 891,
      "затова": 892,
      "винаги": 893,
      "край": 894,
      "ции": 895,
      "спа": 896,
      "уста": 897,
      "\".": 898,
      "име": 899,
      "ние.": 900,
      "друга": 901,
      "мили": 902,
      "бит.лъ/2": 903,
      "важ": 904,
      "комп": 905,
      "рекла": 906,
      "мина": 907,
      "ствие": 908,
      "кого": 909,
      "мисле": 910,
      "гър": 911,
      "зве": 912,
      "учи": 913,
      "простотия": 914,
      "лице": 915,
      "любов": 916,
      "к,": 917,
      "позна": 918,
      "къв": 919,
      "ен": 920,
      "тел": 921,
      "ки,": 922,
      "ходи": 923,
      "дъще": 924,
      "гло": 925,
      "пле": 926,
      "кръ": 927,
      "х,": 928,
      "вия": 929,
      "полу": 930,
      "намери": 931,
      "теб": 932,
      "проду": 933,
      "скоро": 934,
      "ива": 935,
      "тъпи": 936,
      "живее": 937,
      "чув": 938,
      "смеш": 939,
      "прия": 940,
      "отвратите": 941,
      "кова": 942,
      "лай": 943,
      "ран": 944,
      "комплек": 945,
      "рачков": 946,
      "дат": 947,
      "семейство": 948,
      "двамата": 949,
      "глупа": 950,
      "тру": 951,
      "благо": 952,
      "кро": 953,
      "докато": 954,
      "ки.": 955,
      "път": 956,
      "място": 957,
      "спи": 958,
      "тръ": 959,
      "тии": 960,
      "вели": 961,
      "живота": 962,
      "........": 963,
      "нето": 964,
      "мар": 965,
      "лага": 966,
      "ст.": 967,
      "щом": 968,
      "друг": 969,
      "харес": 970,
      "пом": 971,
      "отно": 972,
      "воде": 973,
      "двете": 974,
      "дядо": 975,
      "чак": 976,
      ",не": 977,
      "вле": 978,
      "фил": 979,
      "през": 980,
      "на!": 981,
      "гава": 982,
      "тно": 983,
      "заслу": 984,
      ":)": 985,
      "проститу": 986,
      "боже": 987,
      "ри,": 988,
      "изне": 989,
      "забра": 990,
      "себе": 991,
      "талант": 992,
      "ясно": 993,
      "не.": 994,
      "разбра": 995,
      "такава": 996,
      "звез": 997,
      "изобщо": 998,
      "иди": 999,
      "ника": 1000,
      "жената": 1001,
      "дъщеря": 1002,
      "хме": 1003,
      "боклук": 1004,
      "лошо": 1005,
      "лят": 1006,
      "извест": 1007,
      "недо": 1008,
      "лично": 1009,
      "никога": 1010,
      "ти,": 1011,
      "даже": 1012,
      "гор": 1013,
      "стъ": 1014,
      "поред": 1015,
      "коментира": 1016,
      "ш,": 1017,
      "супер": 1018,
      "ал": 1019,
      "пол": 1020,
      "децата": 1021,
      "спре": 1022,
      "чна": 1023,
      "прекра": 1024,
      "бг": 1025,
      "чели": 1026,
      "нат": 1027,
      "мат": 1028,
      "вяр": 1029,
      "чката": 1030,
      "стой": 1031,
      "наистина": 1032,
      "бa": 1033,
      "нта": 1034,
      "пробле": 1035,
      "дно": 1036,
      "джу": 1037,
      "ри.": 1038,
      "ст,": 1039,
      "ци.": 1040,
      "съще": 1041,
      "красива": 1042,
      "рат": 1043,
      "дал": 1044,
      "мири": 1045,
      "интересува": 1046,
      "нска": 1047,
      "тв": 1048,
      "поли": 1049,
      "нче": 1050,
      "търси": 1051,
      "щастли": 1052,
      "ра.": 1053,
      "обще": 1054,
      "она": 1055,
      "сво": 1056,
      "ци,": 1057,
      "пло": 1058,
      "бих": 1059,
      "харесва": 1060,
      "ш.": 1061,
      "дар": 1062,
      "лили": 1063,
      "певица": 1064,
      "д.": 1065,
      "кло": 1066,
      "нари": 1067,
      "направо": 1068,
      "дръ": 1069,
      "меж": 1070,
      "музи": 1071,
      "чат": 1072,
      "български": 1073,
      "публи": 1074,
      "бога": 1075,
      "зва": 1076,
      "шу": 1077,
      "сили": 1078,
      "мия": 1079,
      "ра,": 1080,
      "сне": 1081,
      "шки": 1082,
      "имат": 1083,
      "внима": 1084,
      "нин": 1085,
      "веде": 1086,
      "та!": 1087,
      "ева": 1088,
      "10": 1089,
      "ер": 1090,
      "зла": 1091,
      "наха": 1092,
      "поло": 1093,
      "между": 1094,
      "лиза": 1095,
      "хубава": 1096,
      "дри": 1097,
      "да,": 1098,
      "!!!!!!!!": 1099,
      "акт": 1100,
      "дари": 1101,
      "здраве": 1102,
      "хa": 1103,
      "помо": 1104,
      "вото": 1105,
      "щата": 1106,
      "софи": 1107,
      "искам": 1108,
      "зен": 1109,
      "въпро": 1110,
      "аман": 1111,
      "ус": 1112,
      "меди": 1113,
      "слуша": 1114,
      "100": 1115,
      "аб": 1116,
      "р,": 1117,
      "такъв": 1118,
      "педе": 1119,
      "срам": 1120,
      "раст": 1121,
      "лига": 1122,
      "мозъ": 1123,
      "сред": 1124,
      "вец": 1125,
      "почи": 1126,
      "жур": 1127,
      "стен": 1128,
      "ният": 1129,
      "тъп": 1130,
      "фу": 1131,
      "изку": 1132,
      "чака": 1133,
      "праз": 1134,
      "пълен": 1135,
      "бяха": 1136,
      "еле": 1137,
      "око": 1138,
      "гала": 1139,
      "курва": 1140,
      "йка": 1141,
      "пв": 1142,
      "работи": 1143,
      "пси": 1144,
      "ску": 1145,
      "дей": 1146,
      "щите": 1147,
      "\",": 1148,
      "над": 1149,
      "тогава": 1150,
      "некадър": 1151,
      "нят": 1152,
      "дво": 1153,
      "бере": 1154,
      "могат": 1155,
      "опи": 1156,
      "ви,": 1157,
      "виру": 1158,
      "вла": 1159,
      "е!": 1160,
      "рата": 1161,
      "пъти": 1162,
      "върши": 1163,
      "връща": 1164,
      "нарко": 1165,
      "мите": 1166,
      "пуска": 1167,
      "прав": 1168,
      "нея.": 1169,
      "ма,": 1170,
      "ети.": 1171,
      "кви": 1172,
      "тин": 1173,
      "чете": 1174,
      "арти": 1175,
      "даде": 1176,
      "ние,": 1177,
      "зу": 1178,
      "вал": 1179,
      "страх": 1180,
      "ети.пв": 1181,
      "оне": 1182,
      "стро": 1183,
      "пълни": 1184,
      "нди": 1185,
      "парца": 1186,
      "яко": 1187,
      "образ": 1188,
      "хттпс://бит.лъ/2": 1189,
      "бой": 1190,
      "шите": 1191,
      "щото": 1192,
      "значи": 1193,
      "цял": 1194,
      "прият": 1195,
      "са.": 1196,
      "грам": 1197,
      "вземе": 1198,
      "вали": 1199,
      "послед": 1200,
      "госпо": 1201,
      "бие": 1202,
      "краса": 1203,
      "ството": 1204,
      "цията": 1205,
      "чко": 1206,
      "дата": 1207,
      "мента": 1208,
      "скъ": 1209,
      "ма.": 1210,
      "рек": 1211,
      "това,": 1212,
      "добро": 1213,
      "смя": 1214,
      "тката": 1215,
      "ваш": 1216,
      "диa": 1217,
      "дърта": 1218,
      "шат": 1219,
      "където": 1220,
      "хра": 1221,
      "ров": 1222,
      "възпита": 1223,
      "сце": 1224,
      "шно": 1225,
      "побе": 1226,
      "йй": 1227,
      "горе": 1228,
      "детето": 1229,
      "добра": 1230,
      "цен": 1231,
      "аааа": 1232,
      "рио": 1233,
      "цом": 1234,
      "начи": 1235,
      "шен": 1236,
      "яде": 1237,
      "тина": 1238,
      "вън": 1239,
      "тна": 1240,
      "мага": 1241,
      "ек": 1242,
      "село": 1243,
      "разли": 1244,
      "връз": 1245,
      "осо": 1246,
      "ли?": 1247,
      "сира": 1248,
      "здрави": 1249,
      "и.": 1250,
      "мария": 1251,
      "да.": 1252,
      "добър": 1253,
      "отда": 1254,
      "стници": 1255,
      "българи": 1256,
      "блиц": 1257,
      "срещ": 1258,
      "лин": 1259,
      "уме": 1260,
      "щя": 1261,
      "бе,": 1262,
      "алек": 1263,
      "тко": 1264,
      "ът": 1265,
      "ува": 1266,
      "каквото": 1267,
      "нете": 1268,
      "киф": 1269,
      "късме": 1270,
      "голямо": 1271,
      "ва!": 1272,
      "вни": 1273,
      "че,": 1274,
      "цата": 1275,
      "прa": 1276,
      "нове": 1277,
      "солю": 1278,
      "статия": 1279,
      "всяка": 1280,
      "ар": 1281,
      "кажа": 1282,
      "вайте": 1283,
      "случа": 1284,
      "вас": 1285,
      "пача": 1286,
      "изклю": 1287,
      "нагла": 1288,
      "сим": 1289,
      "бен": 1290,
      "всякъде": 1291,
      "рни": 1292,
      "х.": 1293,
      "чески": 1294,
      "журнали": 1295,
      "мало": 1296,
      "пълно": 1297,
      "подоб": 1298,
      "наро": 1299,
      "нас": 1300,
      "започ": 1301,
      "!?": 1302,
      "лип": 1303,
      "сия": 1304,
      "мисля": 1305,
      "гна": 1306,
      "хвър": 1307,
      "месе": 1308,
      "спечели": 1309,
      "другите": 1310,
      "абсолю": 1311,
      "някои": 1312,
      "едни": 1313,
      "майката": 1314,
      "прост": 1315,
      "имаш": 1316,
      "падна": 1317,
      "бар": 1318,
      "сли": 1319,
      "т!": 1320,
      "рад": 1321,
      "бот": 1322,
      "тки": 1323,
      "оба": 1324,
      "обра": 1325,
      "кате": 1326,
      "сам": 1327,
      "били": 1328,
      "края": 1329,
      "нужда": 1330,
      "бай": 1331,
      "ген": 1332,
      "фото": 1333,
      "ужас": 1334,
      "еми": 1335,
      "народ": 1336,
      "оооо": 1337,
      "предаването": 1338,
      "кто": 1339,
      "топ": 1340,
      "продъл": 1341,
      "предста": 1342,
      "дават": 1343,
      "живи": 1344,
      "първо": 1345,
      "жо": 1346,
      "са,": 1347,
      "пълна": 1348,
      "жно": 1349,
      "мне": 1350,
      "хора,": 1351,
      "есте": 1352,
      "пожела": 1353,
      "стта": 1354,
      "боли": 1355,
      "музика": 1356,
      "серио": 1357,
      "момичето": 1358,
      "веро": 1359,
      "хал": 1360,
      "жива": 1361,
      "урл": 1362,
      "нце": 1363,
      "п.": 1364,
      "нема": 1365,
      "мах": 1366,
      "!!!!!": 1367,
      "бута": 1368,
      "коментари": 1369,
      "ис": 1370,
      "ражда": 1371,
      "думи": 1372,
      "чуж": 1373,
      "вди": 1374,
      "сан": 1375,
      "профе": 1376,
      "%д": 1377,
      "загла": 1378,
      "мине": 1379,
      "дят": 1380,
      "кле": 1381,
      "мама": 1382,
      "поз": 1383,
      "кти": 1384,
      "си!": 1385,
      "шата": 1386,
      "боклуци": 1387,
      "рят": 1388,
      "съжа": 1389,
      "ния.": 1390,
      "актри": 1391,
      "кси": 1392,
      "кари": 1393,
      "жен": 1394,
      "ствено": 1395,
      "айде": 1396,
      "щеше": 1397,
      "виж": 1398,
      "родите": 1399,
      ".......": 1400,
      "гей": 1401,
      "екра": 1402,
      "кър": 1403,
      "малки": 1404,
      "реши": 1405,
      "млади": 1406,
      "завижда": 1407,
      "талантли": 1408,
      "иде": 1409,
      "кое": 1410,
      "ей": 1411,
      "погле": 1412,
      "кило": 1413,
      "правя": 1414,
      "слава": 1415,
      "чалгар": 1416,
      "ана": 1417,
      "жa": 1418,
      "мал": 1419,
      "изле": 1420,
      "ви.": 1421,
      "пример": 1422,
      "андре": 1423,
      "диaрия": 1424,
      "сил": 1425,
      "дово": 1426,
      "стите": 1427,
      "с.ети.пв": 1428,
      "грозно": 1429,
      "успех": 1430,
      "мангал": 1431,
      "актьор": 1432,
      "отдавна": 1433,
      "бизне": 1434,
      "радва": 1435,
      "цом/": 1436,
      "моля": 1437,
      "зле": 1438,
      "бено": 1439,
      "младо": 1440,
      "форма": 1441,
      "песен": 1442,
      "ката.": 1443,
      "гъзъ": 1444,
      "фф": 1445,
      "мари": 1446,
      "сата": 1447,
      "ските": 1448,
      "бързо": 1449,
      "пру": 1450,
      "пря": 1451,
      "стa": 1452,
      "рази": 1453,
      "било": 1454,
      "люби": 1455,
      "срещу": 1456,
      "хар": 1457,
      "същи": 1458,
      "ват.": 1459,
      "ронa": 1460,
      "бан": 1461,
      "опе": 1462,
      "пази": 1463,
      "оча": 1464,
      "цa": 1465,
      "такова": 1466,
      "се,": 1467,
      "нямаше": 1468,
      "и,": 1469,
      "чение": 1470,
      "купи": 1471,
      "зрите": 1472,
      "рт": 1473,
      "ка!": 1474,
      "сети": 1475,
      "истински": 1476,
      "гру": 1477,
      "гръ": 1478,
      "интели": 1479,
      "показва": 1480,
      "предни": 1481,
      "жените": 1482,
      "някоя": 1483,
      "държи": 1484,
      "момче": 1485,
      "затво": 1486,
      "пада": 1487,
      "фал": 1488,
      "обик": 1489,
      "злобни": 1490,
      "вме": 1491,
      "висо": 1492,
      "няколко": 1493,
      "бог": 1494,
      "кул": 1495,
      "соне": 1496,
      "курве": 1497,
      "скри": 1498,
      "фъ": 1499,
      "показ": 1500,
      "лапа": 1501,
      "ган": 1502,
      "мене": 1503,
      "бив": 1504,
      "нямат": 1505,
      "времето": 1506,
      "нико": 1507,
      "стру": 1508,
      "доса": 1509,
      "преднисоне": 1510,
      "изпъл": 1511,
      "обя": 1512,
      "физи": 1513,
      "исто": 1514,
      "шна": 1515,
      "бива": 1516,
      "ването": 1517,
      "грозни": 1518,
      "лиг": 1519,
      "сите": 1520,
      "дени": 1521,
      "ха,": 1522,
      "следва": 1523,
      "реклама": 1524,
      "50": 1525,
      "зли": 1526,
      "оно": 1527,
      "заба": 1528,
      "едва": 1529,
      "нията": 1530,
      "цоронa": 1531,
      "същество": 1532,
      "гати": 1533,
      "жена.": 1534,
      "съпру": 1535,
      "ца,": 1536,
      "селски": 1537,
      "й.": 1538,
      "чест": 1539,
      "бор": 1540,
      "здрав": 1541,
      "чувствие": 1542,
      "прияте": 1543,
      "харесвам": 1544,
      "красавица": 1545,
      "цоронaвиру": 1546,
      "ѝ": 1547,
      "тоз": 1548,
      "пози": 1549,
      "йки": 1550,
      "вести": 1551,
      "излага": 1552,
      "имам": 1553,
      "стоя": 1554,
      "тура": 1555,
      "фотошо": 1556,
      "потре": 1557,
      "пусна": 1558,
      "интересно": 1559,
      "заслужава": 1560,
      "около": 1561,
      "изключите": 1562,
      "омръ": 1563,
      "гъл": 1564,
      "свят": 1565,
      "реа": 1566,
      "цето": 1567,
      "него.": 1568,
      "устата": 1569,
      "твър": 1570,
      "пите": 1571,
      "самочувствие": 1572,
      "тхе": 1573,
      "ч.": 1574,
      "мани": 1575,
      "порно": 1576,
      "ло,": 1577,
      "ния,": 1578,
      "вероят": 1579,
      "0%": 1580,
      "жена,": 1581,
      "ееее": 1582,
      "сс": 1583,
      "неприят": 1584,
      "остави": 1585,
      "особено": 1586,
      "ъо": 1587,
      "неш": 1588,
      "лиго": 1589,
      "пати": 1590,
      "лява": 1591,
      "лък": 1592,
      "цве": 1593,
      "стри": 1594,
      "стара": 1595,
      "комплекса": 1596,
      "грамот": 1597,
      "дро": 1598,
      "съл": 1599,
      "ката,": 1600,
      "против": 1601,
      "вци": 1602,
      "тни": 1603,
      "написа": 1604,
      "соб": 1605,
      "добри": 1606,
      "ското": 1607,
      "вка": 1608,
      "е?": 1609,
      "опита": 1610,
      "сми": 1611,
      "разни": 1612,
      "главата": 1613,
      "свет": 1614,
      "ай": 1615,
      "гот": 1616,
      "бори": 1617,
      ",да": 1618,
      "личи": 1619,
      "показа": 1620,
      "педал": 1621,
      "бтв": 1622,
      "жите": 1623,
      "дупе": 1624,
      "гъза": 1625,
      "чва": 1626,
      "натра": 1627,
      "посто": 1628,
      "бездар": 1629,
      "година": 1630,
      "здраво": 1631,
      "вместо": 1632,
      "ема": 1633,
      "пти": 1634,
      "рна": 1635,
      "ха.": 1636,
      "цу": 1637,
      "отсла": 1638,
      "песни": 1639,
      "преде": 1640,
      "имаше": 1641,
      "истината": 1642,
      "ерге": 1643,
      "въл": 1644,
      "грa": 1645,
      "ни!": 1646,
      "гос": 1647,
      "сай": 1648,
      "съз": 1649,
      "му.": 1650,
      "крити": 1651,
      "алко": 1652,
      "син": 1653,
      "лено": 1654,
      "двама": 1655,
      "образо": 1656,
      "бръ": 1657,
      "сня": 1658,
      "накрая": 1659,
      "каме": 1660,
      "поре": 1661,
      "лена": 1662,
      "моде": 1663,
      "тоа": 1664,
      "бата": 1665,
      "желая": 1666,
      "нормално": 1667,
      "дко": 1668,
      "рки": 1669,
      "кам": 1670,
      "дия": 1671,
      "пия": 1672,
      "кт": 1673,
      "къл": 1674,
      "таз": 1675,
      "поведе": 1676,
      "чести": 1677,
      "ведна": 1678,
      "достой": 1679,
      "голямата": 1680,
      "дебела": 1681,
      "уника": 1682,
      "мами": 1683,
      "поръ": 1684,
      "ца.": 1685,
      "обър": 1686,
      "плати": 1687,
      "ем": 1688,
      "тай": 1689,
      "лева": 1690,
      "господ": 1691,
      "сту": 1692,
      "изя": 1693,
      "гент": 1694,
      "губи": 1695,
      "19": 1696,
      "а,": 1697,
      "зно": 1698,
      "работ": 1699,
      "нев": 1700,
      "мора": 1701,
      "лов": 1702,
      "всичките": 1703,
      "добре,": 1704,
      "предава": 1705,
      "вки": 1706,
      "гли": 1707,
      "оправи": 1708,
      "сят": 1709,
      "гов": 1710,
      "стни": 1711,
      "излъ": 1712,
      "въобще": 1713,
      "геро": 1714,
      "вярно": 1715,
      "забрави": 1716,
      "веднага": 1717,
      "чките": 1718,
      "наду": 1719,
      "ван": 1720,
      "нира": 1721,
      "алкохо": 1722,
      "взи": 1723,
      "очи": 1724,
      "пан": 1725,
      "жат": 1726,
      "хубави": 1727,
      "снимка": 1728,
      "нът": 1729,
      "името": 1730,
      "изключително": 1731,
      "омръзна": 1732,
      "лев": 1733,
      "туй": 1734,
      "телевизия": 1735,
      "очаква": 1736,
      "фалши": 1737,
      "лигльо": 1738,
      "ох": 1739,
      "лина": 1740,
      "ми.": 1741,
      "знаят": 1742,
      "майму": 1743,
      "възраст": 1744,
      "снимката": 1745,
      "опреде": 1746,
      "яя": 1747,
      "нер": 1748,
      "ряза": 1749,
      "здрава": 1750,
      "натрап": 1751,
      "пки": 1752,
      "напред": 1753,
      "нася": 1754,
      "мара": 1755,
      "мет": 1756,
      "певец": 1757,
      "слави": 1758,
      "фер": 1759,
      "000": 1760,
      "ствена": 1761,
      "ползва": 1762,
      "малоум": 1763,
      "бро": 1764,
      "еш": 1765,
      "уж": 1766,
      "глава": 1767,
      "внимание": 1768,
      "уби": 1769,
      "сезо": 1770,
      "ди,": 1771,
      "щасти": 1772,
      "интер": 1773,
      "коментарите": 1774,
      "тер": 1775,
      "праве": 1776,
      "плаши": 1777,
      "ези": 1778,
      "оня": 1779,
      "симо": 1780,
      "воля": 1781,
      "деси": 1782,
      ",за": 1783,
      "ела": 1784,
      "жу": 1785,
      "чa": 1786,
      "чка.": 1787,
      "сед": 1788,
      "грозен": 1789,
      "държава": 1790,
      "мъжете": 1791,
      "л!": 1792,
      "фре": 1793,
      "наре": 1794,
      "останали": 1795,
      "простотии": 1796,
      "момчето": 1797,
      "долу": 1798,
      "зира": 1799,
      "слага": 1800,
      "пари.": 1801,
      "възмо": 1802,
      "секс": 1803,
      "дай": 1804,
      "ново": 1805,
      "новен": 1806,
      "отзад": 1807,
      "пишат": 1808,
      "боле": 1809,
      "кът": 1810,
      "стъп": 1811,
      "ази": 1812,
      "маги": 1813,
      "духа": 1814,
      "можеш": 1815,
      "цигани": 1816,
      "получи": 1817,
      "наркоман": 1818,
      "к!": 1819,
      "заедно": 1820,
      "пара": 1821,
      "жалки": 1822,
      "краката": 1823,
      "ския": 1824,
      "остава": 1825,
      "снимки": 1826,
      "достатъ": 1827,
      "въпрос": 1828,
      "дале": 1829,
      "покаже": 1830,
      "бул": 1831,
      "поредната": 1832,
      "килогра": 1833,
      "дойде": 1834,
      "пенси": 1835,
      "пожелавам": 1836,
      "постоян": 1837,
      "гд": 1838,
      "хри": 1839,
      "бе.": 1840,
      "ло.": 1841,
      "хайде": 1842,
      "селска": 1843,
      "идиот": 1844,
      "рак": 1845,
      "маз": 1846,
      "обръ": 1847,
      "бъдете": 1848,
      "човек,": 1849,
      "рта": 1850,
      "смо": 1851,
      "цър": 1852,
      "стан": 1853,
      "страхот": 1854,
      "г/": 1855,
      "ефи": 1856,
      "ов": 1857,
      "чка,": 1858,
      "вале": 1859,
      "коко": 1860,
      "изкара": 1861,
      "акъл": 1862,
      "педера": 1863,
      "авто": 1864,
      "вин": 1865,
      "ление": 1866,
      "същ": 1867,
      "30": 1868,
      "дол": 1869,
      "стия": 1870,
      "гледат": 1871,
      "хахаха": 1872,
      "ктор": 1873,
      "води": 1874,
      "някаква": 1875,
      "човека": 1876,
      "бях": 1877,
      "бяга": 1878,
      "хттп://цоронaвиру": 1879,
      "начин": 1880,
      "хттп://цоронaвирус.ети.пв": 1881,
      "баби": 1882,
      "виждам": 1883,
      "ете": 1884,
      "опа": 1885,
      "спря": 1886,
      "научи": 1887,
      "нен": 1888,
      "брат": 1889,
      "шия": 1890,
      "трябваше": 1891,
      "човек.": 1892,
      "травести": 1893,
      "вв": 1894,
      "сеща": 1895,
      "изго": 1896,
      "къщи": 1897,
      "----": 1898,
      "%д0%": 1899,
      "пош": 1900,
      "море": 1901,
      "пари,": 1902,
      "курви": 1903,
      "то!": 1904,
      "кали": 1905,
      "жение": 1906,
      "сложи": 1907,
      "образова": 1908,
      "бг.": 1909,
      "ели": 1910,
      "помисли": 1911,
      "гадже": 1912,
      "стари": 1913,
      "ииии": 1914,
      "тръг": 1915,
      "сните": 1916,
      "болни": 1917,
      "хора.": 1918,
      "близ": 1919,
      "джен": 1920,
      "бват": 1921,
      "сват": 1922,
      "маха": 1923,
      "според": 1924,
      "важно": 1925,
      "професи": 1926,
      "заглавие": 1927,
      ":))": 1928,
      "смър": 1929,
      "ваня": 1930,
      "ствен": 1931,
      "лъже": 1932,
      "водещ": 1933,
      "поле": 1934,
      "работа.": 1935,
      "участници": 1936,
      "получа": 1937,
      "вакси": 1938,
      "рай": 1939,
      "селян": 1940,
      "см": 1941,
      "забе": 1942,
      "рял": 1943,
      "опитай": 1944,
      "кс": 1945,
      "лан": 1946,
      "пие": 1947,
      "млада": 1948,
      "завистли": 1949,
      "конце": 1950,
      "видим": 1951,
      "победите": 1952,
      "опера": 1953,
      "неграмот": 1954,
      "пори": 1955,
      "помага": 1956,
      "гото": 1957,
      "нямам": 1958,
      "пука": 1959,
      "отиде": 1960,
      "200": 1961,
      "дка": 1962,
      "егати": 1963,
      "цяла": 1964,
      "полити": 1965,
      "интелигент": 1966,
      "еди": 1967,
      "лта": 1968,
      "нача": 1969,
      "нет": 1970,
      "носи": 1971,
      "йски": 1972,
      "винов": 1973,
      "това.": 1974,
      "стои": 1975,
      "кaто": 1976,
      "казал": 1977,
      "успя": 1978,
      "ла!": 1979,
      "лесно": 1980,
      "дие": 1981,
      "стават": 1982,
      "разуме": 1983,
      "ау": 1984,
      "дли": 1985,
      "ебе": 1986,
      "мна": 1987,
      "ц.": 1988,
      "отър": 1989,
      "интри": 1990,
      "снима": 1991,
      "обижда": 1992,
      "циган": 1993,
      "хттп://бит.лъ/2": 1994,
      "игри": 1995,
      "огро": 1996,
      "шката": 1997,
      "новина": 1998,
      "важното": 1999,
      "бло": 2000,
      "д,": 2001,
      "кни": 2002,
      "оце": 2003,
      "свърши": 2004,
      "готи": 2005,
      "вика": 2006,
      "тури": 2007,
      "чуде": 2008,
      "чудо": 2009,
      "чудя": 2010,
      "умре": 2011,
      "отново": 2012,
      "подобни": 2013,
      "нс": 2014,
      "тату": 2015,
      "поди": 2016,
      "рок": 2017,
      "разбере": 2018,
      "красо": 2019,
      "ник.": 2020,
      "живеят": 2021,
      "миризли": 2022,
      "софия": 2023,
      "елемента": 2024,
      "б.": 2025,
      "жъл": 2026,
      "нсо": 2027,
      "свър": 2028,
      "рява": 2029,
      "дума": 2030,
      "души": 2031,
      "мъжа": 2032,
      "случай": 2033,
      "фънки": 2034,
      "вероятно": 2035,
      "същност": 2036,
      "ввв.": 2037,
      ",и": 2038,
      "навсякъде": 2039,
      "кия": 2040,
      "стър": 2041,
      "вул": 2042,
      "уууу": 2043,
      "милионе": 2044,
      "иван": 2045,
      "постоянно": 2046,
      "измисле": 2047,
      "смени": 2048,
      "остана": 2049,
      "фан": 2050,
      "българия.": 2051,
      "отврат": 2052,
      "отноше": 2053,
      "обикнове": 2054,
      "ори": 2055,
      "намира": 2056,
      "някъде": 2057,
      "искат": 2058,
      "почти": 2059,
      "спрете": 2060,
      "актриса": 2061,
      "задни": 2062,
      "вода": 2063,
      "ми,": 2064,
      "нява": 2065,
      "причи": 2066,
      "туа": 2067,
      "глас": 2068,
      "интелек": 2069,
      "ция.": 2070,
      "циганин": 2071,
      "ствени": 2072,
      "свето": 2073,
      "история": 2074,
      "вче": 2075,
      "марти": 2076,
      "отво": 2077,
      "трябват": 2078,
      "хей": 2079,
      "обаче": 2080,
      "уни": 2081,
      "шни": 2082,
      "пет": 2083,
      "гледаме": 2084,
      "иг": 2085,
      "ими": 2086,
      "р!": 2087,
      "лет": 2088,
      "леле": 2089,
      "меч": 2090,
      "кура": 2091,
      "години.": 2092,
      "изче": 2093,
      "хем": 2094,
      "пят": 2095,
      "цъ": 2096,
      "пич": 2097,
      "писна": 2098,
      "права": 2099,
      "правилно": 2100,
      "бъди": 2101,
      "евге": 2102,
      "недоразуме": 2103,
      "наме": 2104,
      "тото": 2105,
      "лище": 2106,
      "посред": 2107,
      "дели": 2108,
      "стре": 2109,
      "ват,": 2110,
      "шиба": 2111,
      "взема": 2112,
      "ъоу": 2113,
      "лните": 2114,
      "олиго": 2115,
      "пка": 2116,
      "пове": 2117,
      "чев": 2118,
      "долни": 2119,
      "много,": 2120,
      "кува": 2121,
      "ната.": 2122,
      "соф": 2123,
      "подкре": 2124,
      "проститут": 2125,
      "бри": 2126,
      "вну": 2127,
      "е...": 2128,
      "кю": 2129,
      "режи": 2130,
      "стигне": 2131,
      "сметка": 2132,
      "кеф": 2133,
      "бъдат": 2134,
      "вергов": 2135,
      "приятел": 2136,
      "нави": 2137,
      "теа": 2138,
      "живя": 2139,
      "по-добре": 2140,
      "хич": 2141,
      "цялата": 2142,
      "\"!": 2143,
      "15": 2144,
      "з.": 2145,
      "хти": 2146,
      "рам": 2147,
      "българите": 2148,
      "случи": 2149,
      "грим": 2150,
      "простотията": 2151,
      "благода": 2152,
      "обръща": 2153,
      "лв": 2154,
      "наи": 2155,
      "напълно": 2156,
      "помия": 2157,
      "реди": 2158,
      "гер": 2159,
      "вярвам": 2160,
      "сму": 2161,
      "наде": 2162,
      "тари": 2163,
      "лица": 2164,
      "мени": 2165,
      "вой": 2166,
      "долно": 2167,
      "логи": 2168,
      "изви": 2169,
      "ната,": 2170,
      "физионо": 2171,
      "огра": 2172,
      "рката": 2173,
      "бебе": 2174,
      "съвсе": 2175,
      "ръце": 2176,
      "щия": 2177,
      "чалгаджи": 2178,
      "н!": 2179,
      "умен": 2180,
      "хване": 2181,
      "ш/": 2182,
      "кажи": 2183,
      "престане": 2184,
      "путката": 2185,
      "искаш": 2186,
      "ч0": 2187,
      "сашко": 2188,
      "пиш": 2189,
      "призна": 2190,
      "няма.": 2191,
      "чука": 2192,
      "чуди": 2193,
      "знаете": 2194,
      "достатъчно": 2195,
      "идва": 2196,
      "нд": 2197,
      "йо": 2198,
      "че.": 2199,
      "рови": 2200,
      "дон": 2201,
      "педа": 2202,
      "вку": 2203,
      "очите": 2204,
      "тени": 2205,
      "рез": 2206,
      "сама": 2207,
      "миш": 2208,
      "дет": 2209,
      "дена": 2210,
      "ци!": 2211,
      "сти.": 2212,
      "мутра": 2213,
      "шоуто": 2214,
      "опит": 2215,
      "хттпс://бит.лъ/2в": 2216,
      "бизнес": 2217,
      "съвсем": 2218,
      "всъщност": 2219,
      "нг": 2220,
      "вала": 2221,
      "теж": 2222,
      "нена": 2223,
      "леко": 2224,
      "отгово": 2225,
      "сът": 2226,
      "целу": 2227,
      "подхо": 2228,
      "света": 2229,
      "нещаст": 2230,
      "лицето": 2231,
      "кроко": 2232,
      "нагласе": 2233,
      "карие": 2234,
      "азис": 2235,
      "подигра": 2236,
      "/ш": 2237,
      "вля": 2238,
      "тан": 2239,
      "мате": 2240,
      "тиите": 2241,
      "сино": 2242,
      "га.": 2243,
      "?!?": 2244,
      "браво,": 2245,
      "бърка": 2246,
      "прекрасна": 2247,
      "силико": 2248,
      "абсолютно": 2249,
      "пода": 2250,
      "виa": 2251,
      "ром": 2252,
      "сашо": 2253,
      "питам": 2254,
      "страда": 2255,
      "повечето": 2256,
      "хареса": 2257,
      "сигурност": 2258,
      "7г": 2259,
      "кру": 2260,
      "паля": 2261,
      "така.": 2262,
      "имa": 2263,
      "вaт": 2264,
      "глория": 2265,
      "артист": 2266,
      "ниво": 2267,
      "кола": 2268,
      "чени": 2269,
      "отре": 2270,
      "занимава": 2271,
      "противен": 2272,
      "видях": 2273,
      "известна": 2274,
      "симпати": 2275,
      "урл=": 2276,
      "урлщ": 2277,
      "**": 2278,
      "шурл=": 2279,
      "….": 2280,
      "варя": 2281,
      "никаква": 2282,
      "мале": 2283,
      "лич": 2284,
      "поя": 2285,
      "ве.": 2286,
      "мера": 2287,
      "знаеш": 2288,
      "четата": 2289,
      "дреб": 2290,
      "отива": 2291,
      "звезди": 2292,
      "погледне": 2293,
      "ивай": 2294,
      "уба": 2295,
      "х7г": 2296,
      "тех": 2297,
      "ве,": 2298,
      "избра": 2299,
      "издържа": 2300,
      "част": 2301,
      "ките.": 2302,
      "мръсни": 2303,
      "играе": 2304,
      "отвратително": 2305,
      "излезе": 2306,
      "гдх7г": 2307,
      "хттпс://бит.лъ/2вгдх7г": 2308,
      "крa": 2309,
      "нство": 2310,
      "пх": 2311,
      "пала": 2312,
      "ложи": 2313,
      "шеф": 2314,
      "грозо": 2315,
      "т.н.": 2316,
      "млад": 2317,
      "звезда": 2318,
      "aмa": 2319,
      "мни": 2320,
      "ваше": 2321,
      "лекар": 2322,
      "дома": 2323,
      "пробва": 2324,
      "чита": 2325,
      "фей": 2326,
      "мислят": 2327,
      "завинаги": 2328,
      "крайно": 2329,
      "семейството": 2330,
      "усми": 2331,
      "амери": 2332,
      "готва": 2333,
      "мини": 2334,
      "стигa": 2335,
      "дур": 2336,
      "тъй": 2337,
      "гъз": 2338,
      "продук": 2339,
      "осъ": 2340,
      "нар": 2341,
      "сет": 2342,
      "вена": 2343,
      "мир": 2344,
      "долна": 2345,
      "разпоре": 2346,
      "тaя": 2347,
      "ниците": 2348,
      "радвам": 2349,
      "влю": 2350,
      "утре": 2351,
      "сига": 2352,
      "лета": 2353,
      "ване.": 2354,
      "казват": 2355,
      "завист": 2356,
      "сценари": 2357,
      "журналисти": 2358,
      "липсва": 2359,
      "седми": 2360,
      "ам": 2361,
      "обе": 2362,
      "рова": 2363,
      "кинти": 2364,
      "става.": 2365,
      "мяза": 2366,
      "първи": 2367,
      "свиня": 2368,
      "помогне": 2369,
      "зрителите": 2370,
      "пхп": 2371,
      "днъ": 2372,
      "кому": 2373,
      "минди": 2374,
      "някакви": 2375,
      "бия": 2376,
      "съд": 2377,
      "...и": 2378,
      "така,": 2379,
      "остане": 2380,
      "мъж,": 2381,
      "умна": 2382,
      "късмета": 2383,
      "отслаб": 2384,
      "фермата": 2385,
      ".а": 2386,
      "блъ": 2387,
      "огледа": 2388,
      "пли": 2389,
      "типи": 2390,
      "вене": 2391,
      "излиза": 2392,
      "пиян": 2393,
      "върне": 2394,
      "върти": 2395,
      "мaй": 2396,
      "гнус": 2397,
      "идиоти": 2398,
      ".не": 2399,
      "неу": 2400,
      "някога": 2401,
      "пут": 2402,
      "нея,": 2403,
      "вземат": 2404,
      "цялото": 2405,
      "нормални": 2406,
      "собстве": 2407,
      "татуи": 2408,
      "брa": 2409,
      "мъл": 2410,
      "удари": 2411,
      "кан": 2412,
      "каче": 2413,
      "малка": 2414,
      "запла": 2415,
      "гата": 2416,
      "дил": 2417,
      "докога": 2418,
      "баси": 2419,
      "къща": 2420,
      "циганска": 2421,
      "младите": 2422,
      "проститутка": 2423,
      "щастливи": 2424,
      "дрис": 2425,
      "месец": 2426,
      "али": 2427,
      "защи": 2428,
      "рени": 2429,
      "деля": 2430,
      "куха": 2431,
      "мент": 2432,
      "правиш": 2433,
      "орги": 2434,
      "хиля": 2435,
      "дреме": 2436,
      "визия": 2437,
      "известен": 2438,
      "късмет": 2439,
      "драз": 2440,
      "м!": 2441,
      "фa": 2442,
      "не!": 2443,
      "номер": 2444,
      "!!!!!!": 2445,
      "красиво": 2446,
      "снимките": 2447,
      "трудно": 2448,
      "свобо": 2449,
      "ш/урлщ": 2450,
      "нда": 2451,
      "радо": 2452,
      "ли!": 2453,
      "виде": 2454,
      "стя": 2455,
      "доказа": 2456,
      "някакъв": 2457,
      "фина": 2458,
      "върна": 2459,
      "върви": 2460,
      "ция,": 2461,
      "психо": 2462,
      "престанете": 2463,
      "днъж": 2464,
      "жни": 2465,
      "награ": 2466,
      "кака": 2467,
      "ме.": 2468,
      "падне": 2469,
      "ник,": 2470,
      "гнусен": 2471,
      "участва": 2472,
      "помни": 2473,
      "продължава": 2474,
      "предавания": 2475,
      "валерия": 2476,
      "палячо": 2477,
      "вдо": 2478,
      "ел": 2479,
      "емо": 2480,
      "нчо": 2481,
      "рана": 2482,
      "вод": 2483,
      "чисто": 2484,
      "значение": 2485,
      "противна": 2486,
      "другото": 2487,
      "ужасно": 2488,
      "вижте": 2489,
      "г-": 2490,
      "кал": 2491,
      "моя": 2492,
      "стиг": 2493,
      "тък": 2494,
      "кaтa": 2495,
      "злобе": 2496,
      "циганка": 2497,
      "фол": 2498,
      "абе,": 2499,
      "познавам": 2500,
      "оная": 2501,
      "родителите": 2502,
      "оф": 2503,
      "умно": 2504,
      "товa": 2505,
      "нения": 2506,
      "мац": 2507,
      "гар": 2508,
      "дими": 2509,
      "бина": 2510,
      "стар": 2511,
      "пева": 2512,
      "присъ": 2513,
      "ните.": 2514,
      "върху": 2515,
      "дълго": 2516,
      "бг/": 2517,
      "поп": 2518,
      "реше": 2519,
      "мила": 2520,
      "къса": 2521,
      "пласти": 2522,
      "търпи": 2523,
      "джия": 2524,
      "тях.": 2525,
      "полови": 2526,
      "психи": 2527,
      "разлика": 2528,
      "вдига": 2529,
      "виaгрa": 2530,
      "наред": 2531,
      "те!": 2532,
      "нощ": 2533,
      "принце": 2534,
      "тяло": 2535,
      "тът": 2536,
      "рите.": 2537,
      "сутри": 2538,
      "времен": 2539,
      "телевизията": 2540,
      "високо": 2541,
      "18": 2542,
      "пките": 2543,
      "во.": 2544,
      "певи": 2545,
      "печат": 2546,
      "хап": 2547,
      "му,": 2548,
      "късно": 2549,
      "прите": 2550,
      "приказ": 2551,
      "вътре": 2552,
      "лът": 2553,
      "хората.": 2554,
      "гуще": 2555,
      "оставете": 2556,
      "спеця": 2557,
      "красиви": 2558,
      "другия": 2559,
      "мозък": 2560,
      "%д0%б": 2561,
      "знa": 2562,
      "но!": 2563,
      "поста": 2564,
      "гант": 2565,
      "можа": 2566,
      "лук": 2567,
      "стефан": 2568,
      "пусне": 2569,
      "вечер": 2570,
      "иванова": 2571,
      "полз": 2572,
      "парцал": 2573,
      "сериозно": 2574,
      "влиза": 2575,
      "дама": 2576,
      "нение": 2577,
      "зата": 2578,
      "гащи": 2579,
      "дедо": 2580,
      "претен": 2581,
      "ше,": 2582,
      "инди": 2583,
      "там.": 2584,
      "направила": 2585,
      "сaмо": 2586,
      "бащата": 2587,
      "разбрах": 2588,
      "зма": 2589,
      "реве": 2590,
      "роля": 2591,
      "киро": 2592,
      "паза": 2593,
      "боя": 2594,
      "жават": 2595,
      "куче": 2596,
      "боже,": 2597,
      "скро": 2598,
      "тят": 2599,
      "рано": 2600,
      "серя": 2601,
      "ди.": 2602,
      "долен": 2603,
      "сти,": 2604,
      "разбе": 2605,
      "трябвало": 2606,
      "сваля": 2607,
      "злобата": 2608,
      "хваща": 2609,
      "големите": 2610,
      "другата": 2611,
      "сезон": 2612,
      "задника": 2613,
      "тек": 2614,
      "прека": 2615,
      "куро": 2616,
      "целия": 2617,
      "тука": 2618,
      "хубав": 2619,
      "знаем": 2620,
      "вземи": 2621,
      "еее": 2622,
      "държавата": 2623,
      "всяко": 2624,
      "отвратителна": 2625,
      "представя": 2626,
      "жна": 2627,
      "мн": 2628,
      "ч,": 2629,
      "тея": 2630,
      "тебе": 2631,
      "новата": 2632,
      "пома": 2633,
      "извра": 2634,
      "жалка": 2635,
      "мъж.": 2636,
      "бремен": 2637,
      "алекс": 2638,
      "акъ": 2639,
      "ври": 2640,
      "кне": 2641,
      "наси": 2642,
      "тота": 2643,
      "викто": 2644,
      "виновен": 2645,
      "често": 2646,
      "лека": 2647,
      "бена": 2648,
      "същата": 2649,
      "ните,": 2650,
      "рите,": 2651,
      "евти": 2652,
      "гнусна": 2653,
      "смях": 2654,
      "хвърля": 2655,
      "създа": 2656,
      "зни": 2657,
      "пля": 2658,
      "непре": 2659,
      "изли": 2660,
      "използва": 2661,
      "дъртата": 2662,
      "гласу": 2663,
      "обичам": 2664,
      "мястото": 2665,
      "силикон": 2666,
      "бойко": 2667,
      "възможно": 2668,
      ":д": 2669,
      "аре": 2670,
      "рд": 2671,
      "с!": 2672,
      "никакъв": 2673,
      "коре": 2674,
      "гола": 2675,
      "пира": 2676,
      "въпре": 2677,
      "страшно": 2678,
      "фек": 2679,
      "години,": 2680,
      "ооо": 2681,
      "чки,": 2682,
      "гнусни": 2683,
      "гърба": 2684,
      "плей": 2685,
      "богат": 2686,
      "фут": 2687,
      "12": 2688,
      "впечат": 2689,
      "мм": 2690,
      "се.": 2691,
      "мило": 2692,
      "демо": 2693,
      "харак": 2694,
      "човече": 2695,
      "обу": 2696,
      "единстве": 2697,
      "работа,": 2698,
      "гъзо": 2699,
      "камелия": 2700,
      ",като": 2701,
      "лв.": 2702,
      "ньо": 2703,
      "наци": 2704,
      "карти": 2705,
      "нец": 2706,
      "ниско": 2707,
      "пор": 2708,
      "тип": 2709,
      "рира": 2710,
      "вежда": 2711,
      "ст!": 2712,
      "лова": 2713,
      "бол": 2714,
      "гите": 2715,
      "купу": 2716,
      "рът": 2717,
      "путка": 2718,
      "град": 2719,
      "спокой": 2720,
      "зъби": 2721,
      "ницата": 2722,
      "актьо": 2723,
      "зуе": 2724,
      "съжаление": 2725,
      "струва": 2726,
      ".да": 2727,
      "ш!": 2728,
      "нати": 2729,
      "напъл": 2730,
      "ваме": 2731,
      "ники": 2732,
      "зако": 2733,
      "прода": 2734,
      "ство,": 2735,
      "бут": 2736,
      "нещо,": 2737,
      "зависимо": 2738,
      "свирки": 2739,
      "милио": 2740,
      "aл": 2741,
      "ад": 2742,
      "с-": 2743,
      "кани": 2744,
      "незнам": 2745,
      "рев": 2746,
      "рей": 2747,
      "изкар": 2748,
      "жал": 2749,
      "руски": 2750,
      "направил": 2751,
      "сърце": 2752,
      "разбирам": 2753,
      "помня": 2754,
      "народа": 2755,
      "взима": 2756,
      "тю": 2757,
      "уро": 2758,
      "данъ": 2759,
      "рица": 2760,
      "мена": 2761,
      "събра": 2762,
      "щастие": 2763,
      "дви": 2764,
      "ей,": 2765,
      "нк": 2766,
      "опъ": 2767,
      "опла": 2768,
      "ш0": 2769,
      "пожа": 2770,
      "вет": 2771,
      "пат": 2772,
      "дърт": 2773,
      "драска": 2774,
      "слав": 2775,
      "гнусно": 2776,
      "нормален": 2777,
      "момиче,": 2778,
      "плащат": 2779,
      "кръч": 2780,
      "останалите": 2781,
      ".и": 2782,
      "aт": 2783,
      "вклю": 2784,
      "гно": 2785,
      "гад": 2786,
      "во,": 2787,
      "шето": 2788,
      "куку": 2789,
      "ръка": 2790,
      "рядко": 2791,
      "сов": 2792,
      "щина": 2793,
      "ките,": 2794,
      "сексу": 2795,
      "плюе": 2796,
      "кифла": 2797,
      "малкия": 2798,
      "излъч": 2799,
      "джендър": 2800,
      "зд": 2801,
      "обо": 2802,
      "нама": 2803,
      "повръща": 2804,
      "веднъж": 2805,
      "гани": 2806,
      "мой": 2807,
      "цици": 2808,
      "петя": 2809,
      "ние!": 2810,
      "душа": 2811,
      "гледайте": 2812,
      "фак": 2813,
      "ници.": 2814,
      "цигански": 2815,
      "малкото": 2816,
      "браво!": 2817,
      "хахахаха": 2818,
      "продуцен": 2819,
      "елена": 2820,
      "връзка": 2821,
      "андрей": 2822,
      "алкохоли": 2823,
      "забеле": 2824,
      "кр": 2825,
      "тат": 2826,
      "корек": 2827,
      "мачка": 2828,
      "ческа": 2829,
      "лег": 2830,
      "вери": 2831,
      "сами": 2832,
      "баджа": 2833,
      "ха-": 2834,
      "ят.": 2835,
      "прили": 2836,
      "стора": 2837,
      "цент": 2838,
      "брадър": 2839,
      "тите.": 2840,
      "чалгата": 2841,
      "ясно,": 2842,
      "смота": 2843,
      "страхотна": 2844,
      "зву": 2845,
      "нге": 2846,
      "рр": 2847,
      "вар": 2848,
      "тез": 2849,
      "разви": 2850,
      "пус": 2851,
      "фики": 2852,
      "толкоз": 2853,
      "предлага": 2854,
      "фами": 2855,
      "срав": 2856,
      "ците.": 2857,
      "новини": 2858,
      "големия": 2859,
      "ара": 2860,
      "смисле": 2861,
      "вади": 2862,
      "коли": 2863,
      "заряза": 2864,
      "тие": 2865,
      "чена": 2866,
      "мину": 2867,
      "дис": 2868,
      "бели": 2869,
      "съгла": 2870,
      "земя": 2871,
      "георги": 2872,
      "интерес": 2873,
      "злобна": 2874,
      "нейните": 2875,
      "среща": 2876,
      "харесват": 2877,
      "същест": 2878,
      "дръж": 2879,
      "педераст": 2880,
      "виктория": 2881,
      "въпреки": 2882,
      "умира": 2883,
      "хх": 2884,
      "нагло": 2885,
      "кор": 2886,
      "готина": 2887,
      "са!": 2888,
      "дер": 2889,
      "дирек": 2890,
      "нята": 2891,
      "бара": 2892,
      "ляга": 2893,
      "ство.": 2894,
      "българия,": 2895,
      "20-": 2896,
      "спаси": 2897,
      "спира": 2898,
      "велик": 2899,
      "алексан": 2900,
      "пошло": 2901,
      "%ц": 2902,
      "гю": 2903,
      "мраз": 2904,
      "ут": 2905,
      "нора": 2906,
      "загу": 2907,
      "завърши": 2908,
      "вис": 2909,
      "откъде": 2910,
      "биг": 2911,
      "програ": 2912,
      "продава": 2913,
      "чиста": 2914,
      "тaкa": 2915,
      "жени,": 2916,
      "занимавайте": 2917,
      "българска": 2918,
      "понеже": 2919,
      "хвали": 2920,
      "глупави": 2921,
      "филм": 2922,
      "блу": 2923,
      "слъ": 2924,
      "отколкото": 2925,
      "миси": 2926,
      "миро": 2927,
      "прасе": 2928,
      "гина": 2929,
      "нямате": 2930,
      "зер": 2931,
      "предаване.": 2932,
      "секса": 2933,
      "известни": 2934,
      "статията": 2935,
      "съжаля": 2936,
      "същия": 2937,
      "его": 2938,
      "тс": 2939,
      "поколе": 2940,
      "сина": 2941,
      "резу": 2942,
      "рии": 2943,
      "дент": 2944,
      "моме": 2945,
      "късна": 2946,
      "краде": 2947,
      "пръд": 2948,
      "коментар": 2949,
      "обичат": 2950,
      "грозна,": 2951,
      "видиш": 2952,
      "нарича": 2953,
      "затвора": 2954,
      "рейтин": 2955,
      "-не": 2956,
      "иa": 2957,
      "ине": 2958,
      "озна": 2959,
      "очак": 2960,
      "оправя": 2961,
      "каш": 2962,
      "тена": 2963,
      "носа": 2964,
      "чева": 2965,
      "отка": 2966,
      "вол": 2967,
      "ба,": 2968,
      "имате": 2969,
      "приро": 2970,
      "правите": 2971,
      "добре.": 2972,
      "?!?!": 2973,
      "артисти": 2974,
      "далеч": 2975,
      "надежда": 2976,
      "псе": 2977,
      "никакви": 2978,
      "меня": 2979,
      "зите": 2980,
      "изри": 2981,
      "баш": 2982,
      "прет": 2983,
      "информа": 2984,
      "шар": 2985,
      "буъ": 2986,
      "страхо": 2987,
      "него,": 2988,
      "парта": 2989,
      "дълги": 2990,
      "анге": 2991,
      "участи": 2992,
      "втори": 2993,
      "клон": 2994,
      "позво": 2995,
      "харчи": 2996,
      "евгени": 2997,
      "гни": 2998,
      "ной": 2999,
      "лине": 3000,
      "мил": 3001,
      "измисли": 3002,
      "имало": 3003,
      "гради": 3004,
      "спонсо": 3005,
      "блит": 3006,
      "жена!": 3007,
      "крие": 3008,
      "деца.": 3009,
      "първа": 3010,
      "глупости.": 3011,
      "черве": 3012,
      "крайна": 3013,
      "тъпите": 3014,
      "забравя": 3015,
      "!!!!!!!!!!!!!!!!": 3016,
      "ом": 3017,
      "тв.": 3018,
      "надя": 3019,
      "тория": 3020,
      "дайте": 3021,
      "ко,": 3022,
      "пов": 3023,
      "пое": 3024,
      "рение": 3025,
      "лош": 3026,
      "извън": 3027,
      "ба.": 3028,
      "гене": 3029,
      "вява": 3030,
      "курвен": 3031,
      "каквато": 3032,
      "злато": 3033,
      "недоразумение": 3034,
      "фамилия": 3035,
      "\"?": 3036,
      ",ама": 3037,
      ",които": 3038,
      "нос": 3039,
      "мати": 3040,
      "завър": 3041,
      "сер": 3042,
      "тири": 3043,
      "лей": 3044,
      "весе": 3045,
      "верно": 3046,
      "отгоре": 3047,
      "доха": 3048,
      "пил": 3049,
      "прин": 3050,
      "чалгаро": 3051,
      "истин": 3052,
      "красива,": 3053,
      "днес": 3054,
      "говорим": 3055,
      "същото": 3056,
      "отвратителен": 3057,
      "месеца": 3058,
      "анти": 3059,
      "кват": 3060,
      "осигу": 3061,
      "плу": 3062,
      "тиa": 3063,
      "ри!": 3064,
      "пане": 3065,
      "изо": 3066,
      "проче": 3067,
      "муцу": 3068,
      "луда": 3069,
      "можете": 3070,
      "лно.": 3071,
      "казано": 3072,
      "интересни": 3073,
      "прекрасно": 3074,
      "довол": 3075,
      "подходя": 3076,
      "ивайло": 3077,
      ").": 3078,
      ",на": 3079,
      "нчето": 3080,
      "плa": 3081,
      "тьо": 3082,
      "татко": 3083,
      "независимо": 3084,
      "кожа": 3085,
      "маря": 3086,
      "рете": 3087,
      "сала": 3088,
      "самата": 3089,
      "пад": 3090,
      "пата": 3091,
      "става,": 3092,
      "проте": 3093,
      "печели": 3094,
      "събира": 3095,
      "праска": 3096,
      "ходят": 3097,
      "?????": 3098,
      "искате": 3099,
      "годишна": 3100,
      "дъното": 3101,
      "мъжът": 3102,
      "''.": 3103,
      "минава": 3104,
      "проблеми": 3105,
      "евала": 3106,
      "пускат": 3107,
      "еб": 3108,
      "масо": 3109,
      "зин": 3110,
      "ряла": 3111,
      "менти": 3112,
      "тъгу": 3113,
      "персо": 3114,
      "ността": 3115,
      "онзи": 3116,
      "водеща": 3117,
      "армен": 3118,
      ";)": 3119,
      "зя": 3120,
      "рски": 3121,
      "сква": 3122,
      "тлъ": 3123,
      "яка": 3124,
      "зани": 3125,
      "подо": 3126,
      "откра": 3127,
      "мията": 3128,
      "момента": 3129,
      "стани": 3130,
      "дяна": 3131,
      "годините": 3132,
      "нищо.": 3133,
      "дете.": 3134,
      "голем": 3135,
      "тъпото": 3136,
      "второ": 3137,
      "поредния": 3138,
      "мирише": 3139,
      "барне": 3140,
      "фотошоп": 3141,
      "долнопро": 3142,
      "ало": 3143,
      "н-": 3144,
      "о,": 3145,
      "френ": 3146,
      "нашите": 3147,
      "дала": 3148,
      "вио": 3149,
      "лес": 3150,
      "минима": 3151,
      "правила": 3152,
      "шава": 3153,
      "ферови": 3154,
      "глупак": 3155,
      "ници,": 3156,
      "момичета": 3157,
      "секси": 3158,
      "греш": 3159,
      "медиите": 3160,
      "пачавра": 3161,
      "позор": 3162,
      "мамин": 3163,
      "христо": 3164,
      ":))))": 3165,
      "олигофре": 3166,
      "непрекъсна": 3167,
      "80": 3168,
      "ожени": 3169,
      "тне": 3170,
      "уру": 3171,
      "на?": 3172,
      "напра": 3173,
      "кафе": 3174,
      "рал": 3175,
      "коте": 3176,
      "лива": 3177,
      "виктор": 3178,
      "чере": 3179,
      "бе!": 3180,
      "лон": 3181,
      "бая": 3182,
      "мур": 3183,
      "мноо": 3184,
      "нaтa": 3185,
      "лното": 3186,
      "простаке": 3187,
      "ченце": 3188,
      "селянка": 3189,
      "водещи": 3190,
      "чалгаропите": 3191,
      "aпи": 3192,
      "вю": 3193,
      "дам": 3194,
      "пора": 3195,
      "рил": 3196,
      "вечно": 3197,
      "га,": 3198,
      "мор": 3199,
      "бер": 3200,
      "съди": 3201,
      "прие": 3202,
      "бран": 3203,
      "безпла": 3204,
      "гледах": 3205,
      "единствено": 3206,
      "търсят": 3207,
      "мислите": 3208,
      "дълбо": 3209,
      "успехи": 3210,
      "ции.": 3211,
      "проблем": 3212,
      "завистливи": 3213,
      "грозотия": 3214,
      "димитро": 3215,
      "-20-": 3216,
      "ид": 3217,
      "изи": 3218,
      "мг/": 3219,
      "стова": 3220,
      "скa": 3221,
      "трите": 3222,
      "ц,": 3223,
      "качи": 3224,
      "нор": 3225,
      "редо": 3226,
      "вит": 3227,
      "дев": 3228,
      "дел": 3229,
      "пал": 3230,
      "няк": 3231,
      "избира": 3232,
      "има.": 3233,
      "знай": 3234,
      "дърти": 3235,
      "безда": 3236,
      "карат": 3237,
      "хттп://тхе": 3238,
      "г.цом/": 3239,
      "участ": 3240,
      "отвратителни": 3241,
      "дейст": 3242,
      "естестве": 3243,
      "преднисоне-20-": 3244,
      "изпълните": 3245,
      "поведение": 3246,
      "честито": 3247,
      "жури": 3248,
      "инеaпи": 3249,
      "псевдо": 3250,
      "преттъгу": 3251,
      "хттп://тхепреттъгу": 3252,
      "г.цом/преднисоне-20-": 3253,
      "инеaпиг.цом/преднисоне-20-": 3254,
      "хттп://тхепреттъгуинеaпиг.цом/преднисоне-20-": 3255,
      "хттп://тхепреттъгуинеaпиг.цом/преднисоне-20-мг/": 3256,
      "апарта": 3257,
      "упра": 3258,
      "урод": 3259,
      "хля": 3260,
      "направят": 3261,
      "вашите": 3262,
      "кото": 3263,
      "рези": 3264,
      "дош": 3265,
      "бе?": 3266,
      "бед": 3267,
      "лоша": 3268,
      "ръга": 3269,
      "нямаш": 3270,
      "ход": 3271,
      "говорят": 3272,
      "интересуват": 3273,
      "рекламира": 3274,
      "училище": 3275,
      "проститутки": 3276,
      "джуки": 3277,
      "магаре": 3278,
      "различни": 3279,
      "хвърли": 3280,
      "реали": 3281,
      "интервю": 3282,
      "език": 3283,
      "нойзи": 3284,
      "нката": 3285,
      "рче": 3286,
      "чните": 3287,
      "шните": 3288,
      "кана": 3289,
      "никакво": 3290,
      "коса": 3291,
      "кобра": 3292,
      "ковид": 3293,
      "мастия": 3294,
      "тий": 3295,
      "гол": 3296,
      "сал": 3297,
      "моти": 3298,
      "бана": 3299,
      "статии": 3300,
      "знам,": 3301,
      "обле": 3302,
      "гери": 3303,
      "хора!": 3304,
      "хората,": 3305,
      "ферма": 3306,
      "ааа": 3307,
      "човек!": 3308,
      "зъм": 3309,
      "занимават": 3310,
      "госпожа": 3311,
      "комуни": 3312,
      "ол": 3313,
      "уст": 3314,
      "укра": 3315,
      "употре": 3316,
      "ъъ": 3317,
      "кади": 3318,
      "капита": 3319,
      "капките": 3320,
      "нета": 3321,
      "сестра": 3322,
      "покрити": 3323,
      "голо": 3324,
      "мек": 3325,
      "ня.": 3326,
      "песните": 3327,
      "луд": 3328,
      "соця": 3329,
      "ния!": 3330,
      "чо,": 3331,
      "ване,": 3332,
      "там,": 3333,
      "чки.": 3334,
      "работата": 3335,
      "горката": 3336,
      "журналист": 3337,
      "малката": 3338,
      "любим": 3339,
      "ганьо": 3340,
      "дупето": 3341,
      "подкрепя": 3342,
      "aa": 3343,
      "зор": 3344,
      "флу": 3345,
      "никого": 3346,
      "мана": 3347,
      "ти!": 3348,
      "родни": 3349,
      "откри": 3350,
      "лоши": 3351,
      "станала": 3352,
      "дуп": 3353,
      "едната": 3354,
      "лно,": 3355,
      "вам,": 3356,
      "стран": 3357,
      "нещо.": 3358,
      "простак": 3359,
      "повече.": 3360,
      "първия": 3361,
      "пръст": 3362,
      "отслабва": 3363,
      "сайт": 3364,
      "нет/": 3365,
      "продуцентите": 3366,
      "и...": 3367,
      "пр": 3368,
      "ун": 3369,
      "шъ": 3370,
      "тели": 3371,
      "мали": 3372,
      "малък": 3373,
      "тик": 3374,
      "лето": 3375,
      "отвсякъде": 3376,
      "ден.": 3377,
      "жението": 3378,
      "някого": 3379,
      "изтър": 3380,
      "прочете": 3381,
      "...а": 3382,
      "спор": 3383,
      "простаци": 3384,
      "младе": 3385,
      "противно": 3386,
      "нейната": 3387,
      "пaри": 3388,
      "турски": 3389,
      "двой": 3390,
      "изчезна": 3391,
      "ох,": 3392,
      "удовол": 3393,
      "шке": 3394,
      "непо": 3395,
      "мазна": 3396,
      "заведе": 3397,
      "пост": 3398,
      "рож": 3399,
      "мести": 3400,
      "минала": 3401,
      "изма": 3402,
      "бала": 3403,
      "бият": 3404,
      ".........": 3405,
      "знае,": 3406,
      "нува": 3407,
      "бур": 3408,
      "дете,": 3409,
      "траге": 3410,
      "комплексира": 3411,
      "песента": 3412,
      "показват": 3413,
      "съпруга": 3414,
      "неприятна": 3415,
      "миндил": 3416,
      "защита": 3417,
      "ани": 3418,
      "опроста": 3419,
      "плъ": 3420,
      "ули": 3421,
      "фри": 3422,
      "я!": 3423,
      "да!": 3424,
      "тео": 3425,
      "нее": 3426,
      "кош": 3427,
      "новите": 3428,
      "листи": 3429,
      "забре": 3430,
      "си?": 3431,
      "гове": 3432,
      "вени": 3433,
      "досто": 3434,
      "пече": 3435,
      "хай": 3436,
      "лъж": 3437,
      "лъжи": 3438,
      "лъжа": 3439,
      "кефи": 3440,
      "мандръ": 3441,
      "цяло": 3442,
      "класа": 3443,
      "противни": 3444,
      "изглеждат": 3445,
      "родила": 3446,
      "стойност": 3447,
      "фолк": 3448,
      "лната": 3449,
      "хле": 3450,
      "ък": 3451,
      "копа": 3452,
      "сен,": 3453,
      "повяр": 3454,
      "ме,": 3455,
      "падъ": 3456,
      "избяга": 3457,
      "проце": 3458,
      "пеев": 3459,
      "пиша": 3460,
      "преслава": 3461,
      "цели": 3462,
      "майсто": 3463,
      "кaк": 3464,
      "търса": 3465,
      "истинска": 3466,
      "зък": 3467,
      "хттп://ввв.": 3468,
      "приятен": 3469,
      "образи": 3470,
      "халва": 3471,
      "травестит": 3472,
      "ауди": 3473,
      "ограни": 3474,
      "америка": 3475,
      "сутрин": 3476,
      "бру": 3477,
      "тон": 3478,
      "васко": 3479,
      "рани": 3480,
      "некой": 3481,
      "загуби": 3482,
      "сем": 3483,
      "сере": 3484,
      "попо": 3485,
      "вил": 3486,
      "балъ": 3487,
      "педали": 3488,
      "прези": 3489,
      "чар": 3490,
      "час": 3491,
      "хонора": 3492,
      "щава": 3493,
      "натали": 3494,
      "сладу": 3495,
      "сперма": 3496,
      "ден,": 3497,
      "свир": 3498,
      "отиш": 3499,
      "нормална": 3500,
      "мързе": 3501,
      "лайна": 3502,
      "комплекси": 3503,
      "нчев": 3504,
      "лигави": 3505,
      "заглавието": 3506,
      "синопти": 3507,
      "означа": 3508,
      "флуен": 3509,
      "7.": 3510,
      "е,че": 3511,
      "ске": 3512,
      "дара": 3513,
      "тед": 3514,
      "подра": 3515,
      "поздра": 3516,
      "понася": 3517,
      "мевки": 3518,
      "девой": 3519,
      "бедни": 3520,
      "боза": 3521,
      "можеше": 3522,
      "смет": 3523,
      "сменя": 3524,
      "слад": 3525,
      "тaй": 3526,
      "жени.": 3527,
      "деца,": 3528,
      "българската": 3529,
      "хттп://мевки": 3530,
      "смешно": 3531,
      "д.нет/": 3532,
      "богати": 3533,
      "реално": 3534,
      "ергенът": 3535,
      "поръча": 3536,
      "удоволствие": 3537,
      "хттп://мевкид.нет/": 3538,
      "),": 3539,
      ",ще": 3540,
      "70": 3541,
      "иво": 3542,
      "оказа": 3543,
      "фин": 3544,
      "нада": 3545,
      "се!": 3546,
      "силно": 3547,
      "голи": 3548,
      "мое": 3549,
      "циa": 3550,
      "произ": 3551,
      "петър": 3552,
      "чист": 3553,
      "кучето": 3554,
      "скапа": 3555,
      "крачу": 3556,
      "им.": 3557,
      "рaз": 3558,
      "спече": 3559,
      "време.": 3560,
      "мъжки": 3561,
      "предаването.": 3562,
      "перфек": 3563,
      "тъпотия": 3564,
      "жалко,": 3565,
      "дъщерята": 3566,
      "публиката": 3567,
      "помощ": 3568,
      "мнение": 3569,
      "вчера": 3570,
      "хиляди": 3571,
      "1-": 3572,
      "бна": 3573,
      "мрази": 3574,
      "оправ": 3575,
      "вип": 3576,
      "лени": 3577,
      "леля": 3578,
      "де,": 3579,
      "докара": 3580,
      "ца!": 3581,
      "тунин": 3582,
      "инфлуен": 3583,
      "финала": 3584,
      "нужно": 3585,
      "годиш": 3586,
      "по-скоро": 3587,
      "страна": 3588,
      "говорите": 3589,
      ",,,,": 3590,
      "хттпс://ввв.": 3591,
      "мангали": 3592,
      "селяни": 3593,
      "чувства": 3594,
      "обикновен": 3595,
      "благодаря": 3596,
      "пеевски": 3597,
      ",няма": 3598,
      "ах": 3599,
      "наля": 3600,
      "раза": 3601,
      "телите": 3602,
      "нени": 3603,
      "макар": 3604,
      "изпи": 3605,
      "бички": 3606,
      "пее,": 3607,
      "съси": 3608,
      "имал": 3609,
      "стоп": 3610,
      "духо": 3611,
      "мен,": 3612,
      "ждат": 3613,
      "!!!!!!!": 3614,
      "детенце": 3615,
      "мaн": 3616,
      "възра": 3617,
      "всякакви": 3618,
      "отврат.": 3619,
      "пенсия": 3620,
      "нарече": 3621,
      "мечта": 3622,
      "зуека": 3623,
      "александра": 3624,
      "резулта": 3625,
      "дразни": 3626,
      "ико": 3627,
      "онова": 3628,
      "хльо": 3629,
      "шля": 3630,
      "яна": 3631,
      "на...": 3632,
      "кочи": 3633,
      "лира": 3634,
      "попу": 3635,
      "покрай": 3636,
      "рена": 3637,
      "веж": 3638,
      "гал": 3639,
      "паде": 3640,
      "лог": 3641,
      "кучка": 3642,
      "дух": 3643,
      "гледай": 3644,
      "хуй": 3645,
      "тези,": 3646,
      "нали?": 3647,
      "умни": 3648,
      "фона": 3649,
      "парче": 3650,
      "сраму": 3651,
      "тъпата": 3652,
      "играта": 3653,
      "сървай": 3654,
      "евро!": 3655,
      "храни": 3656,
      "кажат": 3657,
      "естествено": 3658,
      "определено": 3659,
      "пожарни": 3660,
      "\"...": 3661,
      ",с": 3662,
      "бля": 3663,
      "яд": 3664,
      "дани": 3665,
      "никъде": 3666,
      "черно": 3667,
      "избо": 3668,
      "пете": 3669,
      "печал": 3670,
      "пис": 3671,
      "бов": 3672,
      "болен": 3673,
      "рур": 3674,
      "ят,": 3675,
      "има,": 3676,
      "имаме": 3677,
      "крака": 3678,
      "орг/": 3679,
      "нищо,": 3680,
      "казвам": 3681,
      "конкур": 3682,
      "мръсна": 3683,
      "приличат": 3684,
      "онлине": 3685,
      "????????": 3686,
      "грешка": 3687,
      "познава": 3688,
      "смешни": 3689,
      "богата": 3690,
      "интелиген": 3691,
      "смърт": 3692,
      "акъла": 3693,
      "непрекъснато": 3694,
      "22": 3695,
      "омъ": 3696,
      "ядо": 3697,
      "напом": 3698,
      "кач": 3699,
      "коми": 3700,
      "нова,": 3701,
      "лив": 3702,
      "лиз": 3703,
      "закъса": 3704,
      "гара": 3705,
      "кира": 3706,
      "дипло": 3707,
      "досега": 3708,
      "пам": 3709,
      "пей": 3710,
      "бона": 3711,
      "прес": 3712,
      "ше.": 3713,
      "мутре": 3714,
      "много.": 3715,
      "гледаш": 3716,
      "взел": 3717,
      "живот.": 3718,
      "телеви": 3719,
      "дебел": 3720,
      "когото": 3721,
      "двойка": 3722,
      "опитва": 3723,
      "чужди": 3724,
      "смисъл": 3725,
      "яяяя": 3726,
      "световно": 3727,
      "игрите": 3728,
      "златотърса": 3729,
      "минимален": 3730,
      "!хттпс://бит.лъ/2вгдх7г": 3731,
      ",който": 3732,
      ",защото": 3733,
      "-то": 3734,
      "5/": 3735,
      "500": 3736,
      "ета": 3737,
      "енти": 3738,
      "мля": 3739,
      "пь": 3740,
      "уче": 3741,
      "цтс": 3742,
      "давам": 3743,
      "ковра": 3744,
      "маса": 3745,
      "йне": 3746,
      "горко": 3747,
      "сана": 3748,
      "дой": 3749,
      "ня,": 3750,
      "нямa": 3751,
      "изпра": 3752,
      "изрод": 3753,
      "би,": 3754,
      "мутри": 3755,
      "фире": 3756,
      "случва": 3757,
      "злобен": 3758,
      "спер": 3759,
      "държат": 3760,
      "българия!": 3761,
      "любовта": 3762,
      "продуцтс": 3763,
      "лошото": 3764,
      "прекрасен": 3765,
      "блиц,": 3766,
      "уважение": 3767,
      "мисля,": 3768,
      "искa": 3769,
      "манипу": 3770,
      "победител": 3771,
      "случайно": 3772,
      "навира": 3773,
      "милф": 3774,
      "аудитория": 3775,
      "а?": 3776,
      "ано": 3777,
      "обез": 3778,
      "свя": 3779,
      "набута": 3780,
      "личен": 3781,
      "задъл": 3782,
      "сеше": 3783,
      "лети": 3784,
      "депози": 3785,
      "бел": 3786,
      "бах": 3787,
      "бити": 3788,
      "ги.": 3789,
      "имала": 3790,
      "мът": 3791,
      "мъка": 3792,
      "чувал": 3793,
      "неговата": 3794,
      "спом": 3795,
      "каза,": 3796,
      "ник!": 3797,
      "простащи": 3798,
      "класи": 3799,
      "свали": 3800,
      "първата": 3801,
      "занимавали": 3802,
      "станат": 3803,
      "ница.": 3804,
      "външ": 3805,
      "обрат": 3806,
      "ужас!": 3807,
      "емилия": 3808,
      "готви": 3809,
      "църву": 3810,
      "софка": 3811,
      "шурл=хттпс://": 3812,
      "депозит": 3813,
      ",ако": 3814,
      "ално": 3815,
      "глa": 3816,
      "еки": 3817,
      "ит": 3818,
      "чната": 3819,
      "ч/ш": 3820,
      "касети": 3821,
      "нивото": 3822,
      "коро": 3823,
      "гова": 3824,
      "галя": 3825,
      "галена": 3826,
      "мето": 3827,
      "кичка": 3828,
      "някое": 3829,
      "цио": 3830,
      "хари": 3831,
      "ляна": 3832,
      "луди": 3833,
      "чисти": 3834,
      "цел": 3835,
      "прави.": 3836,
      "път.": 3837,
      "сума": 3838,
      "сладко": 3839,
      "вяване": 3840,
      "хирур": 3841,
      "ууу": 3842,
      "теб.": 3843,
      "публику": 3844,
      "златка": 3845,
      "празно": 3846,
      "псих": 3847,
      "жоро": 3848,
      "екран": 3849,
      "честно": 3850,
      "бг.орг/": 3851,
      "/шч/ш": 3852,
      "бг/продуцтс": 3853,
      "кадиев": 3854,
      "хттп://ввв.фире": 3855,
      "бг.орг/бг/продуцтс": 3856,
      "/шч/ш5/": 3857,
      "хттп://ввв.фиребг.орг/бг/продуцтс": 3858,
      "хттп://ввв.фиребг.орг/бг/продуцтс/шч/ш5/": 3859,
      "ита": 3860,
      "сбърка": 3861,
      "наслед": 3862,
      "ра!": 3863,
      "нон": 3864,
      "мане": 3865,
      "лигла": 3866,
      "заста": 3867,
      "риa": 3868,
      "бет": 3869,
      "би.": 3870,
      "бит": 3871,
      "бите": 3872,
      "чи.": 3873,
      "разва": 3874,
      "тя,": 3875,
      "инста": 3876,
      "инфа": 3877,
      "пуд": 3878,
      "кене": 3879,
      "всичко.": 3880,
      "нещата": 3881,
      "чувство": 3882,
      "лайно": 3883,
      "щастлива": 3884,
      "помогна": 3885,
      "почита": 3886,
      "аааааааа": 3887,
      "прaви": 3888,
      "талантлива": 3889,
      "магистра": 3890,
      "ваксинира": 3891,
      "хейтъ": 3892,
      "театър": 3893,
      "сървайвър": 3894,
      "300": 3895,
      "вкара": 3896,
      "кна": 3897,
      "к...": 3898,
      "нау": 3899,
      "ток": 3900,
      "несе": 3901,
      "ности": 3902,
      "мазен": 3903,
      "лист": 3904,
      "тита": 3905,
      "отблъ": 3906,
      "бого": 3907,
      "часа": 3908,
      "скача": 3909,
      "приема": 3910,
      "хорa": 3911,
      "дубай": 3912,
      "пласт": 3913,
      "ците,": 3914,
      "ност,": 3915,
      "животът": 3916,
      "момиче.": 3917,
      "мнението": 3918,
      "образование": 3919,
      "продукцията": 3920,
      "популя": 3921,
      "-а": 3922,
      "ав": 3923,
      "и!": 3924,
      "испа": 3925,
      "сь": 3926,
      "цтор": 3927,
      "як": 3928,
      "насили": 3929,
      "толе": 3930,
      "неза": 3931,
      "новото": 3932,
      "се/": 3933,
      "посо": 3934,
      "го,": 3935,
      "мин": 3936,
      "мома": 3937,
      "пароди": 3938,
      "бело": 3939,
      "женски": 3940,
      "изказ": 3941,
      "изроди": 3942,
      "бал": 3943,
      "прове": 3944,
      "съве": 3945,
      "шев": 3946,
      "гия": 3947,
      "чи,": 3948,
      "развра": 3949,
      "искаме": 3950,
      "търпе": 3951,
      "четох": 3952,
      "джий": 3953,
      "компа": 3954,
      "бъдеще": 3955,
      "мърша": 3956,
      "нейното": 3957,
      "джаферови": 3958,
      "влезе": 3959,
      "обществото": 3960,
      "българския": 3961,
      "ерген": 3962,
      "случая": 3963,
      "красота": 3964,
      "появи": 3965,
      "видео": 3966,
      "съществу": 3967,
      "страхотен": 3968,
      "открадна": 3969,
      "!хттп://бит.лъ/2": 3970,
      "aвa": 3971,
      "еп": 3972,
      "зне": 3973,
      "онали": 3974,
      "усеща": 3975,
      "фран": 3976,
      "хъ": 3977,
      "напълни": 3978,
      "нашата": 3979,
      "кало": 3980,
      "тера": 3981,
      "ко.": 3982,
      "кове": 3983,
      "нок": 3984,
      "лични": 3985,
      "полага": 3986,
      "силен": 3987,
      "рина": 3988,
      "видите": 3989,
      "сашка": 3990,
      "жесто": 3991,
      "някакво": 3992,
      "сън": 3993,
      "му!": 3994,
      "значе": 3995,
      "сте,": 3996,
      "слаб": 3997,
      "цията.": 3998,
      "възхи": 3999,
      "взела": 4000,
      "дрехи": 4001,
      "нещастници": 4002,
      "дебели": 4003,
      "клип": 4004,
      "лигав": 4005,
      "уважа": 4006,
      "прaд": 4007,
      "вулга": 4008,
      "редовно": 4009,
      "украин": 4010,
      "2-": 4011,
      "ж.": 4012,
      "усети": 4013,
      "ште": 4014,
      "ьa": 4015,
      "ях": 4016,
      "таа": 4017,
      "тов": 4018,
      "неле": 4019,
      "ниa": 4020,
      "кора": 4021,
      "масти": 4022,
      "силна": 4023,
      "чеп": 4024,
      "отде": 4025,
      "кисело": 4026,
      "микро": 4027,
      "па.": 4028,
      "гин": 4029,
      "жан": 4030,
      "тази,": 4031,
      "гражда": 4032,
      "илиев": 4033,
      "вампи": 4034,
      "исках": 4035,
      "сякаш": 4036,
      "простотиите": 4037,
      "възму": 4038,
      "цовид": 4039,
      "коментара": 4040,
      "хвана": 4041,
      "кажете": 4042,
      "плевен": 4043,
      "труд": 4044,
      "влече": 4045,
      "достойнство": 4046,
      "интригант": 4047,
      "рокля": 4048,
      "разбера": 4049,
      "блитз.": 4050,
      "аде": 4051,
      "асан": 4052,
      "бря": 4053,
      "лния": 4054,
      "ок": 4055,
      "ск": 4056,
      "ть": 4057,
      "услу": 4058,
      "наказа": 4059,
      "дан": 4060,
      "необ": 4061,
      "копе": 4062,
      "маски": 4063,
      "заблу": 4064,
      "сен.": 4065,
      "рева": 4066,
      "реже": 4067,
      "готин": 4068,
      "викат": 4069,
      "отва": 4070,
      "стно": 4071,
      "дом": 4072,
      "пени": 4073,
      "пеят": 4074,
      "бом": 4075,
      "чай": 4076,
      "стил": 4077,
      "къщата": 4078,
      "холи": 4079,
      "мен.": 4080,
      "глад": 4081,
      "гласът": 4082,
      "органи": 4083,
      "кaмери": 4084,
      "хубавица": 4085,
      "курвата": 4086,
      "трифо": 4087,
      "дът": 4088,
      "живота.": 4089,
      "грижи": 4090,
      "нов,": 4091,
      "селско": 4092,
      "нейния": 4093,
      "колеж": 4094,
      "лицемер": 4095,
      "онази": 4096,
      "култу": 4097,
      "обясня": 4098,
      "гълта": 4099,
      "ъоур": 4100,
      "изгони": 4101,
      "началото": 4102,
      "отношение": 4103,
      "упраж": 4104,
      "телевизо": 4105,
      "17": 4106,
      "агре": 4107,
      "ейй": 4108,
      "упори": 4109,
      "уреди": 4110,
      "ява": 4111,
      "напъ": 4112,
      "телно": 4113,
      "си...": 4114,
      "мизе": 4115,
      "доцтор": 4116,
      "патра": 4117,
      "бахти": 4118,
      "цигa": 4119,
      "певци": 4120,
      "чичко": 4121,
      "брак": 4122,
      "вече.": 4123,
      "фитне": 4124,
      "слаба": 4125,
      "по-малко": 4126,
      "близа": 4127,
      "свири": 4128,
      "тормо": 4129,
      "---": 4130,
      "бърза": 4131,
      "видно": 4132,
      "марш": 4133,
      "злат": 4134,
      "владо": 4135,
      "българин": 4136,
      "започна": 4137,
      "абсолютен": 4138,
      "халтура": 4139,
      "двамата.": 4140,
      "поведението": 4141,
      "селянду": 4142,
      "баджана": 4143,
      ".пхп": 4144,
      "осно": 4145,
      "трa": 4146,
      "хла": 4147,
      "такъ": 4148,
      "тоол": 4149,
      "небе": 4150,
      "нова.": 4151,
      "лиa": 4152,
      "ливо": 4153,
      "сила": 4154,
      "синът": 4155,
      "чеше": 4156,
      "циите": 4157,
      "бож": 4158,
      "цени": 4159,
      "дъртия": 4160,
      "ке,": 4161,
      "фенове": 4162,
      "курвите": 4163,
      "време,": 4164,
      "просташки": 4165,
      "оого": 4166,
      "завистници": 4167,
      "женица": 4168,
      "боклук,": 4169,
      "налага": 4170,
      "ебати": 4171,
      "станеш": 4172,
      "ции,": 4173,
      "публично": 4174,
      "уважава": 4175,
      "обърка": 4176,
      "възмож": 4177,
      "килограма,": 4178,
      "ефир": 4179,
      "отвори": 4180,
      "имита": 4181,
      "физиономия": 4182,
      "разпоретина": 4183,
      "радост": 4184,
      "прекалено": 4185,
      "леглото": 4186,
      "откачал": 4187,
      "-19": 4188,
      "ас": 4189,
      "звa": 4190,
      "так": 4191,
      "каля": 4192,
      "лис": 4193,
      "ливи": 4194,
      "рец": 4195,
      "ла?": 4196,
      "лекува": 4197,
      "сащ": 4198,
      "вор": 4199,
      "мия.": 4200,
      "десет": 4201,
      "доктор": 4202,
      "бий": 4203,
      "биха": 4204,
      "цион": 4205,
      "пика": 4206,
      "рум": 4207,
      "чичо": 4208,
      "къци": 4209,
      "приклю": 4210,
      "братя": 4211,
      "пътя": 4212,
      "сува": 4213,
      "плаче": 4214,
      "близо": 4215,
      "най-после": 4216,
      "интересна": 4217,
      "боклук.": 4218,
      "тъпана": 4219,
      "злобари": 4220,
      "писали": 4221,
      "черни": 4222,
      "чувст": 4223,
      "велика": 4224,
      "................": 4225,
      "българските": 4226,
      "медии": 4227,
      "празни": 4228,
      "скъсам": 4229,
      "връзки": 4230,
      "оооооооо": 4231,
      "екрана": 4232,
      "комплексар": 4233,
      "комплексари": 4234,
      "уникална": 4235,
      "работят": 4236,
      "получава": 4237,
      "б.цом/": 4238,
      "крокоди": 4239,
      "дребни": 4240,
      "погледнете": 4241,
      "психят": 4242,
      "г,": 4243,
      "д-": 4244,
      "ех": 4245,
      "оче": 4246,
      "ура": 4247,
      "чрез": 4248,
      "щa": 4249,
      "нае": 4250,
      "неприятен": 4251,
      "заприлича": 4252,
      "поклон": 4253,
      "систе": 4254,
      "гони": 4255,
      "леке": 4256,
      "моето": 4257,
      "бега": 4258,
      "простра": 4259,
      "пере": 4260,
      "ха!": 4261,
      "състоя": 4262,
      "чил": 4263,
      "чия": 4264,
      "кухи": 4265,
      "чупи": 4266,
      "герма": 4267,
      "гледате": 4268,
      "всички,": 4269,
      "кaкво": 4270,
      "търсе": 4271,
      "неговите": 4272,
      "гъбички": 4273,
      "умря": 4274,
      "пръчка": 4275,
      "българка": 4276,
      "шкова": 4277,
      "боклук!": 4278,
      "стъпи": 4279,
      "певица,": 4280,
      "слушам": 4281,
      "1000": 4282,
      "катето": 4283,
      "гъзъ!": 4284,
      "убий": 4285,
      "милионер": 4286,
      "седмица": 4287,
      "принци": 4288,
      "достоен": 4289,
      "1-2": 4290,
      "тоолс.ети.пв": 4291,
      "ака": 4292,
      "ени": 4293,
      "нка.": 4294,
      "сната": 4295,
      "фър": 4296,
      "шките": 4297,
      "шка.": 4298,
      "тове": 4299,
      "тем": 4300,
      "тери": 4301,
      "нем": 4302,
      "колата": 4303,
      "махва": 4304,
      "зада": 4305,
      "седне": 4306,
      "повър": 4307,
      "лелка": 4308,
      "мей": 4309,
      "кин": 4310,
      "патка": 4311,
      "състе": 4312,
      "разде": 4313,
      "хуя": 4314,
      "лник": 4315,
      "мъжко": 4316,
      "мисли,": 4317,
      "хттп://тоолс.ети.пв": 4318,
      "ебане": 4319,
      "билалов": 4320,
      "англи": 4321,
      "дебело": 4322,
      "втора": 4323,
      "смешници": 4324,
      "кифли": 4325,
      "продължи": 4326,
      "професия": 4327,
      "%д1": 4328,
      "заглавия": 4329,
      "талантлив": 4330,
      "жително": 4331,
      "главата.": 4332,
      "измислени": 4333,
      "режис": 4334,
      "крокодил": 4335,
      "изврате": 4336,
      "25": 4337,
      "а.": 4338,
      "и'": 4339,
      "лката": 4340,
      "лгa": 4341,
      "опо": 4342,
      "оплю": 4343,
      "сля": 4344,
      "сръ": 4345,
      "спя": 4346,
      "уда": 4347,
      "чек": 4348,
      "гадни": 4349,
      "стна": 4350,
      "лост": 4351,
      "изва": 4352,
      "цирка": 4353,
      "болна": 4354,
      "...не": 4355,
      "жалък": 4356,
      "няма,": 4357,
      "крава": 4358,
      "можем": 4359,
      "облича": 4360,
      "този,": 4361,
      "шов.": 4362,
      "добре,че": 4363,
      "тaзи": 4364,
      "вате,": 4365,
      "просташко": 4366,
      "лите,": 4367,
      "вително": 4368,
      "момче,": 4369,
      "тъпотии": 4370,
      "рачков,": 4371,
      "глупаво": 4372,
      "прекрасни": 4373,
      "същества": 4374,
      "общество": 4375,
      "страхотно": 4376,
      "смята": 4377,
      "сливата": 4378,
      "минет": 4379,
      "брой": 4380,
      "мартина": 4381,
      "олигофрен": 4382,
      "усмих": 4383,
      "тотално": 4384,
      "ане": 4385,
      "длъ": 4386,
      "иба": 4387,
      "мг": 4388,
      "мре": 4389,
      "убе": 4390,
      "нагоре": 4391,
      "ващо": 4392,
      "кол": 4393,
      "седи": 4394,
      "постъп": 4395,
      "й!": 4396,
      "вици": 4397,
      "вел": 4398,
      "мете": 4399,
      "медве": 4400,
      "де.": 4401,
      "парази": 4402,
      "лове": 4403,
      "пев": 4404,
      "пера": 4405,
      "стигна": 4406,
      "мнооого": 4407,
      "ряли": 4408,
      "краста": 4409,
      "стер": 4410,
      "лъска": 4411,
      "хубо": 4412,
      "нужен": 4413,
      "искал": 4414,
      "страшна": 4415,
      "хубава,": 4416,
      "хубавите": 4417,
      "чето.": 4418,
      "чалгарка": 4419,
      "говор": 4420,
      "пишеш": 4421,
      "ставаш": 4422,
      "давай": 4423,
      "злоба,": 4424,
      "клюкар": 4425,
      "глупости,": 4426,
      "половин": 4427,
      "100%": 4428,
      "скум": 4429,
      "наркоти": 4430,
      "участниците": 4431,
      "съжалявам": 4432,
      "горкото": 4433,
      "доцтормедве": 4434,
      "състеза": 4435,
      "доцтормедвеб.цом/": 4436,
      "нго": 4437,
      "цк": 4438,
      "никак": 4439,
      "зали": 4440,
      "че!": 4441,
      "щерка": 4442,
      "изпробва": 4443,
      "перу": 4444,
      "чаро": 4445,
      "куп": 4446,
      "душата": 4447,
      "пута": 4448,
      "манчев": 4449,
      "снат": 4450,
      "гът": 4451,
      "направили": 4452,
      "джии": 4453,
      "станаха": 4454,
      "хубавото": 4455,
      "горде": 4456,
      "нахална": 4457,
      "изкустве": 4458,
      "твърде": 4459,
      "сълзи": 4460,
      "мазни": 4461,
      "професионали": 4462,
      "интелектуа": 4463,
      "тежко": 4464,
      "нагласено": 4465,
      "манеке": 4466,
      "шов.блитз.": 4467,
      "1.": 4468,
      "бвa": 4469,
      "клу": 4470,
      "уви": 4471,
      "уве": 4472,
      "ф.": 4473,
      "чна,": 4474,
      "насе": 4475,
      "тони": 4476,
      "рачко": 4477,
      "гости": 4478,
      "гащите": 4479,
      "места": 4480,
      "мие": 4481,
      "моли": 4482,
      "доба": 4483,
      "па,": 4484,
      "пав": 4485,
      "парата": 4486,
      "лора": 4487,
      "старо": 4488,
      "провин": 4489,
      "простова": 4490,
      "педо": 4491,
      "разкара": 4492,
      "це,": 4493,
      "широ": 4494,
      "друса": 4495,
      "йте,": 4496,
      "пълните": 4497,
      "дърен": 4498,
      "циганите": 4499,
      "джо": 4500,
      "ужас.": 4501,
      "плюете": 4502,
      "сърби": 4503,
      "видяхме": 4504,
      "жената,": 4505,
      "коментират": 4506,
      "проблема": 4507,
      "щастлив": 4508,
      "певица.": 4509,
      "момче.": 4510,
      "култура": 4511,
      "забавля": 4512,
      "телевизията.": 4513,
      "цървул": 4514,
      "тръгнала": 4515,
      "матерял": 4516,
      "виолета": 4517,
      "шов.блитз.бг.": 4518,
      ",много": 4519,
      "-мa": 4520,
      "2ч": 4521,
      "8ш": 4522,
      "90": 4523,
      "aн": 4524,
      "б,": 4525,
      "бнт": 4526,
      "кльо": 4527,
      "о.": 4528,
      "оздра": 4529,
      "спри": 4530,
      "усти": 4531,
      "убие": 4532,
      "язък": 4533,
      "раси": 4534,
      "давате": 4535,
      "мак": 4536,
      "мазо": 4537,
      "лигава": 4538,
      "за.": 4539,
      "засра": 4540,
      "рин": 4541,
      "лее": 4542,
      "гадна": 4543,
      "мире": 4544,
      "деби": 4545,
      "диша": 4546,
      "изяде": 4547,
      "бита": 4548,
      "престъп": 4549,
      "хан": 4550,
      "сък": 4551,
      "...!": 4552,
      "ститу": 4553,
      "мухльо": 4554,
      "гира": 4555,
      "крад": 4556,
      "чора": 4557,
      "зем": 4558,
      "тия,": 4559,
      "страни": 4560,
      "хис": 4561,
      "спомена": 4562,
      "крива": 4563,
      "клати": 4564,
      "красив": 4565,
      "фон": 4566,
      "първите": 4567,
      "сигурен": 4568,
      "ност.": 4569,
      "виждал": 4570,
      "работа!": 4571,
      "формира": 4572,
      "учат": 4573,
      "станал": 4574,
      "джудже": 4575,
      "поглед": 4576,
      "уникален": 4577,
      ":)))": 4578,
      "забеля": 4579,
      "ръцете": 4580,
      "разпорети": 4581,
      "временно": 4582,
      "ползват": 4583,
      "милиони": 4584,
      "информация": 4585,
      "означава": 4586,
      "омъжи": 4587,
      ":-": 4588,
      "адво": 4589,
      "вната": 4590,
      "дву": 4591,
      "е....": 4592,
      "кян": 4593,
      "например": 4594,
      "невъзпита": 4595,
      "коф": 4596,
      "конт": 4597,
      "серял": 4598,
      "вият": 4599,
      "ласки": 4600,
      "чета.": 4601,
      "чета,": 4602,
      "сапу": 4603,
      "докто": 4604,
      "падат": 4605,
      "беле": 4606,
      "изъ": 4607,
      "проек": 4608,
      "премахва": 4609,
      "ги,": 4610,
      "жали": 4611,
      "чица": 4612,
      "ска,": 4613,
      "брато": 4614,
      "стеф": 4615,
      "зен,": 4616,
      "чува": 4617,
      "гледам.": 4618,
      "служ": 4619,
      "вaм": 4620,
      "нея!": 4621,
      "казала": 4622,
      "мъжка": 4623,
      "възста": 4624,
      "такива.": 4625,
      "всичко,": 4626,
      "свирка": 4627,
      "важни": 4628,
      "простотия.": 4629,
      "филма": 4630,
      "вярва": 4631,
      "продължа": 4632,
      "махнете": 4633,
      "чужбина": 4634,
      "киломе": 4635,
      "денис": 4636,
      "модел": 4637,
      "кариера": 4638,
      "отслабнеш": 4639,
      "финансо": 4640,
      "долнопроб": 4641,
      "спомня": 4642,
      "инфанти": 4643,
      "необходи": 4644,
      "3-": 4645,
      "ала": 4646,
      "вните": 4647,
      "двам": 4648,
      "енер": 4649,
      "ушите": 4650,
      "чния": 4651,
      "чвам": 4652,
      "ядат": 4653,
      "нав": 4654,
      "канди": 4655,
      "вас,": 4656,
      "поря": 4657,
      "подари": 4658,
      "поема": 4659,
      "реда": 4660,
      "лейка": 4661,
      "милен": 4662,
      "деба": 4663,
      "циците": 4664,
      "хор": 4665,
      "стоти": 4666,
      "шият": 4667,
      "вече,": 4668,
      "тая,": 4669,
      "сур": 4670,
      "т.е.": 4671,
      "кер": 4672,
      "боклука": 4673,
      "предаване,": 4674,
      "срамо": 4675,
      "гроздето": 4676,
      "пръска": 4677,
      "станало": 4678,
      "момиче!": 4679,
      "щях": 4680,
      "симпа": 4681,
      "спечелих": 4682,
      "досадни": 4683,
      "бездарна": 4684,
      "ииииииии": 4685,
      "начало": 4686,
      "виновни": 4687,
      "нещастник": 4688,
      "техните": 4689,
      "тъкмо": 4690,
      "присъствие": 4691,
      "действително": 4692,
      "тaйa": 4693,
      "\"не": 4694,
      "зъл": 4695,
      "зват": 4696,
      "зур": 4697,
      "ония": 4698,
      "фя": 4699,
      "фоста": 4700,
      "щот": 4701,
      "напишете": 4702,
      "тодо": 4703,
      "кадър": 4704,
      "ваха": 4705,
      "кос": 4706,
      "номера": 4707,
      "лиже": 4708,
      "запа": 4709,
      "закри": 4710,
      "постиг": 4711,
      "йна": 4712,
      "отпадъ": 4713,
      "местя": 4714,
      "киня": 4715,
      "дено": 4716,
      "дов": 4717,
      "изре": 4718,
      "изтри": 4719,
      "бате": 4720,
      "балка": 4721,
      "боц": 4722,
      "лян": 4723,
      "сканда": 4724,
      "развали": 4725,
      "ски,": 4726,
      "обла": 4727,
      "дърво": 4728,
      "фили": 4729,
      "слабо": 4730,
      "чност": 4731,
      "манта": 4732,
      "хил": 4733,
      "ция!": 4734,
      "негова": 4735,
      "близна": 4736,
      "предаването,": 4737,
      "свети": 4738,
      "нските": 4739,
      "мъже,": 4740,
      "вайки": 4741,
      "кръв": 4742,
      "намерила": 4743,
      "смешник": 4744,
      "чката.": 4745,
      "дрън": 4746,
      "хaхa": 4747,
      "господин": 4748,
      "скъса": 4749,
      "сцената": 4750,
      "катери": 4751,
      "бръм": 4752,
      "герой": 4753,
      "плашило": 4754,
      "далече": 4755,
      "помислих": 4756,
      "неграмотни": 4757,
      "диети": 4758,
      "вкус": 4759,
      "национа": 4760,
      "сексуа": 4761,
      "поздравле": 4762,
      "холиву": 4763,
      "%д1%": 4764,
      "aнд": 4765,
      "тхис": 4766,
      "насра": 4767,
      "навремето": 4768,
      "нагъл": 4769,
      "тои": 4770,
      "повярвам": 4771,
      "вище": 4772,
      "лам": 4773,
      "отнася": 4774,
      "мено": 4775,
      "са?": 4776,
      "памет": 4777,
      "изля": 4778,
      "изказва": 4779,
      "бону": 4780,
      "чанта": 4781,
      "същите": 4782,
      "...да": 4783,
      "това?": 4784,
      "чики": 4785,
      "....и": 4786,
      "хомо": 4787,
      "тялото": 4788,
      "глед": 4789,
      "добрите": 4790,
      "нaй": 4791,
      "глас,": 4792,
      "иска.": 4793,
      "курво": 4794,
      "негово": 4795,
      "направиха": 4796,
      "какъвто": 4797,
      "четат": 4798,
      "виждат": 4799,
      "тъпанари": 4800,
      "сaм": 4801,
      "торба": 4802,
      "твоя": 4803,
      "кажеш": 4804,
      "мъже.": 4805,
      "иии": 4806,
      "таланта": 4807,
      "смешна": 4808,
      "семейство.": 4809,
      "велики": 4810,
      "филми": 4811,
      "своя": 4812,
      "хaт": 4813,
      "средно": 4814,
      "чакай": 4815,
      "действие": 4816,
      "успех!": 4817,
      "бившата": 4818,
      "следващия": 4819,
      "приятели": 4820,
      "ефира": 4821,
      "подаръ": 4822,
      "мaйл": 4823,
      "г-н": 4824,
      "принцеса": 4825,
      "демон": 4826,
      "здрa": 4827,
      "брута": 4828,
      "цовид-19": 4829,
      "упражнения": 4830,
      "сръб": 4831,
      "скумрия": 4832,
      "3ш": 4833,
      "aбе": 4834,
      "врa": 4835,
      "ет": 4836,
      "ебa": 4837,
      "сю": 4838,
      "цтед": 4839,
      "нап": 4840,
      "кати": 4841,
      "ками": 4842,
      "капа": 4843,
      "канала": 4844,
      "тен,": 4845,
      "неможе": 4846,
      "никои": 4847,
      "ма!": 4848,
      "зана": 4849,
      "реч": 4850,
      "рестора": 4851,
      "рит": 4852,
      "го.": 4853,
      "ви!": 4854,
      "мега": 4855,
      "момен": 4856,
      "няци": 4857,
      "стати": 4858,
      "проща": 4859,
      "бос": 4860,
      "шемaйл": 4861,
      "ку.": 4862,
      "..........": 4863,
      "нямах": 4864,
      "шанс": 4865,
      "друг.": 4866,
      "чукам": 4867,
      "тая.": 4868,
      "рност": 4869,
      "мaп": 4870,
      "новия": 4871,
      "новините": 4872,
      "формат": 4873,
      "също.": 4874,
      "клипа": 4875,
      "ница,": 4876,
      "заслужи": 4877,
      "скъпи": 4878,
      "голямото": 4879,
      "представи": 4880,
      "показвате": 4881,
      "сссс": 4882,
      "волята": 4883,
      "лансира": 4884,
      "концер": 4885,
      "чудесно": 4886,
      "интелект": 4887,
      "певици": 4888,
      "директно": 4889,
      "омраза": 4890,
      "протецтед": 4891,
      "изчезнаха": 4892,
      "циaлис": 4893,
      "ядох": 4894,
      "отблъсква": 4895,
      "хттп://тоолс.ети.пв/": 4896,
      "протецтедщ": 4897,
      "\"за": 4898,
      "aз": 4899,
      "aко": 4900,
      "е..": 4901,
      "ибе": 4902,
      "к'": 4903,
      "управ": 4904,
      "набе": 4905,
      "кай": 4906,
      "новете": 4907,
      "задово": 4908,
      "поти": 4909,
      "тит": 4910,
      "вики": 4911,
      "кич": 4912,
      "митко": 4913,
      "изча": 4914,
      "изце": 4915,
      "басту": 4916,
      "луна": 4917,
      "кула": 4918,
      "късо": 4919,
      "думата": 4920,
      "дупка": 4921,
      "майкъл": 4922,
      "буди": 4923,
      "пари!": 4924,
      "неговото": 4925,
      "криско": 4926,
      "дaр": 4927,
      "красивата": 4928,
      "каквито": 4929,
      "хахах": 4930,
      "коментари.": 4931,
      "кварта": 4932,
      "глупост": 4933,
      "тях,": 4934,
      "грозната": 4935,
      "глупости!": 4936,
      "мислех": 4937,
      "продукт": 4938,
      "глупав": 4939,
      "заслуже": 4940,
      "поредното": 4941,
      "внимание.": 4942,
      "нахални": 4943,
      "медици": 4944,
      "некадърник": 4945,
      "двор": 4946,
      "естествена": 4947,
      "п.пхп": 4948,
      "цоронaвирус-": 4949,
      "уникално": 4950,
      "професиона": 4951,
      "виновна": 4952,
      "пишман": 4953,
      "опитвам": 4954,
      "огледало": 4955,
      "земята": 4956,
      "печалби": 4957,
      "-мaп.пхп": 4958,
      "цовид-19-мaп.пхп": 4959,
      "хттп://тоолс.ети.пв/цоронaвирус-": 4960,
      "хттп://тоолс.ети.пв/цоронaвирус-цовид-19-мaп.пхп": 4961,
      "!а": 4962,
      "-да": 4963,
      "23": 4964,
      "еже": 4965,
      "евре": 4966,
      "оси": 4967,
      "рю": 4968,
      "уй": 4969,
      "ф,": 4970,
      "цри": 4971,
      "наша": 4972,
      "нашето": 4973,
      "нели": 4974,
      "лична": 4975,
      "йката": 4976,
      "рита": 4977,
      "риба": 4978,
      "говаря": 4979,
      "рон": 4980,
      "мета": 4981,
      "мии": 4982,
      "миха": 4983,
      "дове": 4984,
      "изди": 4985,
      "продаде": 4986,
      "пее.": 4987,
      "пречи": 4988,
      "тъз": 4989,
      "може.": 4990,
      "сте?": 4991,
      "пук": 4992,
      "прави,": 4993,
      "зеле": 4994,
      "чудно": 4995,
      "нищоже": 4996,
      "двата": 4997,
      "фен": 4998,
      "криво": 4999,
      "чалгари": 5000,
      "зависеше": 5001,
      "живота,": 5002,
      "живея": 5003,
      "тъпа,": 5004,
      "хванала": 5005,
      "анг": 5006,
      "задник": 5007,
      "талан": 5008,
      "нормалните": 5009,
      "креди": 5010,
      "тръгне": 5011,
      "заслужа": 5012,
      "шута": 5013,
      "медия": 5014,
      "последно": 5015,
      "храна": 5016,
      "щял": 5017,
      "армене": 5018,
      "паднат": 5019,
      "паднала": 5020,
      "сериозна": 5021,
      "раждат": 5022,
      "малди": 5023,
      "малките": 5024,
      "фффф": 5025,
      "никол": 5026,
      "цвети": 5027,
      "пенсионе": 5028,
      "морето.": 5029,
      "джендъ": 5030,
      "операция": 5031,
      "елементарни": 5032,
      "бебето": 5033,
      "претенции": 5034,
      "натиска": 5035,
      "напълнея.": 5036,
      "теодо": 5037,
      "тунингова": 5038,
      "се/мaп": 5039,
      "манталите": 5040,
      "вмири": 5041,
      "влява": 5042,
      "имо": 5043,
      "лна,": 5044,
      "мрa": 5045,
      "оп": 5046,
      "фжa": 5047,
      "хран": 5048,
      "ч5": 5049,
      "наше": 5050,
      "тег": 5051,
      "николе": 5052,
      "носо": 5053,
      "замина": 5054,
      "симе": 5055,
      "чене": 5056,
      "чело": 5057,
      "черен": 5058,
      "лете": 5059,
      "гажда": 5060,
      "кир": 5061,
      "диско": 5062,
      "изтре": 5063,
      "измиш": 5064,
      "изложи": 5065,
      "пито": 5066,
      "пичка": 5067,
      "чакат": 5068,
      "муску": 5069,
      "кури": 5070,
      "имах": 5071,
      "раздели": 5072,
      "няма!": 5073,
      "фигу": 5074,
      "тия.": 5075,
      "майта": 5076,
      "гледа.": 5077,
      "сменят": 5078,
      "поддържа": 5079,
      "страш": 5080,
      "манджа": 5081,
      "хит": 5082,
      "умна,": 5083,
      "боклуците": 5084,
      "нския": 5085,
      "отврат!": 5086,
      "българско": 5087,
      "свик": 5088,
      "джек": 5089,
      "нки.": 5090,
      "продуце": 5091,
      "глупава": 5092,
      "марчето": 5093,
      "хттпс://бит.лъ/2кр": 5094,
      "същество.": 5095,
      "вълнува": 5096,
      "тоалет": 5097,
      "панде": 5098,
      "омръзнало": 5099,
      "фалшиво": 5100,
      "интернет": 5101,
      "килограма": 5102,
      "хахахах": 5103,
      "обикновена": 5104,
      "типично": 5105,
      "татуира": 5106,
      "брaво": 5107,
      "луксо": 5108,
      "купува": 5109,
      "отслабвах.": 5110,
      "пьз": 5111,
      "джаферович": 5112,
      "кянпьз": 5113,
      "фжa9": 5114,
      "хттпс://бит.лъ/2крфжa9": 5115,
      "ата": 5116,
      "вхо": 5117,
      "вката": 5118,
      "вките": 5119,
      "ена": 5120,
      "ент": 5121,
      "ж,": 5122,
      "жка": 5123,
      "ина": 5124,
      "кв": 5125,
      "л?": 5126,
      "ню": 5127,
      "учите": 5128,
      "яга": 5129,
      "кау": 5130,
      "вас.": 5131,
      "нети": 5132,
      "коцето": 5133,
      "маже": 5134,
      "маке": 5135,
      "поте": 5136,
      "посе": 5137,
      "поро": 5138,
      "вията": 5139,
      "гадно": 5140,
      "ки!": 5141,
      "китай": 5142,
      "минали": 5143,
      "момент": 5144,
      "жете": 5145,
      "промени": 5146,
      "петка": 5147,
      "пиле": 5148,
      "бора": 5149,
      "хах": 5150,
      "стина": 5151,
      "прай": 5152,
      "скан": 5153,
      "тяга": 5154,
      "тън": 5155,
      "обви": 5156,
      "мък": 5157,
      "сузани": 5158,
      "щи,": 5159,
      "подло": 5160,
      "подгот": 5161,
      "скочи": 5162,
      "сега,": 5163,
      "келе": 5164,
      "здрава,": 5165,
      "курволя": 5166,
      "неговия": 5167,
      "най-вече": 5168,
      "става!": 5169,
      "срамно": 5170,
      "зaни": 5171,
      "нещастни": 5172,
      "писал": 5173,
      "телевизиите": 5174,
      "европа": 5175,
      "реклами": 5176,
      "своето": 5177,
      "публика": 5178,
      "журналя": 5179,
      "дейба": 5180,
      "последната": 5181,
      "последния": 5182,
      "йййй": 5183,
      "зле.": 5184,
      "досадна": 5185,
      "взимат": 5186,
      "симона": 5187,
      "огромна": 5188,
      "спокойно": 5189,
      "оплаква": 5190,
      "слънце": 5191,
      "прaдлa": 5192,
      "отвара": 5193,
      "измишльо": 5194,
      "!опитай": 5195,
      "!нон": 5196,
      "\"на": 5197,
      "((": 5198,
      ",само": 5199,
      ".но": 5200,
      "ат": 5201,
      "дю": 5202,
      "ец": 5203,
      "лде": 5204,
      "спра": 5205,
      "уре": 5206,
      "усло": 5207,
      "учени": 5208,
      "фле": 5209,
      "цвят": 5210,
      "ъ8ш": 5211,
      "яй": 5212,
      "..и": 5213,
      "ли...": 5214,
      "пон": 5215,
      "поради": 5216,
      "респе": 5217,
      "веско": 5218,
      "отваря": 5219,
      "мощ": 5220,
      "моше": 5221,
      "пау": 5222,
      "жек": 5223,
      "био": 5224,
      "пробут": 5225,
      "прекали": 5226,
      "премести": 5227,
      "чаров": 5228,
      "съдържа": 5229,
      "гил": 5230,
      "....!": 5231,
      "прибира": 5232,
      "чук": 5233,
      "майчи": 5234,
      "гледам,": 5235,
      "всички.": 5236,
      "предвид": 5237,
      "кaзвa": 5238,
      "хубава.": 5239,
      "оставя": 5240,
      "съм,": 5241,
      "фата": 5242,
      "снал": 5243,
      "способ": 5244,
      "ници!": 5245,
      "такива,": 5246,
      "говоре": 5247,
      "свидете": 5248,
      "живот,": 5249,
      "ебал": 5250,
      "плюска": 5251,
      "нейна": 5252,
      "тръгна": 5253,
      "джуките": 5254,
      "пловди": 5255,
      "дрисня": 5256,
      "изкуство": 5257,
      "действа": 5258,
      "строе": 5259,
      "хттпс://бит.лъ/2ъ8ш": 5260,
      "скъпо": 5261,
      "екс": 5262,
      "подобно": 5263,
      "бутат": 5264,
      "моля,": 5265,
      "приятелка": 5266,
      "неприятно": 5267,
      "борисов": 5268,
      "птион": 5269,
      "обикновено": 5270,
      "обръщай": 5271,
      "амби": 5272,
      "съдбата": 5273,
      "футболи": 5274,
      "демокра": 5275,
      "характе": 5276,
      "характер": 5277,
      "изкарва": 5278,
      "излъчване": 5279,
      "спасиш": 5280,
      "природата": 5281,
      "президент": 5282,
      "петент": 5283,
      "пластмасо": 5284,
      "хттпс://бит.лъ/2ъ8шлде": 5285,
      "-о": 5286,
      "бю": 5287,
      "вкъщи": 5288,
      "зър": 5289,
      "устни": 5290,
      "чват": 5291,
      "шa": 5292,
      "назад": 5293,
      "таря": 5294,
      "кане": 5295,
      "коце": 5296,
      "номи": 5297,
      "..а": 5298,
      "мам": 5299,
      "зае": 5300,
      "чен,": 5301,
      "рога": 5302,
      "лече": 5303,
      "вено": 5304,
      "гали": 5305,
      "гаден": 5306,
      "мест": 5307,
      "саше": 5308,
      "дони": 5309,
      "бек": 5310,
      "стата": 5311,
      "прочетох": 5312,
      "бон": 5313,
      "превзе": 5314,
      "кух": 5315,
      "ска.": 5316,
      "еднa": 5317,
      "путе": 5318,
      "чо.": 5319,
      "безсмисле": 5320,
      "тията": 5321,
      "въртя": 5322,
      "смее": 5323,
      "слаби": 5324,
      "сното": 5325,
      "казва,": 5326,
      "йте.": 5327,
      "цията,": 5328,
      "пълне": 5329,
      "ьора": 5330,
      "времето.": 5331,
      "мaр": 5332,
      "требе": 5333,
      "цигане": 5334,
      "первер": 5335,
      "компетент": 5336,
      "хвани": 5337,
      "формата": 5338,
      "момчета": 5339,
      "злобно": 5340,
      "гърди": 5341,
      "лицемери": 5342,
      "теб,": 5343,
      "живеете": 5344,
      "марта": 5345,
      "вление": 5346,
      "спреш": 5347,
      "некадърни": 5348,
      "последните": 5349,
      "добрата": 5350,
      "щяха": 5351,
      "започва": 5352,
      "слива": 5353,
      "бившия": 5354,
      "пореден": 5355,
      "възрастта": 5356,
      "натрапва": 5357,
      "-----": 5358,
      "отърва": 5359,
      "мартин": 5360,
      "посредстве": 5361,
      "личния": 5362,
      "принцесата": 5363,
      "бременна": 5364,
      "позволи": 5365,
      "дълбоко": 5366,
      "рожден": 5367,
      "трагедия": 5368,
      "интелигентен": 5369,
      "възхища": 5370,
      "цриптион": 5371,
      ",та": 5372,
      "/.": 5373,
      "21": 5374,
      "бят": 5375,
      "ех,": 5376,
      "лнa": 5377,
      "п,": 5378,
      "снa": 5379,
      "слa": 5380,
      "унищо": 5381,
      "шум": 5382,
      "тора": 5383,
      "качест": 5384,
      "негати": 5385,
      "кови": 5386,
      "зая": 5387,
      "сие": 5388,
      "сикти": 5389,
      "родо": 5390,
      "мехле": 5391,
      "кирил": 5392,
      "мишо": 5393,
      "моята": 5394,
      "дио": 5395,
      "жения": 5396,
      "бат": 5397,
      "цир": 5398,
      "цини": 5399,
      "цитири": 5400,
      "проя": 5401,
      "пробу": 5402,
      "променя": 5403,
      "пило": 5404,
      "преигра": 5405,
      "разя": 5406,
      "дум": 5407,
      "думите": 5408,
      "дупки": 5409,
      "тупа": 5410,
      "плате": 5411,
      "годишен": 5412,
      "курва,": 5413,
      "чето,": 5414,
      "лника": 5415,
      "ков.": 5416,
      "браво.": 5417,
      ",ами": 5418,
      "голема": 5419,
      "виждали": 5420,
      "ебахти": 5421,
      "мрънка": 5422,
      "големият": 5423,
      "пееш": 5424,
      "??????": 5425,
      "шоу.": 5426,
      "сърцето": 5427,
      "злобните": 5428,
      "лайня": 5429,
      "глупаци": 5430,
      "харесва,": 5431,
      "клоу": 5432,
      "шут": 5433,
      "чакам": 5434,
      "строй": 5435,
      "липса": 5436,
      "паднал": 5437,
      "сериоз": 5438,
      "анално": 5439,
      "доволна": 5440,
      "райна": 5441,
      "селяндур": 5442,
      "концерт": 5443,
      "готови": 5444,
      "бизнесмен": 5445,
      "матеря": 5446,
      "готвач": 5447,
      "скромно": 5448,
      "актьори": 5449,
      "мандръса": 5450,
      "процента": 5451,
      "мaнгa": 5452,
      "пресцриптион": 5453,
      "застарява": 5454,
      "агреси": 5455,
      "!и": 5456,
      ",това": 5457,
      ",какво": 5458,
      "aм": 5459,
      "ану": 5460,
      "ега": 5461,
      "л...": 5462,
      "одър": 5463,
      "справя": 5464,
      "х!": 5465,
      "цвете": 5466,
      "шве": 5467,
      "надолу": 5468,
      "тава": 5469,
      "тори": 5470,
      "тога": 5471,
      "кача": 5472,
      "канти": 5473,
      "рафи": 5474,
      "кока": 5475,
      "носе": 5476,
      "тично": 5477,
      "йор": 5478,
      "рен,": 5479,
      "четири": 5480,
      "лежи": 5481,
      "леку": 5482,
      "гала.": 5483,
      "отгледа": 5484,
      "мег": 5485,
      "мори": 5486,
      "жерт": 5487,
      "изра": 5488,
      "старите": 5489,
      "божи": 5490,
      "лукс": 5491,
      "грамо": 5492,
      "хумор": 5493,
      "платени": 5494,
      "снимат": 5495,
      "вам.": 5496,
      "веню": 5497,
      "остаря": 5498,
      "останаха": 5499,
      "работе": 5500,
      "него!": 5501,
      "спорти": 5502,
      "интересен": 5503,
      "чка!": 5504,
      "проста,": 5505,
      "малко.": 5506,
      "хер": 5507,
      "джиян": 5508,
      "предиз": 5509,
      "лия,": 5510,
      "зaщо": 5511,
      "новина.": 5512,
      "казваше": 5513,
      "тъпанар": 5514,
      "пяла": 5515,
      "))))": 5516,
      "мангала": 5517,
      "видят": 5518,
      "пaр": 5519,
      "турчи": 5520,
      "ивана": 5521,
      "благосло": 5522,
      "коментирате": 5523,
      "наричат": 5524,
      "положение": 5525,
      "помог": 5526,
      "валката": 5527,
      "начин.": 5528,
      "щяла": 5529,
      "завиждат": 5530,
      "стaвa": 5531,
      "досад": 5532,
      "позити": 5533,
      "светла": 5534,
      "ергена": 5535,
      "определя": 5536,
      "помислих,": 5537,
      "гаджето": 5538,
      "причината": 5539,
      "мълчи": 5540,
      "финан": 5541,
      "звучи": 5542,
      "бурга": 5543,
      "2-3": 5544,
      "/щ": 5545,
      "aр": 5546,
      "в!": 5547,
      "др.": 5548,
      "жор": 5549,
      "мрежи": 5550,
      "справе": 5551,
      "тц": 5552,
      "ье": 5553,
      "яж": 5554,
      "наш": 5555,
      "напослед": 5556,
      "негър": 5557,
      "когa": 5558,
      "маро": 5559,
      "понякога": 5560,
      "готова": 5561,
      "чела": 5562,
      "роб": 5563,
      "легло": 5564,
      "меко": 5565,
      "десе": 5566,
      "някак": 5567,
      "лови": 5568,
      "баху": 5569,
      "ста.": 5570,
      "пищо": 5571,
      "муста": 5572,
      "кучета": 5573,
      "тя.": 5574,
      "гледa": 5575,
      "тъпак": 5576,
      "сте.": 5577,
      "пуши": 5578,
      "пъту": 5579,
      "фици": 5580,
      "майки": 5581,
      "илия": 5582,
      "беше,": 5583,
      "кеба": 5584,
      "здрава!": 5585,
      "работи.": 5586,
      "тресе": 5587,
      "най-добре": 5588,
      "некадърен": 5589,
      "друго.": 5590,
      "парите.": 5591,
      "важна": 5592,
      "минало": 5593,
      "талант,": 5594,
      "личност": 5595,
      "музиката": 5596,
      "изкуствени": 5597,
      "господи": 5598,
      "махне": 5599,
      "родители": 5600,
      "реших": 5601,
      "курвети": 5602,
      "обясне": 5603,
      "твърди": 5604,
      "цвет": 5605,
      "--------": 5606,
      "сватба": 5607,
      "ъоуту": 5608,
      "решение": 5609,
      "араб": 5610,
      "програма": 5611,
      "генери": 5612,
      "антипати": 5613,
      "маряна": 5614,
      "съсипа": 5615,
      "възможност": 5616,
      "очевидно": 5617,
      "измишльоти": 5618,
      "гя": 5619,
      "евен": 5620,
      "нско": 5621,
      "офи": 5622,
      "фте": 5623,
      "цка": 5624,
      "то...": 5625,
      "ралица": 5626,
      "дадоха": 5627,
      "неве": 5628,
      "зан": 5629,
      "заве": 5630,
      "пола": 5631,
      "тича": 5632,
      "йно": 5633,
      "си!!!": 5634,
      "годин": 5635,
      "лев.": 5636,
      "отговаря": 5637,
      "минал": 5638,
      "моро": 5639,
      "доле": 5640,
      "щерката": 5641,
      "мул": 5642,
      "праща": 5643,
      "това!": 5644,
      "русо": 5645,
      "хотел": 5646,
      "зная": 5647,
      "цената": 5648,
      "ски.": 5649,
      "пусти": 5650,
      "рително": 5651,
      "суе": 5652,
      "главите": 5653,
      "буква": 5654,
      "страдат": 5655,
      "мъжкар": 5656,
      "чалгария": 5657,
      "трети": 5658,
      "травер": 5659,
      "ното.": 5660,
      "завистта": 5661,
      "другият": 5662,
      "направиш": 5663,
      "простите": 5664,
      "мерят": 5665,
      "мръсен": 5666,
      "творче": 5667,
      "онлай": 5668,
      "интересува.": 5669,
      "мангалка": 5670,
      "плющи": 5671,
      "клитор": 5672,
      "жалко.": 5673,
      "телевизии": 5674,
      "относно": 5675,
      "разбрахме": 5676,
      "нче,": 5677,
      "чакаме": 5678,
      "четете": 5679,
      "приятно": 5680,
      "здрави!": 5681,
      "алекса": 5682,
      "махнат": 5683,
      "ис-": 5684,
      "скрие": 5685,
      "физически": 5686,
      "съпруг": 5687,
      "здрав!": 5688,
      "маймуна": 5689,
      "страхотни": 5690,
      "морето": 5691,
      "смрад": 5692,
      "обиждате": 5693,
      "останало": 5694,
      "имитира": 5695,
      "благодарение": 5696,
      "тарикат": 5697,
      "чалгаджий": 5698,
      "дрислa": 5699,
      "награда": 5700,
      "половината": 5701,
      "кожата": 5702,
      "пудга": 5703,
      "зaнимa": 5704,
      "справедли": 5705,
      "5-": 5706,
      "вна.": 5707,
      "гря": 5708,
      "др": 5709,
      "ее,": 5710,
      "ил": 5711,
      "иза": 5712,
      "пна": 5713,
      "уя": 5714,
      "уши": 5715,
      "учу": 5716,
      "юм": 5717,
      "тоца": 5718,
      "ка?": 5719,
      "ва?": 5720,
      "вати": 5721,
      "васи": 5722,
      "ваща": 5723,
      "васил": 5724,
      "телен": 5725,
      "недъ": 5726,
      "невероят": 5727,
      "нечисто": 5728,
      "зай": 5729,
      "заха": 5730,
      "пот": 5731,
      "реги": 5732,
      "решава": 5733,
      "гон": 5734,
      "вили": 5735,
      "ческо": 5736,
      "родена": 5737,
      "ление.": 5738,
      "газъ": 5739,
      "мерно": 5740,
      "мити": 5741,
      "пани": 5742,
      "лорен": 5743,
      "извади": 5744,
      "бак": 5745,
      "бански": 5746,
      "боби": 5747,
      "това,че": 5748,
      "чий": 5749,
      "разоча": 5750,
      "ходите": 5751,
      "крадли": 5752,
      "само,": 5753,
      "правим": 5754,
      "общ": 5755,
      "безполе": 5756,
      "фир": 5757,
      "граф": 5758,
      "гледал": 5759,
      "смешен": 5760,
      "искаше": 5761,
      "страшен": 5762,
      "предполага": 5763,
      "манго": 5764,
      "хубавата": 5765,
      "спорт": 5766,
      "нея?": 5767,
      "парла": 5768,
      "виждате": 5769,
      "почне": 5770,
      "дебелата": 5771,
      "тук,": 5772,
      "устата.": 5773,
      "учин": 5774,
      "влади": 5775,
      "спечелиш": 5776,
      "барда": 5777,
      "вдигне": 5778,
      "андреа": 5779,
      "истинските": 5780,
      "затвор": 5781,
      "обясни": 5782,
      "морал": 5783,
      "булката": 5784,
      "овца": 5785,
      "извиня": 5786,
      "подхожда": 5787,
      "осъзна": 5788,
      "доказател": 5789,
      "психически": 5790,
      "притесня": 5791,
      "адски": 5792,
      "крачунов": 5793,
      "разваля": 5794,
      "търпение": 5795,
      "пространство": 5796,
      "ежедне": 5797,
      "генериц": 5798,
      "11": 5799,
      "72": 5800,
      "ари": 5801,
      "бтв.": 5802,
      "гьо": 5803,
      "дд": 5804,
      "дрa": 5805,
      "е-": 5806,
      "лл": 5807,
      "мбе": 5808,
      "оле": 5809,
      "сри": 5810,
      "хър": 5811,
      "ш?": 5812,
      "напусна": 5813,
      "то?": 5814,
      "кази": 5815,
      "калъ": 5816,
      "рая": 5817,
      "рали": 5818,
      "дание": 5819,
      "не...": 5820,
      "ним": 5821,
      "запло": 5822,
      "пона": 5823,
      "повърна": 5824,
      "сиг": 5825,
      "репор": 5826,
      "гора": 5827,
      "виза": 5828,
      "лева.": 5829,
      "гале": 5830,
      "доби": 5831,
      "изби": 5832,
      "прогно": 5833,
      "пена": 5834,
      "преси": 5835,
      "чан": 5836,
      "съжда": 5837,
      "русе": 5838,
      "руска": 5839,
      "прибра": 5840,
      "път,": 5841,
      "добрия": 5842,
      "графи": 5843,
      "нaли": 5844,
      "пари?": 5845,
      "вaте": 5846,
      "вaтa": 5847,
      "тaр": 5848,
      "обиди": 5849,
      "зова": 5850,
      "казали": 5851,
      "най-много": 5852,
      "зъб": 5853,
      "красива.": 5854,
      "бяло": 5855,
      "бяхте": 5856,
      "пърдя": 5857,
      "грознова": 5858,
      "сенза": 5859,
      "конста": 5860,
      "пръв": 5861,
      "новина,": 5862,
      "гримира": 5863,
      "мерканти": 5864,
      "хванал": 5865,
      "участни": 5866,
      "грозна.": 5867,
      "задния": 5868,
      "пеенето": 5869,
      "черпа": 5870,
      "грешки": 5871,
      "ента": 5872,
      "племе": 5873,
      "плеши": 5874,
      "място.": 5875,
      "влез": 5876,
      "изненада": 5877,
      "известно": 5878,
      "личности": 5879,
      "горки": 5880,
      "търсиш": 5881,
      "въпроса": 5882,
      "изкуствена": 5883,
      "хттпс://бит.лъ/2х": 5884,
      "възпитание": 5885,
      "започне": 5886,
      "чужби": 5887,
      "професо": 5888,
      "актьор,": 5889,
      "смисъ": 5890,
      "забравила": 5891,
      "фалшива": 5892,
      "близките": 5893,
      "операции": 5894,
      "единия": 5895,
      "елементарно": 5896,
      "танц": 5897,
      "симпатична": 5898,
      "спецялно": 5899,
      "славчо": 5900,
      "черешката": 5901,
      "пародия": 5902,
      "адекват": 5903,
      "анелия": 5904,
      "контро": 5905,
      "необходимо": 5906,
      "демонстри": 5907,
      "ада": 5908,
      "аро": 5909,
      "апе": 5910,
      "зра": 5911,
      "ира": 5912,
      "лка,": 5913,
      "остро": 5914,
      "снали": 5915,
      "тв,": 5916,
      "уми": 5917,
      "уха": 5918,
      "ябъл": 5919,
      "…..": 5920,
      "направя": 5921,
      "тако": 5922,
      "канят": 5923,
      "ващи": 5924,
      "не?": 5925,
      "маа": 5926,
      "мая": 5927,
      "лицата": 5928,
      "зале": 5929,
      "пови": 5930,
      "покани": 5931,
      "рели": 5932,
      "реша": 5933,
      "гала,": 5934,
      "момата": 5935,
      "изто": 5936,
      "петко": 5937,
      "пила": 5938,
      "пиши": 5939,
      "предва": 5940,
      "съща": 5941,
      "...много": 5942,
      "жилище": 5943,
      "крату": 5944,
      "менно": 5945,
      "соцял": 5946,
      "търа": 5947,
      "правил": 5948,
      "облек": 5949,
      "чужда": 5950,
      "такава.": 5951,
      "българи,": 5952,
      "дяво": 5953,
      "година.": 5954,
      "човекът": 5955,
      "парички": 5956,
      "страната": 5957,
      "фар": 5958,
      "знае.": 5959,
      "трето": 5960,
      "ков,": 5961,
      "вятъ": 5962,
      "децата.": 5963,
      "парти": 5964,
      "свекър": 5965,
      "джиев": 5966,
      "дни.": 5967,
      "конку": 5968,
      ",,,": 5969,
      "даваш": 5970,
      "ами,": 5971,
      "твор": 5972,
      "твоята": 5973,
      "неща,": 5974,
      "нещастен": 5975,
      "почва": 5976,
      "ужас,": 5977,
      "сърча": 5978,
      "хубаво,": 5979,
      "видял": 5980,
      "любовница": 5981,
      "недокла": 5982,
      "бaлгa": 5983,
      "мозъка": 5984,
      "вземеш": 5985,
      "сливен": 5986,
      "махна": 5987,
      "клет": 5988,
      "екран.": 5989,
      "младото": 5990,
      "съпругът": 5991,
      "ееееееее": 5992,
      "здравосло": 5993,
      "достойни": 5994,
      "излъчва": 5995,
      "покажете": 5996,
      "килограми": 5997,
      "тръгнал": 5998,
      "огромни": 5999,
      "книга": 6000,
      "свърш": 6001,
      "стигнете": 6002,
      "министър": 6003,
      "венета": 6004,
      "здх": 6005,
      "истинско": 6006,
      "тлъста": 6007,
      "уруспи": 6008,
      "журито": 6009,
      "комунисти": 6010,
      "кaмериморето.": 6011,
      "принцип": 6012,
      "английски": 6013,
      "дискоте": 6014,
      "квздх": 6015,
      "хттпс://бит.лъ/2хквздх": 6016,
      "кaмериморето.ети.пв": 6017,
      "1200": 6018,
      "адре": 6019,
      "ауууу": 6020,
      "звер": 6021,
      "лски": 6022,
      "оли": 6023,
      "успо": 6024,
      "цки": 6025,
      "ьр": 6026,
      "ядете": 6027,
      "касти": 6028,
      "вач": 6029,
      "дава.": 6030,
      "неде": 6031,
      "коп": 6032,
      "лиси": 6033,
      "зала": 6034,
      "запозна": 6035,
      "потен": 6036,
      "рист": 6037,
      "четвър": 6038,
      "милата": 6039,
      "деса": 6040,
      "мон": 6041,
      "моите": 6042,
      "пай": 6043,
      "жение.": 6044,
      "промя": 6045,
      "прост,": 6046,
      "съх": 6047,
      "...,": 6048,
      "...но": 6049,
      "стиска": 6050,
      "празна": 6051,
      "разведе": 6052,
      "ходе": 6053,
      "стоят": 6054,
      "брада": 6055,
      "може,": 6056,
      "сте!": 6057,
      "пух": 6058,
      "шан": 6059,
      "щият": 6060,
      "илиян": 6061,
      "слава.": 6062,
      "нуж": 6063,
      "искала": 6064,
      "бук": 6065,
      "булка": 6066,
      "човека,": 6067,
      "човешко": 6068,
      "по-голям": 6069,
      "кет": 6070,
      "еднакви": 6071,
      "негов": 6072,
      "вате.": 6073,
      "тримата": 6074,
      "тите,": 6075,
      "света.": 6076,
      "прости,": 6077,
      "новина!": 6078,
      "дълъ": 6079,
      "тъпаци": 6080,
      "дебелия": 6081,
      "колегите": 6082,
      "семейство,": 6083,
      "изневе": 6084,
      "полица": 6085,
      "дрънка": 6086,
      "лигаво": 6087,
      "почивка": 6088,
      "некадърници": 6089,
      "тинг": 6090,
      "смях.": 6091,
      "мария,": 6092,
      "малоумен": 6093,
      "реших,": 6094,
      "банда": 6095,
      "курветина": 6096,
      "изпълне": 6097,
      "тоале": 6098,
      "знаят,": 6099,
      "натрапват": 6100,
      "малоумници": 6101,
      "болест": 6102,
      "болница": 6103,
      "блог": 6104,
      "миризлива": 6105,
      "жълти": 6106,
      "историята": 6107,
      "посредствен": 6108,
      "проститутка.": 6109,
      "татуиров": 6110,
      "заплата": 6111,
      "певачка": 6112,
      "данъци": 6113,
      "фермата.": 6114,
      "покритие": 6115,
      "странно": 6116,
      "падение": 6117,
      "гаранти": 6118,
      "корона": 6119,
      "чаровна": 6120,
      "възстано": 6121,
      "мехлем": 6122,
      "онлайн": 6123,
      ",кой": 6124,
      "-те": 6125,
      "93": 6126,
      "99": 6127,
      "вния": 6128,
      "зми": 6129,
      "ив": 6130,
      "офф": 6131,
      "уи": 6132,
      "ута": 6133,
      "яла": 6134,
      "нагли": 6135,
      "нагажда": 6136,
      "тати": 6137,
      "дами": 6138,
      "теди": 6139,
      "неин": 6140,
      "ненормални": 6141,
      "космо": 6142,
      "носят": 6143,
      "мафи": 6144,
      "зар": 6145,
      "ситуа": 6146,
      "гори": 6147,
      "годе": 6148,
      "ческата": 6149,
      "моят": 6150,
      "стрa": 6151,
      "дон,": 6152,
      "бени": 6153,
      "изкри": 6154,
      "избор": 6155,
      "измет": 6156,
      "прова": 6157,
      "преце": 6158,
      "препоръ": 6159,
      "съчи": 6160,
      "съвет": 6161,
      "...\"": 6162,
      "мун": 6163,
      "хожда": 6164,
      "обща": 6165,
      "чукат": 6166,
      "рите!": 6167,
      "хумо": 6168,
      "плаше": 6169,
      "платена": 6170,
      "сладка": 6171,
      "шоф": 6172,
      "вяват": 6173,
      "вие,": 6174,
      "врата": 6175,
      "мян": 6176,
      "дъх": 6177,
      "евтина": 6178,
      "оо,": 6179,
      "лите.": 6180,
      "пишете,": 6181,
      "боклуци.": 6182,
      "първото": 6183,
      "снимка.": 6184,
      "живот!": 6185,
      "любов.": 6186,
      "неща.": 6187,
      "ужасна": 6188,
      "шоу,": 6189,
      "плюят": 6190,
      "спару": 6191,
      "ясно.": 6192,
      "лошо,": 6193,
      "клоун": 6194,
      "наркомани": 6195,
      "абсолютна": 6196,
      "искре": 6197,
      "идея": 6198,
      "бизнеса": 6199,
      "висока": 6200,
      "следващата": 6201,
      "забавлява": 6202,
      "пуснат": 6203,
      "показала": 6204,
      "телевизията,": 6205,
      "правеше": 6206,
      "простотии.": 6207,
      "стандар": 6208,
      "причина": 6209,
      "случило": 6210,
      "фейс": 6211,
      "типичен": 6212,
      "пластични": 6213,
      "пазар": 6214,
      "евтини": 6215,
      "кръчмар": 6216,
      "забележи": 6217,
      "ха-ха-": 6218,
      "сравнение": 6219,
      "повтаря": 6220,
      "олигофрени": 6221,
      "простакеса": 6222,
      "хляб": 6223,
      "подража": 6224,
      "инфлуенсър": 6225,
      "трифонов": 6226,
      "упорити": 6227,
      "патрашкова": 6228,
      "германия": 6229,
      "%д1%8": 6230,
      "константи": 6231,
      "!?!": 6232,
      ",как": 6233,
      ",нито": 6234,
      "-преднисоне": 6235,
      "13": 6236,
      "1ш": 6237,
      "2.": 6238,
      "вз": 6239,
      "влича": 6240,
      "глъ": 6241,
      "ева,": 6242,
      "ебъ": 6243,
      "зят": 6244,
      "к....": 6245,
      "оре": 6246,
      "сфин": 6247,
      "член": 6248,
      "шната": 6249,
      "нару": 6250,
      "тара": 6251,
      "таня": 6252,
      "каса": 6253,
      "камо": 6254,
      "каца": 6255,
      "капки": 6256,
      "вашата": 6257,
      "дадат": 6258,
      "тере": 6259,
      "тен.": 6260,
      "номе": 6261,
      "маи": 6262,
      "лила": 6263,
      "за,": 6264,
      "запад": 6265,
      "седна": 6266,
      "сегa": 6267,
      "попитам": 6268,
      "год.": 6269,
      "вина": 6270,
      "лер": 6271,
      "век": 6272,
      "отглежда": 6273,
      "кила": 6274,
      "допуска": 6275,
      "папа": 6276,
      "папи": 6277,
      "жение,": 6278,
      "щение": 6279,
      "измисля": 6280,
      "изхвърли": 6281,
      "бабо": 6282,
      "цитира": 6283,
      "прово": 6284,
      "що.": 6285,
      "петро": 6286,
      "пишки": 6287,
      "шей": 6288,
      "практи": 6289,
      "чие": 6290,
      "имали": 6291,
      "приса": 6292,
      "разпла": 6293,
      "тук.": 6294,
      "ши.": 6295,
      "пъзе": 6296,
      "дърто": 6297,
      "върнат": 6298,
      "майка.": 6299,
      "слава,": 6300,
      "им,": 6301,
      "толковa": 6302,
      "нали.": 6303,
      "вaр": 6304,
      "фект": 6305,
      "той,": 6306,
      "тaм": 6307,
      "детето.": 6308,
      "някой,": 6309,
      "мaтa": 6310,
      "клас": 6311,
      "повече,": 6312,
      "фолка": 6313,
      "карва": 6314,
      "гнусо": 6315,
      "вай,": 6316,
      "пеене": 6317,
      "сложат": 6318,
      "2020": 6319,
      "черна": 6320,
      "пaк": 6321,
      "бабата": 6322,
      "турция": 6323,
      "продукти": 6324,
      "рачков.": 6325,
      "...........": 6326,
      "жената.": 6327,
      "чката,": 6328,
      "некадърна": 6329,
      "връщат": 6330,
      "красавец": 6331,
      "победи": 6332,
      "българина": 6333,
      "умее": 6334,
      "кажа,": 6335,
      "насят": 6336,
      "абсолютни": 6337,
      "карика": 6338,
      "любиме": 6339,
      "група": 6340,
      "истори": 6341,
      "забавно": 6342,
      "неприятни": 6343,
      "дрога": 6344,
      "създаде": 6345,
      "двамата,": 6346,
      "певец,": 6347,
      "гд93": 6348,
      "стоичков": 6349,
      "оригина": 6350,
      "световна": 6351,
      "крaси": 6352,
      "мълча": 6353,
      "адмира": 6354,
      "оплак": 6355,
      "кргд93": 6356,
      "рейтинга": 6357,
      "природа": 6358,
      "буъ-преднисоне": 6359,
      "весели": 6360,
      "арменски": 6361,
      "изигра": 6362,
      "бездарно": 6363,
      "трагеди": 6364,
      "хттп://мевкид.нет/буъ-преднисоне": 6365,
      "ноктите.": 6366,
      "кофти": 6367,
      "енерги": 6368,
      "холивуд": 6369,
      "бонус": 6370,
      "малдивите": 6371,
      "напоследък": 6372,
      "\"\"": 6373,
      ",от": 6374,
      "-много": 6375,
      ":1": 6376,
      "елен": 6377,
      "ебли": 6378,
      "зз": 6379,
      "псу": 6380,
      "пфу": 6381,
      "рва": 6382,
      "тн": 6383,
      "хили": 6384,
      "хте,": 6385,
      "цц": 6386,
      "нация": 6387,
      "направе": 6388,
      "варна": 6389,
      "дарко": 6390,
      "дама.": 6391,
      "ко!": 6392,
      "кост": 6393,
      "линия": 6394,
      "затъ": 6395,
      "затва": 6396,
      "тихо": 6397,
      "ресто": 6398,
      "лепа": 6399,
      "вещи": 6400,
      "отпред": 6401,
      "дева": 6402,
      "дево": 6403,
      "дения": 6404,
      "мол": 6405,
      "беее": 6406,
      "берат": 6407,
      "щен": 6408,
      "изоста": 6409,
      "издръж": 6410,
      "ционе": 6411,
      "старата": 6412,
      "продават": 6413,
      "ляк": 6414,
      "лято": 6415,
      "многото": 6416,
      "жалост": 6417,
      "кънчев": 6418,
      "разпра": 6419,
      "хоут": 6420,
      "це.": 6421,
      "инфо": 6422,
      "информира": 6423,
      "шиша": 6424,
      "мъчи": 6425,
      "вървят": 6426,
      "гледала": 6427,
      "плажа": 6428,
      "смело": 6429,
      "гласо": 6430,
      "иска,": 6431,
      "бути": 6432,
      "човешки": 6433,
      "предло": 6434,
      "останат": 6435,
      "снаха": 6436,
      "всичкото": 6437,
      "простата": 6438,
      "зависи": 6439,
      "малко,": 6440,
      "живка": 6441,
      "вете.": 6442,
      "момиченце": 6443,
      "комбина": 6444,
      "коментари,": 6445,
      "карбов": 6446,
      "хванат": 6447,
      "играч": 6448,
      "клюки": 6449,
      "бъдеш": 6450,
      "глупостите": 6451,
      "жалко!": 6452,
      "селянин": 6453,
      "червен": 6454,
      "парите,": 6455,
      "трът": 6456,
      "харесва.": 6457,
      "поредният": 6458,
      "щастливо": 6459,
      "господа": 6460,
      "начина": 6461,
      "мнение.": 6462,
      "гейо": 6463,
      "завиждате": 6464,
      "излеку": 6465,
      "същият": 6466,
      "култур": 6467,
      "бивша": 6468,
      "фотошопа": 6469,
      "дроги": 6470,
      "противна,": 6471,
      "написаното": 6472,
      "бръчка": 6473,
      "маймуни": 6474,
      "главата,": 6475,
      "въпросната": 6476,
      "травестит.": 6477,
      "близки": 6478,
      "концерти": 6479,
      "готов": 6480,
      "интелигентна": 6481,
      "проститутка,": 6482,
      "смуче": 6483,
      "отрепки": 6484,
      "aмaн": 6485,
      "влюбен": 6486,
      "корекции": 6487,
      "рррр": 6488,
      "очаквате": 6489,
      "надявам": 6490,
      "лесби": 6491,
      "витхоут": 6492,
      "миналата": 6493,
      "манипула": 6494,
      "фитнес": 6495,
      "д-р": 6496,
      "ресторант": 6497,
      ",тя": 6498,
      "-опитай": 6499,
      "?в": 6500,
      "анала": 6501,
      "вза": 6502,
      "зряла": 6503,
      "и?": 6504,
      "к?": 6505,
      "кг": 6506,
      "од": 6507,
      "оди": 6508,
      "опра": 6509,
      "пс": 6510,
      "срa": 6511,
      "тка,": 6512,
      "фли": 6513,
      "хот": 6514,
      "хлю": 6515,
      "чна.": 6516,
      "ям": 6517,
      "таша": 6518,
      "телни": 6519,
      "неделя": 6520,
      "коза": 6521,
      "коло": 6522,
      "косата": 6523,
      "лика": 6524,
      "ре,": 6525,
      "рес": 6526,
      "вир": 6527,
      "честен": 6528,
      "гади": 6529,
      "откакто": 6530,
      "милко": 6531,
      "митьо": 6532,
      "демек": 6533,
      "мото": 6534,
      "мове": 6535,
      "мост": 6536,
      "пате": 6537,
      "зи.": 6538,
      "изхвър": 6539,
      "изживя": 6540,
      "прекара": 6541,
      "ляват": 6542,
      "рълев": 6543,
      "къси": 6544,
      "различно": 6545,
      "дупарата": 6546,
      "инти": 6547,
      "инвести": 6548,
      "люси": 6549,
      "мъни": 6550,
      "хора?": 6551,
      "плачков": 6552,
      "ама,": 6553,
      "драма": 6554,
      "гласа": 6555,
      "та,а": 6556,
      "!!!!!!!!!": 6557,
      "мангу": 6558,
      "факт": 6559,
      "снала": 6560,
      "дaно": 6561,
      "аа,": 6562,
      "истина,": 6563,
      "истина.": 6564,
      "ковци": 6565,
      "парвеню": 6566,
      "предим": 6567,
      "джър": 6568,
      "твоите": 6569,
      "нещасти": 6570,
      "успешно": 6571,
      "пееше": 6572,
      "мангаса": 6573,
      "дъщери": 6574,
      "изнена": 6575,
      "разбрах,": 6576,
      "своите": 6577,
      "българският": 6578,
      "реклa": 6579,
      "доброто": 6580,
      "ценности": 6581,
      "радват": 6582,
      "момичето,": 6583,
      "решила": 6584,
      "гръб": 6585,
      "скрий": 6586,
      "фотошопира": 6587,
      "вълше": 6588,
      "достойно": 6589,
      "елементарна": 6590,
      "намират": 6591,
      "игно": 6592,
      "стреля": 6593,
      "кариерата": 6594,
      "отреп": 6595,
      "мале,": 6596,
      "пияндур": 6597,
      "корем": 6598,
      "мразят": 6599,
      "поколения": 6600,
      "ангелов": 6601,
      "персона": 6602,
      "устните": 6603,
      "подкрепям": 6604,
      "измам": 6605,
      "забременя": 6606,
      "говедо": 6607,
      "компания": 6608,
      "епизо": 6609,
      "психятър": 6610,
      "режисьор": 6611,
      "пловдив": 6612,
      "лоренцо": 6613,
      "сфинк": 6614,
      "ноктите.ако": 6615,
      "\"-": 6616,
      ".ако": 6617,
      "/,": 6618,
      "/и": 6619,
      "35": 6620,
      "__": 6621,
      "ати": 6622,
      "аби": 6623,
      "вки.": 6624,
      "втръ": 6625,
      "двa": 6626,
      "жки": 6627,
      "ир": 6628,
      "мл": 6629,
      "нга": 6630,
      "нка,": 6631,
      "рде": 6632,
      "сма": 6633,
      "скръ": 6634,
      "шш": 6635,
      "шка,": 6636,
      "ь.": 6637,
      "набу": 6638,
      "накара": 6639,
      "намерят": 6640,
      "равно": 6641,
      "нина": 6642,
      "ни...": 6643,
      "ниска": 6644,
      "никоя": 6645,
      "кобила": 6646,
      "косми": 6647,
      "но...": 6648,
      "нов.": 6649,
      "зал": 6650,
      "пости": 6651,
      "покри": 6652,
      "порт": 6653,
      "лако": 6654,
      "чен.": 6655,
      "рода": 6656,
      "леп": 6657,
      "вето": 6658,
      "гав": 6659,
      "отц": 6660,
      "отбор": 6661,
      "отчай": 6662,
      "кичо": 6663,
      "миря": 6664,
      "дебили": 6665,
      "ства.": 6666,
      "димо": 6667,
      "доко": 6668,
      "паради": 6669,
      "женят": 6670,
      "няват": 6671,
      "измъ": 6672,
      "бачка": 6673,
      "профи": 6674,
      "пий": 6675,
      "пилен": 6676,
      "бото": 6677,
      "събере": 6678,
      "стинa": 6679,
      "гимна": 6680,
      "хоте": 6681,
      "глезе": 6682,
      "земе": 6683,
      "шам": 6684,
      "върже": 6685,
      "майка,": 6686,
      "рaбот": 6687,
      "страху": 6688,
      "фера": 6689,
      "феновете": 6690,
      "криси": 6691,
      "ден!": 6692,
      "гъзи": 6693,
      "пардон": 6694,
      "джиева": 6695,
      "грозни,": 6696,
      "'',": 6697,
      "сигур": 6698,
      "мислиш": 6699,
      "виждаме": 6700,
      "мерце": 6701,
      "твой": 6702,
      "ужасни": 6703,
      "осво": 6704,
      "говори,": 6705,
      "клиенти": 6706,
      "нейно": 6707,
      "нки,": 6708,
      "телевизия.": 6709,
      "втората": 6710,
      "спал": 6711,
      "спала": 6712,
      "имена": 6713,
      "милион": 6714,
      "живееш": 6715,
      "внимание,": 6716,
      "мозъчни": 6717,
      "вземете": 6718,
      "село.": 6719,
      "раждането": 6720,
      "погледна": 6721,
      "чалгарски": 6722,
      "никол,": 6723,
      "забавен": 6724,
      "селския": 6725,
      "потрес": 6726,
      "борис": 6727,
      "сайта": 6728,
      "пияна": 6729,
      "пияница": 6730,
      "натрапвате": 6731,
      "кокошка": 6732,
      "долната": 6733,
      "%д0%бе": 6734,
      "готино": 6735,
      "красотата": 6736,
      "физиономията": 6737,
      "целува": 6738,
      "кинти,": 6739,
      "помним": 6740,
      "мацка": 6741,
      "умират": 6742,
      "виснали": 6743,
      "паднали": 6744,
      "димитров": 6745,
      "бездарен": 6746,
      "кобрата": 6747,
      "халваджиян": 6748,
      "поръчам": 6749,
      "произхо": 6750,
      "конкурс": 6751,
      "аудиторията": 6752,
      "автор": 6753,
      "засрамете": 6754,
      ":-)": 6755,
      "братовче": 6756,
      "михаела": 6757,
      "продуценти": 6758,
      "разочарова": 6759,
      "-и": 6760,
      "-та": 6761,
      ".много": 6762,
      "1ч": 6763,
      "ава": 6764,
      "аха": 6765,
      "афи": 6766,
      "агне": 6767,
      "аген": 6768,
      "вка.": 6769,
      "з,": 6770,
      "имоти": 6771,
      "крите": 6772,
      "нде": 6773,
      "оправят": 6774,
      "пф": 6775,
      "ппод": 6776,
      "пр.": 6777,
      "рка.": 6778,
      "рка,": 6779,
      "х...": 6780,
      "храчков": 6781,
      "юк": 6782,
      "нана": 6783,
      "тате": 6784,
      "кала": 6785,
      "даря": 6786,
      "тема": 6787,
      "закъ": 6788,
      "запъл": 6789,
      "запази": 6790,
      "зареже": 6791,
      "се,че": 6792,
      "пока": 6793,
      "сире": 6794,
      "сите.": 6795,
      "рено": 6796,
      "год": 6797,
      "гари": 6798,
      "отне": 6799,
      "мед": 6800,
      "дира": 6801,
      "беден": 6802,
      "изпита": 6803,
      "избере": 6804,
      "циона": 6805,
      "произве": 6806,
      "бони": 6807,
      "преживя": 6808,
      "съвремен": 6809,
      "кубрат": 6810,
      "ръко": 6811,
      "цар": 6812,
      "разчита": 6813,
      "хори": 6814,
      "знам.": 6815,
      "цена": 6816,
      "ната!": 6817,
      "едвам": 6818,
      "въобраз": 6819,
      "стефа": 6820,
      "инжек": 6821,
      "следи": 6822,
      "чували": 6823,
      "фите": 6824,
      "драго": 6825,
      "гладни": 6826,
      "слави,": 6827,
      "сега.": 6828,
      "на,че": 6829,
      "годишно": 6830,
      "годишни": 6831,
      "лен,": 6832,
      "човека.": 6833,
      "обикаля": 6834,
      "ьори": 6835,
      "споделя": 6836,
      "денти": 6837,
      "чалгарите": 6838,
      "гъзе": 6839,
      "простащина": 6840,
      "стига,": 6841,
      "пърди": 6842,
      "грозните": 6843,
      "ебаси": 6844,
      "хттпс://е": 6845,
      "лки.": 6846,
      "злоба.": 6847,
      "тях!": 6848,
      "против,": 6849,
      "твори": 6850,
      "твоето": 6851,
      "каже,": 6852,
      "секс.": 6853,
      ")))": 6854,
      "милиона": 6855,
      "мислете": 6856,
      "гърдите": 6857,
      "теб!": 6858,
      "заслужават": 6859,
      "власт": 6860,
      "победа": 6861,
      "мисля,че": 6862,
      "майката,": 6863,
      "талантливи": 6864,
      "идеа": 6865,
      "маринова": 6866,
      "зрители": 6867,
      "цвета": 6868,
      "написал": 6869,
      "еману": 6870,
      "модерно": 6871,
      "булгa": 6872,
      "успял": 6873,
      "успяла": 6874,
      "хттп://бит.лъ/2кянпьз": 6875,
      "готини": 6876,
      "седмици": 6877,
      "огледалото": 6878,
      "качества": 6879,
      "впечатление": 6880,
      "прилика": 6881,
      "фамилията": 6882,
      "лондон": 6883,
      "сладурана": 6884,
      "подраства": 6885,
      "пампер": 6886,
      "инстаграм": 6887,
      "теодора": 6888,
      "вятъра": 6889,
      "дълъг": 6890,
      "aс": 6891,
      "аня": 6892,
      "анал": 6893,
      "вси": 6894,
      "ицо": 6895,
      "нките": 6896,
      "чъ": 6897,
      "шния": 6898,
      "юна": 6899,
      "нах": 6900,
      "насо": 6901,
      "наши": 6902,
      "напише": 6903,
      "катя": 6904,
      "радев": 6905,
      "тегло": 6906,
      "нео": 6907,
      "нева": 6908,
      "неско": 6909,
      "некви": 6910,
      "неверо": 6911,
      "коби": 6912,
      "закон": 6913,
      "сестри": 6914,
      "поля": 6915,
      "погроз": 6916,
      "йска": 6917,
      "рен.": 6918,
      "лата.": 6919,
      "чеки": 6920,
      "роден": 6921,
      "ление,": 6922,
      "гат": 6923,
      "отро": 6924,
      "мерак": 6925,
      "кири": 6926,
      "сани": 6927,
      "мизер": 6928,
      "де!": 6929,
      "дееба": 6930,
      "дик": 6931,
      "дива": 6932,
      "жене": 6933,
      "изме": 6934,
      "бани": 6935,
      "бито": 6936,
      "биле": 6937,
      "пипи": 6938,
      "пича": 6939,
      "пичове": 6940,
      "превърна": 6941,
      "стиян": 6942,
      "рут": 6943,
      "руса": 6944,
      "менна": 6945,
      "менте": 6946,
      "ждане": 6947,
      "стери": 6948,
      "правили": 6949,
      "шавра": 6950,
      "план": 6951,
      "глави": 6952,
      "грозен,": 6953,
      "орга": 6954,
      "чно,": 6955,
      "рaт": 6956,
      "представа": 6957,
      "предaвa": 6958,
      "кaт": 6959,
      "курвa": 6960,
      "еднакво": 6961,
      "обич": 6962,
      "дете!": 6963,
      "мята": 6964,
      "знаеше": 6965,
      "редно": 6966,
      "най-голямата": 6967,
      "години!": 6968,
      "тради": 6969,
      "простафе": 6970,
      "говоря": 6971,
      "умрял": 6972,
      "жени!": 6973,
      "другите.": 6974,
      "свестен": 6975,
      "връх": 6976,
      "комши": 6977,
      "визията": 6978,
      "ебан": 6979,
      "мръсно": 6980,
      "хвале": 6981,
      "семейства": 6982,
      "нейни": 6983,
      "турско": 6984,
      "простотия,": 6985,
      "намерил": 6986,
      "тъпия": 6987,
      "семейство!": 6988,
      "гордо": 6989,
      "коментирам": 6990,
      "албена": 6991,
      "проблемите": 6992,
      "проблеми.": 6993,
      "проблемът": 6994,
      "работила": 6995,
      "приятна": 6996,
      "госпожо": 6997,
      "победата": 6998,
      "външен": 6999,
      "особен": 7000,
      "изключение": 7001,
      "липсват": 7002,
      "сериозен": 7003,
      "позьор": 7004,
      "актриса.": 7005,
      "идеал": 7006,
      "красавица,": 7007,
      "потреса": 7008,
      "пуснал": 7009,
      "твърдо": 7010,
      "светли": 7011,
      "синчето": 7012,
      "вярно,": 7013,
      "алкохол": 7014,
      "фалшиви": 7015,
      "малоумни": 7016,
      "циганина": 7017,
      "пенсио": 7018,
      "единият": 7019,
      "циганката": 7020,
      "типична": 7021,
      "мaйкa": 7022,
      "приказки": 7023,
      "гущер": 7024,
      "бояди": 7025,
      "сексапи": 7026,
      "реалити": 7027,
      "облече": 7028,
      "прочетете": 7029,
      "печелят": 7030,
      "отишла": 7031,
      "навирате": 7032,
      "публикувате": 7033,
      "калоян": 7034,
      "оздравяване": 7035,
      "спрат": 7036,
      "пробутва": 7037,
      "мулти": 7038,
      "соцялните": 7039,
      ",ти": 7040,
      "3ч": 7041,
      "бь": 7042,
      "впроче": 7043,
      "вхaт": 7044,
      "ещи": 7045,
      "ждa": 7046,
      "ирина": 7047,
      "мю": 7048,
      "оздраве": 7049,
      "пп": 7050,
      "сд": 7051,
      "у.": 7052,
      "яки": 7053,
      "накъде": 7054,
      "кап": 7055,
      "кава": 7056,
      "ващ": 7057,
      "вашия": 7058,
      "тене": 7059,
      "тест": 7060,
      "невин": 7061,
      "кори": 7062,
      "копи": 7063,
      "коман": 7064,
      "маши": 7065,
      "масата": 7066,
      "забо": 7067,
      "зараз": 7068,
      "потърси": 7069,
      "реза": 7070,
      "роман": 7071,
      "лево": 7072,
      "лението": 7073,
      "леген": 7074,
      "лечение": 7075,
      "отдолу": 7076,
      "мебе": 7077,
      "водят": 7078,
      "милото": 7079,
      "ства,": 7080,
      "ствата": 7081,
      "довате": 7082,
      "пана": 7083,
      "безин": 7084,
      "зия": 7085,
      "банди": 7086,
      "прокура": 7087,
      "преца": 7088,
      "части": 7089,
      "...?": 7090,
      "прах": 7091,
      "жител": 7092,
      "лупа": 7093,
      "лудни": 7094,
      "русия": 7095,
      "прибере": 7096,
      "нямало": 7097,
      "ща,": 7098,
      "обсъжда": 7099,
      "шама": 7100,
      "чудят": 7101,
      "филип": 7102,
      "графа": 7103,
      "така!": 7104,
      "гледане": 7105,
      "сул": 7106,
      "нaл": 7107,
      "хубa": 7108,
      "ване!": 7109,
      "илиева": 7110,
      "орлин": 7111,
      "лен.": 7112,
      "по-голяма": 7113,
      "толкова,": 7114,
      "курва.": 7115,
      "зори": 7116,
      "требва": 7117,
      "еее,": 7118,
      "бяла": 7119,
      "цола": 7120,
      "хел": 7121,
      "хере": 7122,
      "урва": 7123,
      "държание": 7124,
      "предаване!": 7125,
      "тенцето": 7126,
      "живей": 7127,
      "отиват": 7128,
      "злобарите": 7129,
      "любов,": 7130,
      "кажем": 7131,
      "пяр": 7132,
      "играят": 7133,
      "ужася": 7134,
      "сърди": 7135,
      "верго": 7136,
      "телевизион": 7137,
      "пенде": 7138,
      "гърция": 7139,
      "благодари": 7140,
      "великата": 7141,
      "звездите": 7142,
      "алчни": 7143,
      "здраве,": 7144,
      "здравето": 7145,
      "слушат": 7146,
      "вируса": 7147,
      "четем": 7148,
      "онези": 7149,
      "строите": 7150,
      "разликата": 7151,
      "статия,": 7152,
      "журналистите": 7153,
      "подобна": 7154,
      "обади": 7155,
      "думи.": 7156,
      "чуждо": 7157,
      "вдиг": 7158,
      "талантливо": 7159,
      "марий": 7160,
      "купила": 7161,
      "красавица.": 7162,
      "порнос": 7163,
      "истината.": 7164,
      "тайната": 7165,
      "щастието": 7166,
      "свършиха": 7167,
      "чудесна": 7168,
      "разберете": 7169,
      "отношения": 7170,
      "ориента": 7171,
      "шибам": 7172,
      "проститутки.": 7173,
      "блъска": 7174,
      "поставя": 7175,
      "създание": 7176,
      "единствената": 7177,
      "наричате": 7178,
      "идват": 7179,
      "апартамент": 7180,
      "целият": 7181,
      "майстор": 7182,
      "попова": 7183,
      "балъци": 7184,
      "задължително": 7185,
      "инстагра": 7186,
      "хейтъри": 7187,
      "хорaтa": 7188,
      "македо": 7189,
      "освобо": 7190,
      "нескопо": 7191,
      ",по": 7192,
      ",която": 7193,
      ".за": 7194,
      "aк": 7195,
      "вс": 7196,
      "еве": 7197,
      "етно": 7198,
      "ия": 7199,
      "ист": 7200,
      "игна": 7201,
      "к-": 7202,
      "лство": 7203,
      "ора": 7204,
      "оте": 7205,
      "рь": 7206,
      "смръ": 7207,
      "счупи": 7208,
      "уп": 7209,
      "усе": 7210,
      "уроди": 7211,
      "хлен": 7212,
      "❤️": 7213,
      "нало": 7214,
      "насла": 7215,
      "наложи": 7216,
      "неграмо": 7217,
      "ниaмa": 7218,
      "лили,": 7219,
      "сера": 7220,
      "повод": 7221,
      "чев,": 7222,
      "рове": 7223,
      "лева,": 7224,
      "отмъ": 7225,
      "диви": 7226,
      "дола": 7227,
      "доведе": 7228,
      "панай": 7229,
      "зина": 7230,
      "изпер": 7231,
      "бати": 7232,
      "баста": 7233,
      "батко": 7234,
      "библи": 7235,
      "проме": 7236,
      "пит": 7237,
      "жавам": 7238,
      "чии": 7239,
      "чието": 7240,
      "....да": 7241,
      "прикри": 7242,
      "целта": 7243,
      "наталия": 7244,
      "инстру": 7245,
      "тази.": 7246,
      "вече!": 7247,
      "шафран": 7248,
      "лъха": 7249,
      "суб": 7250,
      "худо": 7251,
      "пламен": 7252,
      "драга": 7253,
      "глас.": 7254,
      "та,че": 7255,
      "нула": 7256,
      "трябва.": 7257,
      "ско,": 7258,
      "ско.": 7259,
      "паричките": 7260,
      "остават": 7261,
      "работи,": 7262,
      "детето,": 7263,
      "лният": 7264,
      "коментa": 7265,
      "мaлко": 7266,
      "взеха": 7267,
      "бял": 7268,
      "хен": 7269,
      "хеки": 7270,
      "фору": 7271,
      "е.а": 7272,
      "нка!": 7273,
      "новият": 7274,
      "хората!": 7275,
      "джор": 7276,
      "животно": 7277,
      "хттпс://доцтормедвеб.цом/": 7278,
      "днешно": 7279,
      "изглеждаше": 7280,
      "успех.": 7281,
      "родината": 7282,
      "мърши": 7283,
      "вид.": 7284,
      "лайната": 7285,
      "разбрахте": 7286,
      "лошо.": 7287,
      "стъпле": 7288,
      "шумен": 7289,
      "дрисни": 7290,
      "въпроси": 7291,
      "парцали": 7292,
      "парцала": 7293,
      "народна": 7294,
      "генчо": 7295,
      "сериозни": 7296,
      "момичето.": 7297,
      "айде,": 7298,
      "решил": 7299,
      "харчат": 7300,
      "бивш": 7301,
      "истории": 7302,
      "околовръ": 7303,
      "сайто": 7304,
      "честит": 7305,
      "поръчка": 7306,
      "студент": 7307,
      "щастие!": 7308,
      "държавата.": 7309,
      "водещ.": 7310,
      "ваксина": 7311,
      "концерта": 7312,
      "победител.": 7313,
      "огромен": 7314,
      "измислен": 7315,
      "тарика": 7316,
      "подигравка": 7317,
      "вaтч": 7318,
      "психично": 7319,
      "постанов": 7320,
      "индивиди": 7321,
      "единственото": 7322,
      "напълня": 7323,
      "драскачи": 7324,
      "алкохолик": 7325,
      "съгласна": 7326,
      "участие": 7327,
      "поеме": 7328,
      "извънзе": 7329,
      "стойностни": 7330,
      "възраст.": 7331,
      "икономи": 7332,
      "испания": 7333,
      "значение.": 7334,
      "копеле": 7335,
      "състояние": 7336,
      "мрежа": 7337,
      "провинця": 7338,
      "фостата": 7339,
      "к'во": 7340,
      "николета": 7341,
      "демонстрира": 7342,
      "хттп://мевкид.нет/буъ-преднисоне/": 7343,
      "невероя": 7344,
      ",което": 7345,
      "150": 7346,
      "89": 7347,
      ":(": 7348,
      "a.": 7349,
      "афри": 7350,
      "вы": 7351,
      "еи": 7352,
      "ес": 7353,
      "змо": 7354,
      "лна.": 7355,
      "мв": 7356,
      "охра": 7357,
      "уплаши": 7358,
      "шльо": 7359,
      "нас.": 7360,
      "нашия": 7361,
      "токе": 7362,
      "ка...": 7363,
      "кару": 7364,
      "вагина": 7365,
      "нето,": 7366,
      "нетърпение": 7367,
      "мае": 7368,
      "лил": 7369,
      "заго": 7370,
      "запом": 7371,
      "поду": 7372,
      "посме": 7373,
      "похва": 7374,
      "синче": 7375,
      "рират": 7376,
      "годжи": 7377,
      "гай": 7378,
      "гадо": 7379,
      "меки": 7380,
      "мия,": 7381,
      "дебил": 7382,
      "моменти": 7383,
      "доказва": 7384,
      "изми": 7385,
      "издържи": 7386,
      "баре": 7387,
      "баха": 7388,
      "бащи": 7389,
      "просте": 7390,
      "що,": 7391,
      "пик": 7392,
      "бой,": 7393,
      "муш": 7394,
      "прав.": 7395,
      "жаба": 7396,
      "чица,": 7397,
      "куби": 7398,
      "....,": 7399,
      "раздава": 7400,
      "крак": 7401,
      "крачо": 7402,
      "самото": 7403,
      "тут": 7404,
      "турата": 7405,
      "обслуж": 7406,
      "този.": 7407,
      "фирма": 7408,
      "лъче": 7409,
      "шопар": 7410,
      "шокира": 7411,
      "паричко": 7412,
      "предпочи": 7413,
      "предложи": 7414,
      "останал": 7415,
      "хихи": 7416,
      "търпят": 7417,
      "работен": 7418,
      "трима": 7419,
      "евтин": 7420,
      "вятър": 7421,
      "хеморо": 7422,
      "държава.": 7423,
      "дълга": 7424,
      "квадра": 7425,
      "грим,": 7426,
      "известе": 7427,
      "говори.": 7428,
      "говориш": 7429,
      "тройка": 7430,
      "сърбе": 7431,
      "кретен": 7432,
      "видяхте": 7433,
      "колеги": 7434,
      "устата,": 7435,
      "плев": 7436,
      "водещите": 7437,
      "боже!": 7438,
      "публикува": 7439,
      "шунда": 7440,
      "изкуството": 7441,
      "артист,": 7442,
      "парцале": 7443,
      "госпожи": 7444,
      "скъпа": 7445,
      "цензу": 7446,
      "здрави.": 7447,
      "минети": 7448,
      "никому": 7449,
      "свят,": 7450,
      "свят.": 7451,
      "бездарник": 7452,
      "поведение.": 7453,
      "предавания.": 7454,
      "очакваме": 7455,
      "слагат": 7456,
      "отзад.": 7457,
      "болез": 7458,
      "автомо": 7459,
      "интелигентни": 7460,
      "интелигентно": 7461,
      "блон": 7462,
      "милионери": 7463,
      "останалото": 7464,
      "герб": 7465,
      "тежка": 7466,
      "сетне": 7467,
      "неуда": 7468,
      "наградата": 7469,
      "вдовица": 7470,
      "гласува": 7471,
      "движи": 7472,
      "смислено": 7473,
      "очаквам": 7474,
      "подходяща": 7475,
      "таткото": 7476,
      "тиквата": 7477,
      "неповтори": 7478,
      "срамува": 7479,
      "богом": 7480,
      "!хттп://бит.лъ/2кргд93": 7481,
      "микрофо": 7482,
      "такъв,": 7483,
      "рялити": 7484,
      "3-ч": 7485,
      "симпатяга": 7486,
      "национален": 7487,
      "брутално": 7488,
      "англия": 7489,
      "симеон": 7490,
      "биологи": 7491,
      "предварително": 7492,
      "взри": 7493,
      "адмирации": 7494,
      "?в=": 7495,
      "безинтере": 7496,
      ".това": 7497,
      "120": 7498,
      "aтa": 7499,
      "амо": 7500,
      "дря": 7501,
      "елиза": 7502,
      "м?": 7503,
      "осра": 7504,
      "сбръчка": 7505,
      "удоб": 7506,
      "хъл": 7507,
      "ч!": 7508,
      "наг": 7509,
      "напи": 7510,
      "нагле": 7511,
      "навън": 7512,
      "напомня": 7513,
      "тошко": 7514,
      "незнай": 7515,
      "козе": 7516,
      "кова,": 7517,
      "..,": 7518,
      "мачо": 7519,
      "запи": 7520,
      "сей": 7521,
      "побой": 7522,
      "тир": 7523,
      "реa": 7524,
      "репли": 7525,
      "гого": 7526,
      "виш": 7527,
      "лати": 7528,
      "рор": 7529,
      "рони": 7530,
      "отказва": 7531,
      "мело": 7532,
      "месо": 7533,
      "мебели": 7534,
      "кили": 7535,
      "кивa": 7536,
      "самите": 7537,
      "сашето": 7538,
      "депу": 7539,
      "деси,": 7540,
      "мода": 7541,
      "белото": 7542,
      "жер": 7543,
      "изцяло": 7544,
      "ци...": 7545,
      "пили": 7546,
      "боте": 7547,
      "...на": 7548,
      "шефа": 7549,
      "прати": 7550,
      "ру/": 7551,
      "руди": 7552,
      "рунге": 7553,
      "чила": 7554,
      "кукла": 7555,
      "....а": 7556,
      "прину": 7557,
      "примити": 7558,
      "развежда": 7559,
      "хоп": 7560,
      "стока": 7561,
      "душе": 7562,
      "дунев": 7563,
      "соро": 7564,
      "ват!": 7565,
      "тъка": 7566,
      "въди": 7567,
      "слезе": 7568,
      "люб": 7569,
      "шаман": 7570,
      "безвку": 7571,
      "града": 7572,
      "рия.": 7573,
      "върха": 7574,
      "въртят": 7575,
      "смех": 7576,
      "слави.": 7577,
      "подмо": 7578,
      "чно.": 7579,
      "кaде": 7580,
      "здрави,": 7581,
      "оставят": 7582,
      "казвате": 7583,
      "пълнят": 7584,
      "тaкивa": 7585,
      "едното": 7586,
      "знаех": 7587,
      "дaли": 7588,
      "чалгаря": 7589,
      "цигания": 7590,
      "млада,": 7591,
      "актуа": 7592,
      "грозно,": 7593,
      "снимки,": 7594,
      "зaви": 7595,
      "пръсна": 7596,
      "новината": 7597,
      "к.р": 7598,
      "пял": 7599,
      "семеен": 7600,
      "друго,": 7601,
      "разбират": 7602,
      "спася": 7603,
      "реклама.": 7604,
      "кръсти": 7605,
      "двамата!": 7606,
      "труда": 7607,
      "филм,": 7608,
      "забравят": 7609,
      "почива": 7610,
      "пускате": 7611,
      "ййй": 7612,
      "ааааа": 7613,
      "музикант": 7614,
      "клеца": 7615,
      "актриса,": 7616,
      "актьор.": 7617,
      "формати": 7618,
      "студио": 7619,
      "фалшив": 7620,
      "хайде,": 7621,
      "мазното": 7622,
      "валери": 7623,
      "автора": 7624,
      "авторите": 7625,
      "бабичка": 7626,
      "получават": 7627,
      "отърве": 7628,
      "книги": 7629,
      "чудовище": 7630,
      "красота,": 7631,
      "цъф": 7632,
      "посредствени": 7633,
      "подкрепа": 7634,
      "помияр": 7635,
      "педал.": 7636,
      "крушата": 7637,
      "нарци": 7638,
      "влюбена": 7639,
      "сценарий": 7640,
      "обеща": 7641,
      "свинята": 7642,
      "съдба": 7643,
      "щастливи!": 7644,
      "свобода": 7645,
      "присъства": 7646,
      "плеймей": 7647,
      "рускиня": 7648,
      "оборо": 7649,
      "стораро": 7650,
      "мисир": 7651,
      "избират": 7652,
      "участват": 7653,
      "резил": 7654,
      "младеж": 7655,
      "анита": 7656,
      "опростач": 7657,
      "забремене": 7658,
      "понасям": 7659,
      "резултатие": 7660,
      "вежди": 7661,
      "евро!вчера": 7662,
      "анорек": 7663,
      "шурл=хттпс://доцтормедвеб.цом/": 7664,
      "обяснява": 7665,
      "хубост": 7666,
      "изпробвам": 7667,
      "чорапи": 7668,
      "тодор": 7669,
      "капаците": 7670,
      "босфор": 7671,
      "респект": 7672,
      "преместих": 7673,
      "цитиридис": 7674,
      "конкурен": 7675,
      "карбовски": 7676,
      "мерцеде": 7677,
      "невероятен": 7678,
      "шурл=хттпс://доцтормедвеб.цом/#": 7679,
      ",в": 7680,
      ",е": 7681,
      ",след": 7682,
      "ети": 7683,
      "кря": 7684,
      "лска": 7685,
      "с/": 7686,
      "сва.": 7687,
      "твa": 7688,
      "уз": 7689,
      "ц!": 7690,
      "чкa": 7691,
      "ш7": 7692,
      "ъс": 7693,
      "яз": 7694,
      "ял": 7695,
      "нацията": 7696,
      "насил": 7697,
      "набор": 7698,
      "та?": 7699,
      "тое": 7700,
      "капут": 7701,
      "ванче": 7702,
      "ране": 7703,
      "расте": 7704,
      "дана": 7705,
      "тече": 7706,
      "тегли": 7707,
      "копие": 7708,
      "мака": 7709,
      "мание": 7710,
      "зава": 7711,
      "запе": 7712,
      "заработ": 7713,
      "заминава": 7714,
      "погре": 7715,
      "поздрави": 7716,
      "си,че": 7717,
      "рения": 7718,
      "вино": 7719,
      "чекне": 7720,
      "лец": 7721,
      "откро": 7722,
      "отврa": 7723,
      "сат": 7724,
      "сака": 7725,
      "сали": 7726,
      "пая": 7727,
      "женa": 7728,
      "зи,": 7729,
      "щето": 7730,
      "изну": 7731,
      "изостави": 7732,
      "използ": 7733,
      "изхвърля": 7734,
      "изрусе": 7735,
      "бага": 7736,
      "бабе": 7737,
      "баце": 7738,
      "цици,": 7739,
      "ста,": 7740,
      "пропа": 7741,
      "пипа": 7742,
      "преби": 7743,
      "превър": 7744,
      "съот": 7745,
      "...за": 7746,
      "...това": 7747,
      "шена": 7748,
      "праи": 7749,
      "правете": 7750,
      "размно": 7751,
      "разкра": 7752,
      "раздя": 7753,
      "ският": 7754,
      "инг": 7755,
      "чола": 7756,
      "зелен": 7757,
      "чух": 7758,
      "фило": 7759,
      "рията": 7760,
      "върза": 7761,
      "грози": 7762,
      "нужни": 7763,
      "беше.": 7764,
      "по-добър": 7765,
      "страшни": 7766,
      "на.това": 7767,
      "кaкви": 7768,
      "здрава.": 7769,
      "манги": 7770,
      "вaли": 7771,
      "фекти": 7772,
      "остаре": 7773,
      "останала": 7774,
      "хитра": 7775,
      ".....!": 7776,
      "чалга,": 7777,
      "въздух": 7778,
      "най-накрая": 7779,
      "стигат": 7780,
      "децата,": 7781,
      "бяхме": 7782,
      "боклуци,": 7783,
      "джип": 7784,
      "джиите": 7785,
      "карамазо": 7786,
      "снимки.": 7787,
      "пръдна": 7788,
      "нти.": 7789,
      "вижда,": 7790,
      "джоба": 7791,
      "давайте": 7792,
      "гринго": 7793,
      "лки,": 7794,
      "тяхната": 7795,
      "играй": 7796,
      "правопи": 7797,
      "желание": 7798,
      "злобна,": 7799,
      "колева": 7800,
      "любовник": 7801,
      "продуцент": 7802,
      "живеем": 7803,
      "чувството": 7804,
      "място,": 7805,
      "известните": 7806,
      "софия.": 7807,
      "тъп,": 7808,
      "изкукури": 7809,
      "красавици": 7810,
      "екстра": 7811,
      "арна": 7812,
      "представите": 7813,
      "естествен": 7814,
      "андрея": 7815,
      "сетила": 7816,
      "фотошоп.": 7817,
      "добрият": 7818,
      "песни,": 7819,
      "сайтове": 7820,
      "честито!": 7821,
      "достойна": 7822,
      "платил": 7823,
      "невзра": 7824,
      "ванко": 7825,
      "очите.": 7826,
      "напред.": 7827,
      "наркоманка": 7828,
      "заедно.": 7829,
      "акъл.": 7830,
      "педерас": 7831,
      "спрях": 7832,
      "сложила": 7833,
      "циганка.": 7834,
      "циганка,": 7835,
      "огромно": 7836,
      "оцеля": 7837,
      "навсякъде.": 7838,
      "ориенти": 7839,
      "кюче": 7840,
      "сценаристите": 7841,
      "неудоб": 7842,
      "дрисльо": 7843,
      "ролята": 7844,
      "опъна": 7845,
      "сравнява": 7846,
      "минути": 7847,
      "съгласен": 7848,
      "истинската": 7849,
      "осигуров": 7850,
      ":)))))": 7851,
      "фермата,": 7852,
      "шкембе": 7853,
      "кaквa": 7854,
      "сладки": 7855,
      "обратното": 7856,
      "италия": 7857,
      "вулгарно": 7858,
      "бомба": 7859,
      "заприличала": 7860,
      "опосу": 7861,
      "длъжен": 7862,
      "стефчо": 7863,
      "кандидат": 7864,
      "джексън": 7865,
      "плюскаш": 7866,
      "сиктир": 7867,
      "прогнозата": 7868,
      "!има": 7869,
      ",както": 7870,
      "-само": 7871,
      "-нищо": 7872,
      "ап": 7873,
      "бб": 7874,
      "вка,": 7875,
      "влия": 7876,
      "еби": 7877,
      "е!!!": 7878,
      "епите": 7879,
      "жде": 7880,
      "к*": 7881,
      "к..": 7882,
      "лд": 7883,
      "ны": 7884,
      "смачка": 7885,
      "тните": 7886,
      "устен": 7887,
      "фла": 7888,
      "юлия": 7889,
      "язе": 7890,
      "наби": 7891,
      "надали": 7892,
      "натура": 7893,
      "напротив,": 7894,
      "тона": 7895,
      "вана": 7896,
      "данаи": 7897,
      "данчо": 7898,
      "теми": 7899,
      "нес": 7900,
      "непозна": 7901,
      "неадекват": 7902,
      "кози": 7903,
      "коня": 7904,
      "кофа": 7905,
      "копира": 7906,
      "лижа": 7907,
      "заме": 7908,
      "задна": 7909,
      "седе": 7910,
      "потъ": 7911,
      "почер": 7912,
      "покажат": 7913,
      "йн": 7914,
      "си..": 7915,
      "си,а": 7916,
      "рето": 7917,
      "реал": 7918,
      "вине": 7919,
      "ла\"": 7920,
      "лап": 7921,
      "розо": 7922,
      "лез": 7923,
      "лел": 7924,
      "мети": 7925,
      "вода.": 7926,
      "мисъл": 7927,
      "михлю": 7928,
      "дим": 7929,
      "паси": 7930,
      "патки": 7931,
      "бери": 7932,
      "изтъ": 7933,
      "изплю": 7934,
      "изпусна": 7935,
      "бака": 7936,
      "битка": 7937,
      "проми": 7938,
      "прощава": 7939,
      "пес": 7940,
      "пишка": 7941,
      "боко": 7942,
      "хала": 7943,
      "ха...": 7944,
      "събо": 7945,
      "събле": 7946,
      "...няма": 7947,
      "правата": 7948,
      "лудия": 7949,
      "прима": 7950,
      "ряд": 7951,
      "кранта": 7952,
      "самоле": 7953,
      "цените": 7954,
      "ката!": 7955,
      "туал": 7956,
      "тъжно": 7957,
      "дърта,": 7958,
      "чудите": 7959,
      "грани": 7960,
      "майна": 7961,
      "нaпрa": 7962,
      "дягно": 7963,
      "славена": 7964,
      "шок": 7965,
      "шокола": 7966,
      "имот": 7967,
      "вягра": 7968,
      "съмните": 7969,
      "още,": 7970,
      "йте!": 7971,
      "търка": 7972,
      "врача": 7973,
      "фаво": 7974,
      "сподели": 7975,
      "блица": 7976,
      "трибу": 7977,
      "криви": 7978,
      "ааа,": 7979,
      "трае": 7980,
      "взели": 7981,
      "зъм.": 7982,
      "пишете.": 7983,
      "красивите": 7984,
      "л.цом/": 7985,
      "джийка": 7986,
      "лaтa": 7987,
      "прости!": 7988,
      "снимката.": 7989,
      "конвен": 7990,
      "отврат,": 7991,
      "пръдне": 7992,
      "виждала": 7993,
      "джоб": 7994,
      "визия.": 7995,
      "мира,": 7996,
      "радина": 7997,
      "стане.": 7998,
      "момченце": 7999,
      "слово": 8000,
      "плюс": 8001,
      "2022": 8002,
      "втория": 8003,
      "освен,": 8004,
      "име.": 8005,
      "другаде": 8006,
      "любовницата": 8007,
      "идио": 8008,
      "коментиращите": 8009,
      "алчен": 8010,
      "проблеми,": 8011,
      "своята": 8012,
      "певицата": 8013,
      "шуро": 8014,
      "златен": 8015,
      "дарина": 8016,
      "софия,": 8017,
      "мозък.": 8018,
      "вирус": 8019,
      "сцена": 8020,
      "ценност": 8021,
      "статия.": 8022,
      "народни": 8023,
      "обратно": 8024,
      "съжалява": 8025,
      "малкият": 8026,
      "чалгарки": 8027,
      "доволни": 8028,
      "цом/вaтч": 8029,
      "маринов": 8030,
      "гръм": 8031,
      "фъфле": 8032,
      "лапат": 8033,
      "изпълнение": 8034,
      "обяви": 8035,
      "същество,": 8036,
      "интересно,": 8037,
      "гълъ": 8038,
      "песни.": 8039,
      "тайна": 8040,
      "чките.": 8041,
      "десито": 8042,
      "бе.цом/вaтч": 8043,
      "педерасти": 8044,
      "завистлив": 8045,
      "готово": 8046,
      "интриги": 8047,
      "миризлив": 8048,
      "ориги": 8049,
      "педалите": 8050,
      "отговорно": 8051,
      "артистка": 8052,
      "***": 8053,
      "дразне": 8054,
      "г-жа": 8055,
      "притежава": 8056,
      "серяли": 8057,
      "мммм": 8058,
      "уромебе": 8059,
      "араби": 8060,
      "гювен": 8061,
      "завършила": 8062,
      "поколение": 8063,
      "участието": 8064,
      "безплатно": 8065,
      "димитрова": 8066,
      "участник": 8067,
      "отвсякъде.": 8068,
      "президен": 8069,
      "хттпс://ввв.ъоуту": 8070,
      "външния": 8071,
      "харизма": 8072,
      "кенефа": 8073,
      "телевизора": 8074,
      "отварачката": 8075,
      "мегз": 8076,
      "арогант": 8077,
      "вачкова": 8078,
      "ресторан": 8079,
      "хттпс://еуромебе": 8080,
      "шаманду": 8081,
      "бе.цом/вaтч?в=": 8082,
      "хттпс://ввв.ъоутубе.цом/вaтч?в=": 8083,
      "хттпс://еуромебел.цом/": 8084,
      ",без": 8085,
      "-на": 8086,
      "-ис-": 8087,
      "aрти": 8088,
      "еу": 8089,
      "иля": 8090,
      "истан": 8091,
      "кв.": 8092,
      "мра": 8093,
      "м...": 8094,
      "нду": 8095,
      "нкa": 8096,
      "остa": 8097,
      "рните": 8098,
      "спу": 8099,
      "сна,": 8100,
      "тх": 8101,
      "ука": 8102,
      "уси": 8103,
      "увиснали": 8104,
      "фръ": 8105,
      "ч-": 8106,
      "наб": 8107,
      "натру": 8108,
      "наясно": 8109,
      "напус": 8110,
      "канали": 8111,
      "кафя": 8112,
      "тете": 8113,
      "недей": 8114,
      "необразова": 8115,
      "мада": 8116,
      "маска": 8117,
      "забър": 8118,
      "зарадва": 8119,
      "задържи": 8120,
      "се...": 8121,
      "селото": 8122,
      "покло": 8123,
      "тиква": 8124,
      "йт": 8125,
      "силни": 8126,
      "вита": 8127,
      "виси": 8128,
      "лашка": 8129,
      "чения": 8130,
      "роу": 8131,
      "рокли": 8132,
      "лев,": 8133,
      "сано": 8134,
      "вози": 8135,
      "дегради": 8136,
      "моги": 8137,
      "доку": 8138,
      "панта": 8139,
      "беб": 8140,
      "лор": 8141,
      "лов,": 8142,
      "израз": 8143,
      "издъ": 8144,
      "бас": 8145,
      "бало": 8146,
      "стария": 8147,
      "провал": 8148,
      "пи.": 8149,
      "прести": 8150,
      "хаза": 8151,
      "часо": 8152,
      "съну": 8153,
      "съболез": 8154,
      "шега": 8155,
      "права.": 8156,
      "жа,": 8157,
      "русна": 8158,
      "привле": 8159,
      "привлича": 8160,
      "катастро": 8161,
      "дупара": 8162,
      "дует": 8163,
      "чок": 8164,
      "пъти.": 8165,
      "защо?": 8166,
      "дърпа": 8167,
      "шал": 8168,
      "чучело": 8169,
      "лъжат": 8170,
      "гена": 8171,
      "геня": 8172,
      "гей,": 8173,
      "нa.": 8174,
      "хулига": 8175,
      "платят": 8176,
      "сметката": 8177,
      "глава.": 8178,
      "найде": 8179,
      "венци": 8180,
      "бух": 8181,
      "снощи": 8182,
      "слугина": 8183,
      "нтa": 8184,
      "негови": 8185,
      "обичa": 8186,
      "крият": 8187,
      "дъж": 8188,
      "знаете,": 8189,
      "дaл": 8190,
      "пак,": 8191,
      "третия": 8192,
      "въздуха": 8193,
      "най-важното": 8194,
      "завист.": 8195,
      "пише,": 8196,
      "цоцола": 8197,
      "направи,": 8198,
      "света,": 8199,
      "перни": 8200,
      "грозник": 8201,
      "лията": 8202,
      "всякаква": 8203,
      "пръсти": 8204,
      "пръстите": 8205,
      "питайте": 8206,
      "сигурна": 8207,
      "българското": 8208,
      "свинк": 8209,
      "джизъ": 8210,
      "грижа": 8211,
      "почна": 8212,
      "ченца": 8213,
      "ченцето": 8214,
      "успех,": 8215,
      "мангал.": 8216,
      "чително": 8217,
      "грехо": 8218,
      "джак": 8219,
      "турки": 8220,
      "рекламата": 8221,
      "минават": 8222,
      "учил": 8223,
      "простотия!": 8224,
      "телство": 8225,
      "глупавите": 8226,
      "благодар": 8227,
      "великия": 8228,
      "коментиращи": 8229,
      "музика,": 8230,
      "тъпка": 8231,
      "изкуствено": 8232,
      "парцал,": 8233,
      "начин,": 8234,
      "марияна": 8235,
      "нарочно": 8236,
      "самот": 8237,
      "продължават": 8238,
      "коментари!": 8239,
      "купил": 8240,
      "груби": 8241,
      "досажда": 8242,
      "жителни": 8243,
      "цунка": 8244,
      "уникални": 8245,
      "обърне": 8246,
      "левски": 8247,
      "овф": 8248,
      "елица": 8249,
      "кеф.": 8250,
      "приятелката": 8251,
      "редистинa": 8252,
      "силиконови": 8253,
      "представям": 8254,
      "обувки": 8255,
      "спокойствие": 8256,
      "включи": 8257,
      "барабар": 8258,
      "пошлост": 8259,
      "завършил": 8260,
      "сексапил": 8261,
      "завърш": 8262,
      "подобен": 8263,
      "брантия": 8264,
      "покритие.": 8265,
      "хттп://мевкид.нет/вхо": 8266,
      "перфектна": 8267,
      "проверя": 8268,
      "маскира": 8269,
      "изпробвала": 8270,
      "срамота": 8271,
      "действителност": 8272,
      "бръмчал": 8273,
      "тоалетната": 8274,
      "келеш": 8275,
      "яйца": 8276,
      "финансира": 8277,
      "справедливо": 8278,
      "гонзо": 8279,
      "казино": 8280,
      "репортер": 8281,
      "изневерява": 8282,
      "затваря": 8283,
      "абитури": 8284,
      "вятъра,но": 8285,
      "блондин": 8286,
      "-ис-редистинa": 8287,
      "съболезнова": 8288,
      "хттп://мевкид.нет/вхо-ис-редистинa": 8289,
      ",то": 8290,
      ",когато": 8291,
      "29": 8292,
      "?!!": 8293,
      "аве": 8294,
      "ева.": 8295,
      "жъ": 8296,
      "кьора": 8297,
      "мь": 8298,
      "млa": 8299,
      "млък": 8300,
      "опу": 8301,
      "окаже": 8302,
      "плът": 8303,
      "справи": 8304,
      "уте": 8305,
      "фта": 8306,
      "фра": 8307,
      "хто": 8308,
      "хте.": 8309,
      "явор": 8310,
      "нато": 8311,
      "напре": 8312,
      "напуска": 8313,
      "напротив": 8314,
      "точен": 8315,
      "качва": 8316,
      "те?": 8317,
      "теро": 8318,
      "неи": 8319,
      "нете,": 8320,
      "некъв": 8321,
      "ни?": 8322,
      "ний": 8323,
      "ничка": 8324,
      "коча": 8325,
      "коали": 8326,
      "мани,": 8327,
      "макси": 8328,
      "лише": 8329,
      "лизма": 8330,
      "заку": 8331,
      "замисли": 8332,
      "заклю": 8333,
      "поиска": 8334,
      "ти?": 8335,
      "тион": 8336,
      "тип.": 8337,
      "си....": 8338,
      "сите,": 8339,
      "реак": 8340,
      "вито": 8341,
      "вида": 8342,
      "ла...": 8343,
      "роми": 8344,
      "велича": 8345,
      "гам": 8346,
      "гаран": 8347,
      "отрази": 8348,
      "метра": 8349,
      "доно": 8350,
      "допри": 8351,
      "патри": 8352,
      "женен": 8353,
      "нят.": 8354,
      "нявам": 8355,
      "изпък": 8356,
      "изнася": 8357,
      "бива,": 8358,
      "билa": 8359,
      "циц": 8360,
      "ста!": 8361,
      "стаж": 8362,
      "провери": 8363,
      "пери": 8364,
      "престъпле": 8365,
      "часов": 8366,
      "съста": 8367,
      "събу": 8368,
      "мутрите": 8369,
      "много!": 8370,
      "разно": 8371,
      "разголе": 8372,
      "тъмно": 8373,
      "инa": 8374,
      "инсиг": 8375,
      "пукне": 8376,
      "чор": 8377,
      "зейне": 8378,
      "общи": 8379,
      "безкрай": 8380,
      "безмисле": 8381,
      "майките": 8382,
      "българи.": 8383,
      "гладу": 8384,
      "гладна": 8385,
      "дябет": 8386,
      "слани": 8387,
      "толкова.": 8388,
      "вaс": 8389,
      "куршум": 8390,
      "останеш": 8391,
      "дaвa": 8392,
      "редже": 8393,
      "пак.": 8394,
      "траги": 8395,
      "транс": 8396,
      "деца!": 8397,
      "направи.": 8398,
      "лaй": 8399,
      "грозното": 8400,
      "нтира": 8401,
      "дължи": 8402,
      "тяхното": 8403,
      "изглежда,": 8404,
      "анга": 8405,
      "блате": 8406,
      "момчил": 8407,
      "задръ": 8408,
      "задници": 8409,
      "шоуто.": 8410,
      "мърля": 8411,
      "троша": 8412,
      "клипове": 8413,
      "нейният": 8414,
      "средата": 8415,
      "правят.": 8416,
      "еврото": 8417,
      "лице,": 8418,
      "кръсте": 8419,
      "великоле": 8420,
      "супер,": 8421,
      "стойно": 8422,
      "свой": 8423,
      "музика.": 8424,
      "шун": 8425,
      "курва!": 8426,
      "особе": 8427,
      "линни": 8428,
      "простa": 8429,
      "боклуци!": 8430,
      ".......????": 8431,
      "екрана.": 8432,
      "оперира": 8433,
      "зрителя": 8434,
      "затвора.": 8435,
      "високи": 8436,
      "изпълнява": 8437,
      "написано": 8438,
      "светлинни": 8439,
      "вълну": 8440,
      "създава": 8441,
      "честита": 8442,
      "дебеланки": 8443,
      "изяви": 8444,
      "герои": 8445,
      "интервен": 8446,
      "държавата,": 8447,
      "зирана": 8448,
      "сещам": 8449,
      "гадже.": 8450,
      "сватбата": 8451,
      "политически": 8452,
      "хттп://бит.лъ/2овф": 8453,
      "обикновени": 8454,
      "история.": 8455,
      "универ": 8456,
      "посредствена": 8457,
      "навират": 8458,
      "педал,": 8459,
      "ивайло,": 8460,
      "вашето": 8461,
      "американ": 8462,
      "емоциона": 8463,
      "злобее": 8464,
      "половина": 8465,
      "хапчета": 8466,
      "приказката": 8467,
      "%д0%б0": 8468,
      "тексто": 8469,
      "ееее,": 8470,
      "милионите": 8471,
      "рейтинг": 8472,
      "истинското": 8473,
      "подобие": 8474,
      "христов": 8475,
      "приеме": 8476,
      "изисква": 8477,
      "апартамен": 8478,
      "дошла": 8479,
      "госпожата": 8480,
      "употребя": 8481,
      "мазната": 8482,
      "комплексирана": 8483,
      "улицата": 8484,
      "чарша": 8485,
      "перфектно": 8486,
      "възраст,": 8487,
      "яяяяяяяя": 8488,
      "златотърсачка": 8489,
      "манипулира": 8490,
      "разврат": 8491,
      "вампир": 8492,
      "заблужда": 8493,
      "1772": 8494,
      "такъв.": 8495,
      "божков": 8496,
      "приключи": 8497,
      "сляпо": 8498,
      "наркотици": 8499,
      "адвока": 8500,
      "ласкин": 8501,
      "3ш70": 8502,
      "скандал": 8503,
      "турчин": 8504,
      "яжте": 8505,
      "нечистоплъ": 8506,
      "портфей": 8507,
      "панайот": 8508,
      "посмеши": 8509,
      "депутат": 8510,
      "чолаков": 8511,
      "инсигхт": 8512,
      "хттп://бит.лъ/2овфкия": 8513,
      "\"шоу": 8514,
      "\"звезди": 8515,
      "-дядо": 8516,
      ".само": 8517,
      "3.": 8518,
      "39": 8519,
      "55": 8520,
      "?!!!": 8521,
      "анали": 8522,
      "блa": 8523,
      "вли": 8524,
      "дната": 8525,
      "дните": 8526,
      "дзве": 8527,
      "ефекти": 8528,
      "именно": 8529,
      "квa": 8530,
      "лкa": 8531,
      "мн.": 8532,
      "оч": 8533,
      "осве": 8534,
      "умя": 8535,
      "украйна": 8536,
      "чни,": 8537,
      "чни.": 8538,
      "шното": 8539,
      "ьь": 8540,
      "я?": 8541,
      "яват": 8542,
      "”.": 8543,
      "настоя": 8544,
      "набут": 8545,
      "торите": 8546,
      "канал": 8547,
      "калин": 8548,
      "ваги": 8549,
      "вален": 8550,
      "ни\"": 8551,
      "нии": 8552,
      "ма?": 8553,
      "мадам": 8554,
      "ли,че": 8555,
      "затри": 8556,
      "заприли": 8557,
      "сее": 8558,
      "покa": 8559,
      "побърка": 8560,
      "побърза": 8561,
      "тика": 8562,
      "тието": 8563,
      "си-": 8564,
      "сии": 8565,
      "сини": 8566,
      "сиган": 8567,
      "ревну": 8568,
      "го!": 8569,
      "ланди": 8570,
      "ле,": 8571,
      "легне": 8572,
      "веб": 8573,
      "вее": 8574,
      "вест": 8575,
      "галина": 8576,
      "отра": 8577,
      "отвътре": 8578,
      "отрица": 8579,
      "кита": 8580,
      "водите": 8581,
      "мика": 8582,
      "миля": 8583,
      "дело": 8584,
      "мова": 8585,
      "доколкото": 8586,
      "допълните": 8587,
      "паска": 8588,
      "бера": 8589,
      "ще.": 8590,
      "няква": 8591,
      "лопа": 8592,
      "изгу": 8593,
      "изказа": 8594,
      "изрази": 8595,
      "избива": 8596,
      "избро": 8597,
      "баня": 8598,
      "балко": 8599,
      "балък": 8600,
      "бики": 8601,
      "цин": 8602,
      "цици.": 8603,
      "ставате": 8604,
      "проси": 8605,
      "перо": 8606,
      "педи": 8607,
      "песен,": 8608,
      "пеперу": 8609,
      "боток": 8610,
      "съде": 8611,
      "съзна": 8612,
      "съсед": 8613,
      "лука": 8614,
      "румен": 8615,
      "кулина": 8616,
      "къф": 8617,
      "привлече": 8618,
      "разго": 8619,
      "нямаме": 8620,
      "само.": 8621,
      "нататък": 8622,
      "какво?": 8623,
      "пути": 8624,
      "зен.": 8625,
      "защо,": 8626,
      "мън": 8627,
      "безспо": 8628,
      "бездари": 8629,
      "фира": 8630,
      "финал": 8631,
      "рия,": 8632,
      "върше": 8633,
      "плазмо": 8634,
      "драми": 8635,
      "подвежда": 8636,
      "по-зле": 8637,
      "виетна": 8638,
      "кекс": 8639,
      "ките!": 8640,
      "аз,": 8641,
      "добрева": 8642,
      "манджи": 8643,
      "хиги": 8644,
      "хитре": 8645,
      "още.": 8646,
      "чалго": 8647,
      "крив": 8648,
      "времето,": 8649,
      "казах": 8650,
      ".....и": 8651,
      "мъж!": 8652,
      "младата": 8653,
      "лите!": 8654,
      "повече!": 8655,
      "другите,": 8656,
      "форум": 8657,
      "свежо": 8658,
      "свестни": 8659,
      "пръчица,": 8660,
      "мисли,че": 8661,
      "последовате": 8662,
      "хттпс://кaмериморето.ети.пв": 8663,
      "карто": 8664,
      "анто": 8665,
      "обичаме": 8666,
      "успее": 8667,
      "квото": 8668,
      "???????": 8669,
      "злобни,": 8670,
      "тук!": 8671,
      "видяла": 8672,
      "нейджър": 8673,
      "разбирам,": 8674,
      "колега": 8675,
      "пеньо": 8676,
      "бре,": 8677,
      "мислех,": 8678,
      "лицето.": 8679,
      "мястото.": 8680,
      "............": 8681,
      "филтри": 8682,
      "алчна": 8683,
      "джуки,": 8684,
      "щастлива!": 8685,
      "щастливи.": 8686,
      "харесвах": 8687,
      "вниманието": 8688,
      "положението": 8689,
      "почина": 8690,
      "зуек": 8691,
      "грамотно": 8692,
      "това,което": 8693,
      "сцени": 8694,
      "ценно": 8695,
      "ядеш": 8696,
      "кифла.": 8697,
      "започни": 8698,
      "народ,": 8699,
      "народната": 8700,
      "топка": 8701,
      "музикален": 8702,
      "вдигна": 8703,
      "завиждам": 8704,
      "силвия": 8705,
      "гъзъ?": 8706,
      "грубо": 8707,
      "показваш": 8708,
      "здравко": 8709,
      "излагация": 8710,
      "заслужаваш": 8711,
      "бездарни": 8712,
      "критику": 8713,
      "обърна": 8714,
      "платила": 8715,
      "изям": 8716,
      "предаванията": 8717,
      "надува": 8718,
      "ванчето": 8719,
      "малоумник": 8720,
      "убита": 8721,
      "момчето,": 8722,
      "булгари": 8723,
      "бягат": 8724,
      "опасно": 8725,
      "образование,": 8726,
      "помагат": 8727,
      "душици": 8728,
      "причини": 8729,
      "хейт": 8730,
      "тежки": 8731,
      "нагласена": 8732,
      "ромка": 8733,
      "варянт": 8734,
      "личните": 8735,
      "техни": 8736,
      "техния": 8737,
      "избрал": 8738,
      "първият": 8739,
      "дедовия": 8740,
      "пазара": 8741,
      "хващат": 8742,
      "насила": 8743,
      "дисци": 8744,
      "позволява": 8745,
      "направете": 8746,
      "хляба": 8747,
      "двойка.": 8748,
      "повярва": 8749,
      "ограниче": 8750,
      "американски": 8751,
      "отишъл": 8752,
      "синоптичка": 8753,
      "спечели.": 8754,
      "масажи": 8755,
      "дойчева": 8756,
      "изпрати": 8757,
      "научете": 8758,
      "толерира": 8759,
      "ноктите": 8760,
      "бегай": 8761,
      "кльоща": 8762,
      "мирела": 8763,
      "продължавай": 8764,
      "кандида": 8765,
      "ламбо": 8766,
      "управлява": 8767,
      "заслужено": 8768,
      "осинови": 8769,
      "майтап": 8770,
      "свидетел": 8771,
      "футболист": 8772,
      "сериозно.": 8773,
      "гарантирам": 8774,
      "препоръчвам": 8775,
      "любимец": 8776,
      "вълшебна": 8777,
      "отчайвайте": 8778,
      "ботокс": 8779,
      "рaботa": 8780,
      "вергов,": 8781,
      "жертва": 8782,
      "пантало": 8783,
      "плазмоди": 8784,
      "пръчица,която": 8785,
      ",вземи": 8786,
      "-ще": 8787,
      "90%": 8788,
      "апло": 8789,
      "аспару": 8790,
      "вта": 8791,
      "вски": 8792,
      "вци,": 8793,
      "гва": 8794,
      "гнала": 8795,
      "дник": 8796,
      "еф": 8797,
      "емили": 8798,
      "ич": 8799,
      "ль": 8800,
      "онал": 8801,
      "олига": 8802,
      "пто": 8803,
      "пчи": 8804,
      "св": 8805,
      "сване": 8806,
      "сна.": 8807,
      "тка.": 8808,
      "уто": 8809,
      "увре": 8810,
      "умиш": 8811,
      "ч8": 8812,
      "шизо": 8813,
      "наум": 8814,
      "наеба": 8815,
      "нар.": 8816,
      "напиша": 8817,
      "настрое": 8818,
      "тата.": 8819,
      "то-": 8820,
      "току": 8821,
      "камен": 8822,
      "тено": 8823,
      "тей": 8824,
      "нето.": 8825,
      "коля": 8826,
      "..не": 8827,
      "зака": 8828,
      "засе": 8829,
      "задържа": 8830,
      "забога": 8831,
      "секу": 8832,
      "поче": 8833,
      "попи": 8834,
      "порят": 8835,
      "покажи": 8836,
      "повдига": 8837,
      "гост": 8838,
      "вира": 8839,
      "чепа": 8840,
      "лесни": 8841,
      "веца": 8842,
      "от.": 8843,
      "отвъ": 8844,
      "оттър": 8845,
      "отговори": 8846,
      "мека": 8847,
      "кино": 8848,
      "мони": 8849,
      "стки": 8850,
      "дията": 8851,
      "доми": 8852,
      "догодина": 8853,
      "пазе": 8854,
      "бе...": 8855,
      "жеше": 8856,
      "няка": 8857,
      "лорд": 8858,
      "изпрост": 8859,
      "бавно": 8860,
      "банка": 8861,
      "бил,": 8862,
      "стая": 8863,
      "промо": 8864,
      "пият": 8865,
      "чат.": 8866,
      "събли": 8867,
      "му?": 8868,
      "ръси": 8869,
      "разко": 8870,
      "различа": 8871,
      "ходя": 8872,
      "хорица": 8873,
      "стоян": 8874,
      "цеп": 8875,
      "дуе": 8876,
      "дупен": 8877,
      "сова": 8878,
      "туря": 8879,
      "инвали": 8880,
      "общата": 8881,
      "дървен": 8882,
      "ша.": 8883,
      "безкрайно": 8884,
      "чуе": 8885,
      "чуя": 8886,
      "фика": 8887,
      "така,че": 8888,
      "такава,": 8889,
      "майната": 8890,
      "нaлa": 8891,
      "дялек": 8892,
      "динг": 8893,
      "голямa": 8894,
      "по-хубава": 8895,
      "единствена": 8896,
      "вие.": 8897,
      "кен": 8898,
      "кета": 8899,
      "нали,": 8900,
      "хтмл": 8901,
      "фай": 8902,
      "споме": 8903,
      "вно.": 8904,
      "тран": 8905,
      "умните": 8906,
      "млада.": 8907,
      "бокс": 8908,
      "завист,": 8909,
      "акти": 8910,
      "джино": 8911,
      "перфект": 8912,
      "вите.": 8913,
      "ците!": 8914,
      "отврати": 8915,
      "връзва": 8916,
      "пръсне": 8917,
      "коментар.": 8918,
      "живее,": 8919,
      "мръсо": 8920,
      "противо": 8921,
      "днешните": 8922,
      "льо,": 8923,
      "участия": 8924,
      "успеш": 8925,
      "родната": 8926,
      "мърла": 8927,
      "шкото": 8928,
      "чният": 8929,
      "черта": 8930,
      "черната": 8931,
      "намериш": 8932,
      "скорошно": 8933,
      "благой": 8934,
      "тии.": 8935,
      "божеее": 8936,
      "разбраха": 8937,
      "недора": 8938,
      "богатите": 8939,
      "шкия": 8940,
      "здраве!": 8941,
      "абсур": 8942,
      "почивай": 8943,
      "парцал.": 8944,
      "възпитава": 8945,
      "късмет.": 8946,
      "симво": 8947,
      "липсата": 8948,
      "обаче,": 8949,
      "топки": 8950,
      "мнение,": 8951,
      "чалгарска": 8952,
      "силве": 8953,
      "гъзъ,": 8954,
      "бързо?": 8955,
      "цaн": 8956,
      "зрител": 8957,
      "групата": 8958,
      "висок": 8959,
      "бивши": 8960,
      "изпълнения": 8961,
      "съпругата": 8962,
      "реагира": 8963,
      "самочувствие,": 8964,
      "самочувствие.": 8965,
      "камера": 8966,
      "нормално.": 8967,
      "надути": 8968,
      "певец.": 8969,
      "френски": 8970,
      "пенсията": 8971,
      "автобу": 8972,
      "долните": 8973,
      "бягай": 8974,
      "опашка": 8975,
      "елит": 8976,
      "махат": 8977,
      "махайте": 8978,
      "професията": 8979,
      "миризливи": 8980,
      "свършат": 8981,
      "уууууууу": 8982,
      "леле,": 8983,
      "пич,": 8984,
      "стрел": 8985,
      "тарифата": 8986,
      "шурл=хттп://тхепреттъгуинеaпиг.цом/преднисоне-20-мг/": 8987,
      "меракли": 8988,
      "убава": 8989,
      "сиганска": 8990,
      "собствената": 8991,
      "наред.": 8992,
      "разберат": 8993,
      "евтино": 8994,
      "излишни": 8995,
      "изкарват": 8996,
      "предлагам": 8997,
      "директор": 8998,
      "резул": 8999,
      "момето": 9000,
      "шарло": 9001,
      "дошъл": 9002,
      "манасти": 9003,
      "опростачи": 9004,
      "кошмар": 9005,
      "халваджия": 9006,
      "вилл": 9007,
      "комплексиран": 9008,
      "оправда": 9009,
      "спермоя": 9010,
      "италя": 9011,
      "ниaкои": 9012,
      "еййй": 9013,
      "система": 9014,
      "професионалист": 9015,
      "педофи": 9016,
      "широко": 9017,
      "омъжила": 9018,
      "сапун": 9019,
      "спомням": 9020,
      "статисти": 9021,
      "заслужава.": 9022,
      "фигура": 9023,
      "тлъстата,": 9024,
      "пайнер": 9025,
      "подражание": 9026,
      "игнорира": 9027,
      "скръб": 9028,
      "аванта": 9029,
      "закъсня": 9030,
      "идеална.това": 9031,
      "пенсионира": 9032,
      "ужасявайки": 9033,
      "околовръст": 9034,
      "маестро": 9035,
      "предпочитам": 9036,
      "неудач": 9037,
      "аморти": 9038,
      "паяжи": 9039,
      "ангажи": 9040,
      "шизофре": 9041,
      "шурл=хттп://тхепреттъгуинеaпиг.цом/преднисоне-20-мг/щ": 9042,
      "!не": 9043,
      "\"фермата": 9044,
      ",защо": 9045,
      "/у": 9046,
      "32": 9047,
      "aп": 9048,
      "aц": 9049,
      "аууу": 9050,
      "бтв,": 9051,
      "дката": 9052,
      "днa": 9053,
      "жката": 9054,
      "жлъ": 9055,
      "кя": 9056,
      "опази": 9057,
      "счу": 9058,
      "схе": 9059,
      "тките": 9060,
      "улица": 9061,
      "хя": 9062,
      "ън": 9063,
      "нас,": 9064,
      "надно": 9065,
      "тошо": 9066,
      "кадъ": 9067,
      "васе": 9068,
      "раки": 9069,
      "неви": 9070,
      "комеди": 9071,
      "маската": 9072,
      "лизи": 9073,
      "зара": 9074,
      "подобре": 9075,
      "похвали": 9076,
      "сират": 9077,
      "роша": 9078,
      "ров.": 9079,
      "робот": 9080,
      "верен": 9081,
      "откъдето": 9082,
      "мез": 9083,
      "ми!": 9084,
      "депре": 9085,
      "денa": 9086,
      "дечица": 9087,
      "мона": 9088,
      "мощен": 9089,
      "дистан": 9090,
      "дои": 9091,
      "допъл": 9092,
      "доходи": 9093,
      "женка": 9094,
      "лозе": 9095,
      "лов.": 9096,
      "изгуби": 9097,
      "използват": 9098,
      "що!": 9099,
      "пети": 9100,
      "пип": 9101,
      "пижа": 9102,
      "боб": 9103,
      "прея": 9104,
      "прегръ": 9105,
      "преследва": 9106,
      "прежали": 9107,
      "шефо": 9108,
      "мута": 9109,
      "лудо": 9110,
      "луиза": 9111,
      "чичков": 9112,
      "къпе": 9113,
      "пристра": 9114,
      "разкаже": 9115,
      "разправя": 9116,
      "самолет": 9117,
      "самоубий": 9118,
      "тя!": 9119,
      "тъпу": 9120,
      "ждава": 9121,
      "безобрази": 9122,
      "филъ": 9123,
      "лъка": 9124,
      "щината": 9125,
      "дяла": 9126,
      "т.н": 9127,
      "та,пълни": 9128,
      "подре": 9129,
      "подбира": 9130,
      "на,но": 9131,
      "на,дебела": 9132,
      "тоя,": 9133,
      "тоя.": 9134,
      "всички!": 9135,
      "буца,": 9136,
      "по-добра": 9137,
      "един,": 9138,
      "страте": 9139,
      "вaн": 9140,
      "сяга": 9141,
      "търго": 9142,
      "обидно": 9143,
      "споко": 9144,
      "криза": 9145,
      "вно,": 9146,
      "вното": 9147,
      "ниците.": 9148,
      "трам": 9149,
      "коври": 9150,
      "цигани,": 9151,
      "момичетата": 9152,
      "държанието": 9153,
      "българия?": 9154,
      "светът": 9155,
      "каранти": 9156,
      "перда": 9157,
      "грозница": 9158,
      "снимка,": 9159,
      "лка!": 9160,
      "пръц": 9161,
      "нтии": 9162,
      "казваш": 9163,
      "джур": 9164,
      "джон": 9165,
      "мерки": 9166,
      "телефо": 9167,
      "злоба!": 9168,
      "гнусните": 9169,
      "мира.": 9170,
      "бъркат": 9171,
      "селската": 9172,
      "писател": 9173,
      "тъпотиите": 9174,
      "крем": 9175,
      "верни": 9176,
      "селяци": 9177,
      "брена": 9178,
      "спасе": 9179,
      "миналото": 9180,
      "гърлото": 9181,
      "иванова,": 9182,
      "тружени": 9183,
      ":):)": 9184,
      "звездата": 9185,
      "личност,": 9186,
      "горната": 9187,
      "горките": 9188,
      "супер.": 9189,
      "красива!": 9190,
      "нарисува": 9191,
      "публична": 9192,
      "ра,буца,": 9193,
      "внимава": 9194,
      "нахално": 9195,
      "полов": 9196,
      "!!!!!!!!!!!": 9197,
      "тъпче": 9198,
      "гала!": 9199,
      "храната": 9200,
      "българин.": 9201,
      "блиц.": 9202,
      "алекс,": 9203,
      "емигра": 9204,
      "чужде": 9205,
      "позволя": 9206,
      "кърти": 9207,
      "идеално": 9208,
      "анален": 9209,
      "радвай": 9210,
      "любимата": 9211,
      "никола": 9212,
      "харесвам,": 9213,
      "стоянови": 9214,
      "интересно.": 9215,
      "ссс": 9216,
      "написала": 9217,
      "морални": 9218,
      "забравил": 9219,
      "алкохола": 9220,
      "лигльовци": 9221,
      "възрастни": 9222,
      "отзад,": 9223,
      "педераси": 9224,
      "пошли": 9225,
      "водещ,": 9226,
      "огром": 9227,
      "умрели": 9228,
      "разбереш": 9229,
      "фантази": 9230,
      "отговор": 9231,
      "отговорност": 9232,
      "подиграват": 9233,
      "дребна": 9234,
      "убавец": 9235,
      "усмивка": 9236,
      "плик": 9237,
      "търпим": 9238,
      "знaе": 9239,
      "индийски": 9240,
      "текст": 9241,
      "излишно": 9242,
      "футбо": 9243,
      "зъбите": 9244,
      "продаж": 9245,
      "мойта": 9246,
      "спонсор": 9247,
      "котето": 9248,
      "безплат": 9249,
      "девстве": 9250,
      "ръгай": 9251,
      "облечена": 9252,
      "хонорар": 9253,
      "мързели": 9254,
      "надарен": 9255,
      "нали?влез": 9256,
      "мляко": 9257,
      "простащината": 9258,
      "екипа": 9259,
      "бъдещето": 9260,
      "съществува": 9261,
      "жестоко": 9262,
      "нелепо": 9263,
      "интригантка": 9264,
      "бряг": 9265,
      "услуги": 9266,
      "наказание": 9267,
      "културата": 9268,
      "изгониха": 9269,
      "акаде": 9270,
      "обществото.": 9271,
      "стотици": 9272,
      "изречение": 9273,
      "поздравления": 9274,
      "хомосексу": 9275,
      "талант.": 9276,
      "тунингована": 9277,
      "цирк": 9278,
      "зaнимaвaте": 9279,
      "учиндол": 9280,
      "бардак": 9281,
      "апетита": 9282,
      "недейте": 9283,
      "кинти,нали?влез": 9284,
      "афиши": 9285,
      "кобилки": 9286,
      "особенно": 9287,
      "неграмотен": 9288,
      "шамандура,буца,": 9289,
      "истанбул": 9290,
      "цоцолана,дебела": 9291,
      "абитуриент": 9292,
      "блатечки": 9293,
      "университе": 9294,
      "виетнам": 9295,
      "тлъстата,цоцолана,дебела": 9296,
      "та,пълничката": 9297,
      "шамандура,буца,тлъстата,цоцолана,дебела": 9298,
      "шамандура,буца,тлъстата,цоцолана,дебелата,пълничката": 9299,
      "!да": 9300,
      "-за": 9301,
      "-това": 9302,
      ".на": 9303,
      "5000": 9304,
      "8.": 9305,
      "?не": 9306,
      "aре": 9307,
      "атра": 9308,
      "ах,": 9309,
      "бк": 9310,
      "брю": 9311,
      "вна,": 9312,
      "вник": 9313,
      "глига": 9314,
      "гсд": 9315,
      "дьо": 9316,
      "еше": 9317,
      "еруди": 9318,
      "змия": 9319,
      "истери": 9320,
      "кь": 9321,
      "лките": 9322,
      "оке": 9323,
      "огъ": 9324,
      "озъ": 9325,
      "ппъ": 9326,
      "рска": 9327,
      "сфе": 9328,
      "сгре": 9329,
      "тната": 9330,
      "уе": 9331,
      "ук": 9332,
      "убива": 9333,
      "фром": 9334,
      "ч00": 9335,
      "што": 9336,
      "юз": 9337,
      "ная": 9338,
      "назна": 9339,
      "напусне": 9340,
      "та...": 9341,
      "тома": 9342,
      "тоиa": 9343,
      "важи": 9344,
      "ваната": 9345,
      "важен": 9346,
      "темата": 9347,
      "нено": 9348,
      "немога": 9349,
      "нист": 9350,
      "коз": 9351,
      "кожени": 9352,
      "котьо": 9353,
      "корум": 9354,
      "нож": 9355,
      "масра": 9356,
      "ли....": 9357,
      "зано": 9358,
      "заре": 9359,
      "заря": 9360,
      "застра": 9361,
      "зарази": 9362,
      "запомни": 9363,
      "сено": 9364,
      "села": 9365,
      "постъпи": 9366,
      "тирa": 9367,
      "тична": 9368,
      "рече": 9369,
      "гошо": 9370,
      "чев.": 9371,
      "черти": 9372,
      "родени": 9373,
      "левия": 9374,
      "лекари": 9375,
      "вере": 9376,
      "веки": 9377,
      "отсъ": 9378,
      "откаже": 9379,
      "отбора": 9380,
      "меру": 9381,
      "метър": 9382,
      "медаря": 9383,
      "самия": 9384,
      "салич": 9385,
      "вола": 9386,
      "миска": 9387,
      "мин.": 9388,
      "мишка": 9389,
      "михай": 9390,
      "дерта": 9391,
      "стват": 9392,
      "довери": 9393,
      "договор": 9394,
      "пас": 9395,
      "паран": 9396,
      "бельо": 9397,
      "жено": 9398,
      "женена": 9399,
      "щели": 9400,
      "няк.": 9401,
      "изсму": 9402,
      "бива.": 9403,
      "стадо": 9404,
      "стаби": 9405,
[...]
